#version: 0.2 - Trained by `huggingface/tokenizers`
e r
e n
Ġ d
a n
i n
Ġ Ð
o n
e s
Ġ t
Ġ a
Ð ¾
Ġ s
ã ģ
a r
Ð °
o r
Ð µ
Ġ p
i s
c h
Ð ¸
e l
Ġ l
a t
a l
i t
Ġ c
h e
Ð ½
u n
Ñ Ĥ
Ñ Ģ
r e
Ø §
Ġ m
Ġd e
Ñ ģ
a s
à ¸
Ð¾ Ð
Ġ o
Ġ f
ã Ĥ
Ġ w
Ġ b
á ĥ
à ¤
e t
e d
ã ĥ
i l
Ã ©
Ġ in
r o
Ġ 1
Ġt he
à ¦
Ġ n
en t
à ®
u r
Ġ v
Ġ ×
Ġ S
an d
i c
Ð »
o s
i e
a d
a m
o m
à °
Ġ h
Ġ e
i on
u s
Ġ Ø
o l
Ù Ħ
t e
Ġ A
Ġ g
ã Ģ
Ð º
Ġ Ù
Ġ C
Ġ M
in g
l e
Ġ (
Ã ¤
Ġ un
r a
à ´
Ġ B
i g
Ġo f
i m
q u
Ñ ĥ
Ø ±
i d
Ġ k
u t
Ð ²
Ġ T
Ġ 2
Ġ P
Ġ "
Ù Ĩ
s t
Ġl a
e m
Ġ D
Ġ1 9
× Ļ
Ù Ĭ
es t
Ñ ı
Ġ en
i a
× ķ
Ġ L
Ġ and
á Ģ
Ð ¼
u l
i r
â Ģ
Ù Ī
Ġt o
is t
i v
Ġ Ø§
Ã ³
Ñ ĭ
Ġ r
Ð ´
Ġ H
à ¯
Ġ E
á »
Ã ¡
l a
Ġ I
Ġ G
Ġ R
Ñģ ÑĤ
t er
u m
Ù ħ
ĠÐ ¿
Û Į
Ġ F
×ķ ×
Ø ª
i ch
t a
Ġ z
Ġa l
e c
ĠÐ ²
er s
Ġ Ã
0 0
×Ļ ×
Ġc on
à ¥
Ġ re
Ø ¯
Ġ N
Ġ K
o t
Ġ Î
ï ¼
e g
Ġ qu
Ġd i
a c
Ã ¶
Ñ Į
d e
o w
Ðµ Ð½
ÑĢ Ð°
Ġ à¤
ãģ ®
Ġ Ñģ
Ñ ĩ
ĠØ§ ÙĦ
Ġ W
Ã ¼
Ġd er
Ġ J
à ¹
a g
Ġt h
Ù ĩ
a k
ãĢ ģ
an t
Ð¾Ð ²
r i
Ġc om
Ġs e
Ð ·
ä ¸
Ġ i
at ion
à §
ãĢ Ĥ
Ġ y
Ġ j
ĠÐ ¸
Ø ³
Ï Ħ
à ±
i o
à µ
c e
Ġ el
ĠÐ ½
i k
Ġl e
Ġp ar
Ġs t
u d
Î ±
Ġ an
Î ¿
Ñ ħ
Ġf or
Ġd es
Ð ¹
Ġp ro
Ġun d
Ġd el
Ð ¿
a b
à¯ į
Ġ V
b er
c i
o p
o d
en d
Ø ¨
a p
ĠÐ ¾
Ġ ì
Ã Ń
0 1
Ġ on
an g
Ġ is
n g
un g
u p
Ġ O
Ð ³
ÑĢ Ðµ
Ð° Ð½
Å Ĥ
Ð¾Ð ´
Ġ ch
Ð ±
Ġ et
Ø ©
Ġp r
a h
or t
ãģ «
es s
Ġw as
Ķ ×
Ġ à¦
er e
o g
Ñģ Ðº
Î ¹
ĠÙ ħ
i er
t en
Ġd ie
al l
u g
á º
Ġb e
v er
× ¨
n e
ĠÐ º
in e
u b
o c
Ġa s
an s
Î ½
t o
el l
en s
a y
a v
Â ł
Ġ er
Ð¾Ð »
Ø ¹
Ġ U
Ġ he
ÑĢ Ð¸
æ ľ
Ã ł
Ð° Ð»
ãģ Ł
Ġ2 01
il l
Ð¾Ð ¼
c t
× ľ
ãĤ ĭ
a ch
g e
i f
i z
ï¼ Į
or d
Ġ est
ĠÐ½ Ð°
Ġ2 00
áĥ Ĳ
Î µ
ĠÙ Ī
Ã¤ r
ãĥ ¼
Ñ Ĩ
ãģ ¯
Ġ à®
ŀ ×
ä º
Ġ× Ķ×
ĠØ ¨
u e
Ġ à°
i p
Ġa t
ĠÐ ³
Ä ±
Ġqu e
o ur
Ġa u
Ðµ Ð»
å ¹
ĠÐ ´
Ġs u
Ð¾ ÑĢ
Ġ Ã©
as s
o v
ì Ŀ
áĥ ĺ
un d
Ġt r
ĠI n
Ðµ ÑĢ
Ġd en
it h
ãģ ¨
Ñ İ
Ġp er
Ï ģ
t h
Ð¾ Ð½
à¤ ¾
ar d
ĳ ×
e k
Ġ1 8
å ħ
Ð¾Ð ³
Ã ¥
o k
Ðµ ÑĤ
Ú ©
i j
ãģ Ĺ
ãĤ Ĵ
ĠÃ ł
Ð¾Ð ¹
is ch
ĠS t
ent e
Ð½ Ñĭ
) .
i en
f f
Ð° ÑĤ
Ù Ĥ
1 9
i an
Ã ¨
Ġ âĢ
Ø§ ÙĨ
Ï ĥ
Ġ es
l y
Ð ¶
Ġw h
Ġ áĥ
p r
Ġ im
a u
Ġ ë
ar t
Ñ Ī
ãģ §
o u
ãģ ¦
) ,
àµ į
Ġ il
Ø§ Ø
Ù ģ
Ġ Ä
Ġe in
a z
s e
ĠT he
ç ļ
å¹ ´
Ġb y
r an
áĥĲ áĥ
å ı
al e
Ð½ Ð¸
Ã³ n
å ¤
ãĥ ³
i es
Ġw ith
in d
à¦ ¾
ro m
× Ķ
ĠÐ ¼
ãģ Ħ
çļ Ħ
t s
Ġd o
ãģ Į
t r
an n
Ġ 3
on d
e b
Ġa v
ĠC h
on g
Ð¸ ÑĤ
ĠÐ ±
e w
à¸ ²
Ï Ĥ
Ù ĥ
Ġ ÑĤ
Î ·
Ġd u
Ø§ ÙĦ
ä »
Ġ or
i b
at e
z e
Ġs p
Ġe x
Ã §
o b
m e
Ï Ģ
å ľ
Ï ħ
Ã© s
à¦ °
ĠÄ ĳ
Ġv on
" ,
s k
a in
ÐµÐ½ Ð¸
s ch
Ġ Z
Ġv an
ç Ķ
l i
as t
Ġa r
a i
Ð¾ ÑĤ
Ġ Ã¤r
à± į
n d
Ð¸ Ð½
Ä ħ
å ®
ad a
å Ĳ
er n
Ä Ļ
áĥ Ķ
' s
à¸ Ļ
ad o
ĠØ§ÙĦ Ø
on t
e p
Ñ Ħ
× ª
c k
ãĤ Į
à® ¿
Ġd a
Ġ Â
Ġal s
m ent
ĠÙ ģ
ar e
ic a
r it
à¯ ģ
Ã¶ r
am p
Ð¸ Ð»
Ã £
à§ į
u k
à¥ į
Ġ ÏĦ
Ð½ Ð¾
qu e
a j
å Ī
m er
i el
or e
áĥĺ áĥ
Ġv er
is s
p er
e it
à¸ £
h r
Ġ ro
à§ ĩ
Ġ19 9
Ġ à´
Ġ it
Ø Į
à¤ °
ãģ ª
ĠÐ ·
æ ĸ
ä ½
Ø ´
Ø§ Ø±
Ġth at
Ġ× ĳ×
áĥĶ áĥ
Ġl es
os t
ĠØ ¯
it y
à® ķ
e v
Ð¾Ð³ Ð¾
Î º
Ñ ī
l ich
Ø ²
or m
Ð° ÑĢ
Ġcom p
à° ¿
ĠA l
at o
" .
a is
Ð¾ Ñģ
Î »
à¥ ĩ
ĠØ ª
Ġa d
r u
Ðµ Ð¼
Ġ× ©
ec t
Ġn a
Ġ 4
æ Ĺ
à° ¾
l and
er d
ĠU n
Ġs o
c c
p p
ĠÂ «
Ã ª
iv e
à¦ ¿
f t
ad e
×ķ× ª
Ġe m
× Ĳ
Ø Ń
Ġp or
ÑģÑĤ Ð²
Ġ ent
Ġf rom
Ġ× ľ
n a
t i
Ġun a
Ð° Ð²
d u
z y
Ã¼ r
n y
te m
×Ļ× Ŀ
Ã£ o
Î ¯
à® ¤
ï¼ Ī
T he
ï¼ ī
Ø ¬
u re
ar i
í ķ
Ã© r
å Ń
ig h
r es
Ġs er
Ġ Ñĥ
i al
Ġs i
em ent
å Ľ
Ġl os
Â »
Ð» Ð¸
ĠÐ³ Ð¾Ð´
ĠÐ °
Ġa m
ãĤ ¹
Ġm ed
k e
Æ °
à¸² à¸
Ġp l
Ġ 5
Ġm it
Ð° Ðº
Ġ um
× ł
o h
Ġh is
Ġa b
ãĥ «
in a
ul t
ÑĨ Ð¸
Ġ Ú©
c l
å ¾
âĢ Ļ
Ġg r
à¸ Ń
ĠØ ¹
ion e
Ġt e
Ġw ur
Ġn o
Ġde m
ĠS ch
us t
w e
Ñģ Ñı
e ar
g r
Ġpar t
Ġ ê
i re
Ġ× Ĳ
Î ¼
ĠM ar
Ġo ch
ĠA r
k a
Ġ Ñĩ
ÙĬ Ø©
in s
at a
Ġt er
à¹ Ģ
å į
l o
Ðº Ð°
Ø³ Øª
é Ģ
Ġ19 8
e z
Ðµ Ð¹
ÑģÐº Ð¸
Ñ ĳ
ĠÐ Ĵ
Å ¼
i Ã³n
ic e
id e
à° °
Ã Ł
y s
Ġ ÑĢÐ°
å °
Ġt ra
ĠÐ ¡
Ï Į
Ð¼ Ð¸
à¹ Ī
ì Ĺ
ĠØ £
ion s
Ø§ Øª
u it
Ã© e
k t
Î¿ Ïħ
Ð» Ð°
k s
à´ ¿
Ġhe t
am e
Ð½ Ð°
ãģ £
ĠØ ³
æ Ī
z a
Ðµ Ð´
× ĳ
è ¡
d er
ĠÙģ ÙĬ
æ ĺ
à¸ ģ
Ġf in
à° Ĥ
ãĥ »
Ð°Ð½ Ð¸
à¤ ¿
Ã º
Ġ ra
Ġ ÙĦ
Ġc o
ĠA n
ic o
à± ģ
ÑĢ Ñĥ
or s
at ed
Ġcon t
h er
Ġ× ŀ×
Ġm et
áĢ º
âĢ Į
ĠL e
l es
é ģ
ig n
at t
u v
ĠÐ¾ ÑĤ
Ġo p
ãĥ¼ ãĥ
i ed
ãĤ ī
Ġ19 7
× ĵ
h o
à® °
Ġp re
us e
Ġ 6
Å Ľ
Ġw ar
Ġe en
ãģ ĭ
Ġa re
Ġ Y
un t
m an
ro p
Ġs om
in t
Ð¾ ÑģÑĤ
it t
g er
r y
ĠÐ¿ ÑĢ
Î ¬
ĠT h
Ġs on
it e
ë ĭ
Ø§ Ùħ
p ort
il e
Ġd as
à® Ł
à¦ ¨
et t
am il
Ġp o
s s
× ©
isch en
âĢ Ķ
ĠH e
Ġd Ã©
à¸ ±
ch e
ãģ ķ
us s
ãģ Ĥ
g en
æĹ ¥
Ġd ans
Ġr es
Ġ ist
Ġau f
å ¸
at er
a w
c o
Ġwur de
ar y
à¸ ĩ
or n
om m
iv ers
on s
áĥ Ŀ
à® ¾
v e
Ġfor m
Ñ į
l er
Ġd ur
à¹Ģ à¸
id a
ãĤ ¤
ĠD e
Ġp la
Ġ× ķ
Ø ·
Å ĳ
ÙĪ Ø±
r en
Ã¡ s
I n
Ġpar a
× Ĺ
Ġd is
Ðµ Ð²
Ġv o
Ġin ter
ĠÙ Ĩ
ĠÐ Ł
Ġ19 6
Ġw ere
å¤ §
ĠÐ ļ
an y
äº º
à¥ Ģ
d en
Ú ¯
Ġz u
ĠÐ µ
Ġ19 4
Ġc l
Ġch e
is h
âĢ ĵ
er t
Æ° á»
ĠE n
ä¸ Ģ
it u
ub l
s p
Ã ´
ãĤ Ĭ
c es
ãĥ ª
Ã© n
ĠØ§ÙĦ Ùħ
à¤ ¤
and o
Ġ -
Ġre g
à° ²
Ġ1 7
am b
ol l
an o
ich t
ÃŃ a
Ġun e
Ġm en
Ð¾Ð ±
à° ¨
il m
Ġn e
ãĤ ¢
ĠâĢ ĵ
Ã ±
Ġà¤ ķ
Ã ¢
Ġn el
ent o
× §
ä¸ Ń
Ø ®
ãĤ Ĥ
Ġm ar
on e
em p
em b
Ġg en
ÑĤ Ð¸
an te
á» Ļ
Ġs ur
à¤ Ĥ
u ch
Ñ Ĭ
g o
ar a
ãģĹ ãģ¦
m in
Ġa f
Ġ 7
Å Ł
æľ Ī
Ġ ÑģÑĤ
b en
à¤ ¨
Ã¤ n
Ġr el
f er
ãĥ Ī
p h
Ġo m
Ð» Ñı
Ð¾Ð º
Ùĩ Ø§
ãģ ĵ
å ·
Ġm e
Ñĩ Ðµ
æ Ŀ
à¹ ī
à® ª
r at
× ¤
Ø µ
Ġs ch
à¸ µ
c ia
Ġcon s
os s
ĠÐ¾ Ð±
Ġf o
Ġl as
å Į
å Ĭ
o ut
é ĥ
ĠÐ± Ñĭ
× ŀ×
ug h
Ġo b
Ġp ol
é ĸ
g an
ĠÙħ ÙĨ
ëĭ ¤
c a
n i
1 8
ol og
an a
Ġwh ich
Ù ī
Ðµ Ðº
Ġal l
ãģ Ļ
it ion
im e
å ±
ä ¼
æ Ń
el le
æ ī
w o
is e
ĠÐ· Ð°
ÐµÐ» ÑĮ
f orm
å º
or k
ãĥ ©
Ġa us
l l
à® ²
n o
Ð¸ Ñģ
er a
Ġh as
à¦ ¯
2 00
Ã³ w
h a
Ø§ Ø¯
Ġh av
ĠL a
ur s
ic k
à® ®
id o
áĥĿ áĥ
à´ ¨
à® ©
Ġ19 5
ãģķ ãĤĮ
ÙĬ ÙĨ
Ġ 8
Ġ1 5
Ġf Ã¼r
il d
àµ ģ
è ¨
à¸ ¡
all y
ĠÐ¸ Ð·
ĠÐ¿ ÑĢÐ¸
at ur
Ã¡ n
Ġcom o
Ġa pp
et er
× ĺ
u al
Ġdel la
ĠØ ´
ĠE r
Ġ Ïĥ
Î Ń
ation s
l t
Ġh ad
Ġp our
æ ķ
m en
Ġf amil
é ĩ
p l
Ġn ot
ation al
Ġ í
v en
ÙĪ ÙĨ
Ġc ol
Ġp h
ìĿ ´
ag e
æ Ķ
ĠÐ¿ Ð¾
ĠÃ ¨
b e
ÑĢÐµ Ð´
Ðº Ð¸
ĠS p
es e
p t
ç ī
Ġre c
åľ ¨
Ï ī
ig en
un e
ic al
u i
ĠF ran
ĠÙ ĩ
×ķ× ¨
ĠÐ ľ
ĠØ ±
à¤ ķ
y m
u er
Ġ1 6
ĠÃ ¶
Ġe ine
Ġl o
n ing
Ġs a
u x
Ġs ich
ĠÐ »
ar k
Î ³
Ġ19 3
âĢ ľ
i et
Ð¾Ð ·
m a
ãģĹ ãģŁ
Ġc ar
Ġs c
r as
Ġh er
ÑĤ Ð¾
ìĹ Ĳ
il le
ĠÎ º
ĠØ¯ Ø±
ist a
Ð½ Ð¾Ð¹
l d
ĠI t
Ġ 9
Ġa g
Ġf ir
2 01
ĠÎ ±
ãĥ ĥ
ÙĪ ÙĦ
ow n
ro s
Ġ ÏĢ
à´ ¾
Ġ1 0
à´ ķ
ä ¹
el s
ç Ľ
ion al
t t
ĠÐ½ Ðµ
L a
å ½
Ġ us
ĠÐ Ĳ
y n
ãĤ ¯
n h
à¸ ¥
ol d
Ð ¡
à´ ¤
à¦ ¤
Ġ ÑĦ
æ °
ĠE l
ìĿ ĺ
er b
à¤ ¯
Ġw erd
Ġs h
ic t
ÑĤ Ð°
ë Ĭ
Î ®
å ¼
×Ļ× ª
Ġb es
2 0
ĠâĢ ŀ
w a
Ð³ Ð¾
Ġg ro
en n
in o
e h
Ã© g
Ġm a
i á»
el d
em ber
Ð¾Ð» ÑĮ
Ġ ed
× ¡
Ġ× ¢
igh t
at i
ct ion
r on
Ġals o
å ĩ
Ġs ec
ãĢ Į
ãĢ į
à¸ ´
å ĭ
en ce
Ġd an
er o
Ġm an
åĽ ½
eg o
à¸Ļ à¸
j a
isch e
Ð¾Ð ¶
z en
u f
ãģ£ ãģŁ
ëĬ Ķ
Ã§ Ã£o
Î± Î¹
l et
ul a
ĠP ro
à¦ ķ
z t
ç µ
ÛĮ ÙĨ
Ġ× Ķ
at s
Ġcom m
ĠÐ³Ð¾Ð´ Ð°
Ġin d
ĠJ ah
Ġqu i
× ¢
ig e
ÐµÐ½Ð¸ Ñı
Ð² Ð°
ac iÃ³n
ĠØ ¬
è Ģ
re d
an ce
er v
Ð½Ñĭ Ñħ
é Ļ
Ġ Q
Ã© t
ãģĻ ãĤĭ
áº ¿
Ã¨ re
om b
ÑģÑĤ Ð¸
ê ³
æ Ļ
k o
è ¦
al t
id ent
ĠG r
à¦ ²
on n
Ġ Ñį
k u
if ic
m i
ãģ Ĩ
v el
Ġ .
à® ±
c ed
as e
ĠÃ ¼
00 0
å Ĩ
Ì ģ
ãģĤ ãĤĭ
om e
el y
Ð°Ð» ÑĮ
Ġs z
Ð Ĵ
à® ¯
p ar
ÑĢ Ð¾Ð²
Ġpr es
Ġin v
ĠD ie
Ð° Ð¼
p o
Ġv ers
m o
c z
ĠR e
å ¯
Ï ĩ
áĥĺáĥ ¡
at h
i ent
ì Ħ
Ã¤ t
à¸ ¢
è ¿
é Ľ
Ġv ar
n ie
i que
à¤ ²
Ð¾Ð ¿
Ġd al
Î¹ Îº
os e
ur a
Ãª n
ĠÐ ĳ
Ã ²
ad os
× ŀ
Ġfir st
t on
ĠI l
à¸ §
ç Ļ
ë ¡
Ġc ent
Ġj a
Ġin cl
am a
Ġ2 0
g es
Ġn h
Ġ1 2
à® ³
Ġa c
à¯ Ī
ãģ ¾
× ĳ×
a f
Ð½ Ð¾Ð³Ð¾
áº ¡
k i
y d
Ġp e
× Ķ×
Ġpr im
Ġ×© ×ľ
Ġa ut
am ente
ĠÙ ĥ
× Ĵ
ãĤ Ī
th er
× Ľ
n er
à¥ ĭ
ĠØ Ń
b an
à¸ Ķ
ci Ã³n
ãģĦ ãĤĭ
ãĤ ·
æľ ¬
k en
al es
al i
Ð¸ Ð¼
1 0
Ġb is
t re
è ĩ
Ġpro v
Ðµ ÑĢÐµ
Ġ X
à´ ¯
e i
Ġse in
Ġpro du
Ġ áĢ
ĠP ar
id ad
or a
ĠÙ Ĭ
al s
Ġund er
Ñģ Ð¿
Ġ ,
ãĥ³ ãĥ
ri b
ot t
ĠC o
Ġm od
Ġs up
Ġ( "
à° ķ
ĠD en
Ð´ Ð°
Ġh a
Ġ Û
ĠR o
ç «
åŃ ¦
ĠÐ² Ñĭ
u c
Ġl Ãł
Ï į
à¤ ¸
Ø ¶
u y
è¡ Į
Ġg o
ÙĨ Ø¯
ç §
Ġw o
Ġat t
ĠÎ µ
p e
Ø§ Ø¨
Ġl oc
ĠÐ Ŀ
åľ °
Ġ× Ľ
× Ŀ
ĠO r
Ġ× ĳ
è »
a it
el t
et e
ur g
Ġ1 4
ter n
or y
Ġp ers
ĠÐ ł
ie m
Ġ ut
b um
l an
or i
áº £
Ġa ct
Ã ¹
ul d
Ġb ut
ÙĪ Ø¯
Ġ ÑĢÐµ
Ġit s
Ð½Ñĭ Ð¹
ĠÙ Ĥ
en g
Ġv ol
re t
Ġthe ir
å ī
åĩ º
Ġh o
à¸ °
it a
Ø «
Ġp os
à¦ ¬
Ġn g
ÑģÐº Ð¾Ð¹
Ġn ach
Ñĥ Ñİ
g y
Ġ1 3
à¦ ¼
Ġo ver
£ áĥ
ol o
è ª
à® µ
Ġd ist
Ġ19 2
et te
qu es
Î ´
×ķ× ľ
Ġas s
ë¡ ľ
Ġv Ãł
Ð¸ Ð²
v a
om p
ç ´
ĠP r
Ø§ ÛĮ
u rop
E n
l Ã¤
æ ³
oh n
ĠV er
Ġc an
l ar
âĢ Ŀ
ĠT e
ãĤ ¿
Ð Ł
Ã¶ n
ÑģÐº Ð¾Ð³Ð¾
íķ ĺ
ĠØ ¥
Ġ up
Ġf r
à´ °
Ø º
ĠÐ Ķ
il la
å ¥
ĠÏĦ Î·
s te
Ġm on
ĠC ar
Ð° Ñı
b l
Ġf ilm
ad en
ÙĬ Ø±
æĺ ¯
áĢ ¸
" )
ul ar
Ġm in
ÙĦ Ùī
ung en
ç Ĥ
Ġa z
Ġp op
æ µ
ĠØ ¢
ac t
ĠÎ ¼
Ð¸ Ð·
ĠN ew
e f
c on
e j
Ġes p
æ ł
il it
o ol
Ðµ ÑģÑĤ
ä¸ Ĭ
r ie
à¥ ¤
ĠA m
L e
Ġk m
ç ķ
c y
Ä Ł
I I
Ã¨ s
Û Ĵ
end o
Ġof f
á» ĳ
ing s
ent s
and e
Ø £
Ġr Ã©
ĠÐ ¶
ĠÐ ĵ
m ente
ĠS h
at es
ì ł
à¸ ª
éĥ ¨
Ð» ÑĮ
áĢ ¬
Ġwh o
ir d
Ġon e
Ġy ear
Ñģ Ð¸
Ã¡ t
á» §
1 7
k an
Ġb et
Ġo ut
Å Ħ
æ ²
ac k
Ġent re
s i
a ut
ab le
Ġy ang
ch t
ÅĤ a
pr es
or es
g i
æ Ľ
ĠS e
er al
Ġc ap
Ġpl us
1 2
er k
à¸ ķ
ĠB r
Ðº Ð¾Ð²
å ł
Ġà¤ ¸
Ġa cc
ÐµÐ½Ð¸ Ðµ
à° ¯
oc k
ĠÐ ŀ
Ġì Ŀ
ĠA b
u a
å Ł
it s
ãģĭ ãĤī
Ġm us
ÃŃ t
×ķ× ł
Ġser v
å¾ Į
à¸ Ĺ
à¸ ļ
å Ĵ
è Ī
Ġvo or
Ġau ch
Ġp ubl
am m
z i
w n
ĠA us
ãģ ı
u te
ci p
ed e
à¹ ģ
st er
Ñĥ ÑĢ
in i
æľ ī
ĠÐ ¢
Ð° Ñģ
it o
Ġs ie
Ġb o
ÏĦ Î±
Ġs ub
ê °
ãĥ ķ
Ġ× ł
1 5
ãĤ ģ
g t
Ġst ud
re e
ĠUn ivers
em e
f l
Ġb ec
Ġh ab
Ã¥ n
à° ¤
el a
ãĥ Ń
ãĥ ¬
Ġs ta
à± ĭ
Ġav ec
ãĤ ¸
ĠÃ¼ ber
ä½ ľ
Ġl ig
Ðµ Ñģ
Ġhav e
ĠT r
ion es
à¤ ®
åĴ Į
u is
ä» ¥
ac e
æĻ Ĥ
æĪ Ĳ
ĠÐ±Ñĭ Ð»
ĠÐ³Ð¾Ð´ Ñĥ
eg en
i os
ĠØ§ÙĦØ £
Ġb eg
ĠÑģ Ð²
t Ã©
à° ®
Ġ ant
Î ¸
g a
×Ļ× Ķ
ĠC ol
in n
on o
ic an
ìĿ Ħ
m p
a ft
Ä ĥ
Ġl and
ĠÙħ ÛĮ
y a
Ġth is
Ð½Ñĭ Ðµ
it Ã©
Ã¡ r
ł áĥ
ap p
Ġ× Ļ
Ġp Ã¥
ÑģÐºÐ¸ Ð¹
Ġo s
Ġde c
u j
Ġt ro
à¤ µ
Ġbe i
l ie
r ist
ä ¿
Ġpla y
é ļ
Ġdi re
Ġcon st
Ð» Ðµ
al a
Ġs k
à° ¦
Ġt wo
å ĳ
l ig
ĠÐ¿ Ð¾Ð»
ĠØ¨ Ùĩ
o ch
Ġf Ã¶r
ur n
Ġtr ans
it ed
à¦ ®
ort h
Ï Ĩ
ĠÏĦ Î¿Ïħ
Ġs eg
æ ´
ic ip
çĶ ¨
ãĤ «
en a
Ä ĩ
Ġw e
ë ¥
Ã¥ r
Ġ201 0
çĶ Ł
Ð´ Ð¸
á» į
Ã© d
w ard
Ġ uit
ÐµÐ½ ÑĤ
ĠÃ© s
Ġar t
×Ļ× ¨
ĠIn d
p os
1 6
Ã© es
å ĵ
ra g
on a
Ġo g
ì ŀ
ĠA mer
áĥĶáĥ ĳ
Ñħ Ð¾Ð´
Ġf ue
æ Ģ
ij n
Ġb u
a us
Ø§ Ø³
é Ŀ
ĠS an
Ġc or
Ġin s
á»Ļ t
åĲ į
o ci
h en
al d
Ø °
ĠØ ®
ãģ į
Ġ :
Ã¡ l
Ġo u
Ã¡ c
Ã ¬
ì ľ
Ġe v
é ķ
ĠC on
ic i
Ġz um
Æ°á» £
à´ Ł
Ġbe en
p ro
Ð¸ Ñħ
est a
s h
Ġm o
ç ·
Ġsi ÄĻ
ta in
s z
is ion
Ø± ÙĬ
an u
ì §
u z
ä¼ ļ
áĢ ¯
b r
ol e
Ñı ÑĤ
Ġh at
ĠÙ ¾
ãģ£ ãģ¦
Ġà¤ ¹
Ġn on
Ġb as
Ġin c
ol a
Ġn um
ot h
D ie
¦ ¬
Ġv e
19 9
Ġb er
ÑĢÐ° Ð²
Ġin g
Ã¼ n
ãģ Ŀ
Ġk h
if e
ar b
ĠB e
áº Ń
y l
Ġpr in
Ðµ ÑĢÐ°
Ð ļ
ĠP h
Ġein er
æ Į
Î¹ Î±
Ġ '
Ġto t
ĠP ol
ĠÙĪ Ø§ÙĦ
ç ¾
j i
Ġì ŀ
ç Ĳ
ĠÑĢÐ° Ð·
ie j
ai re
A l
ãĤ £
Ġum a
an e
ĠA d
ĠB er
el la
Ġh ist
é «
E l
æ İ
ist er
en de
he d
ĠÐ ĺ
at iv
ÏĦ Î¿
v o
Ġdur ch
is te
l in
Ġà¤ ®
æ ĭ
ãģ ĳ
× ¦
Ġun ter
z o
åĲ Į
ç ¬
Ġm á»Ļt
à¸ «
å ¿
æ ¥
Ġpro f
Ï İ
Ð¾ÑĤ Ð¾ÑĢ
Ðµ ÑĢÐ¸
ber g
ĠÐ¿ Ð¾Ð´
Ġs in
Ġ2 5
å İ
1 4
ä» £
ber t
ĠØ§ÙĦ Øª
ÑĢÐ° Ð½
à¦ ¸
ida e
Ð°Ð» Ð¸
le m
ak e
Ã ¸
ç ľ
ä ¾
Ġz ur
at al
i or
ĠM e
åĪ Ĩ
as te
Ġz w
à¤ ¹
Ð° Ð´
ch en
ĠI s
az ione
à° ¡
æ ¸
st a
ãģ§ ãģĤãĤĭ
Ġ201 1
er en
ĠÐ¿ÑĢ Ð¾
ĠÐ Ľ
×Ļ× ł
Ġaf ter
st en
b re
ÏĦ Î·
Ø§Ø ¦
áº ¥
Ġin t
a il
åĲ Ī
Ġp i
Ð°ÑĤ Ð°
ãģĵ ãģ¨
Ã© m
Ġs el
1 1
ung s
Ġc á»§
Ñĩ Ð°
o f
y ch
à§ ģ
Ġcá»§ a
å¸ Ĥ
Ġd os
Ġà¤ ª
Ġt el
am i
al iz
ĠØ§ Ø³Øª
à¸ Ħ
Ġf ran
Ġm at
Ĥ ¬
il om
Ã¢ n
×ķ× Ł
id en
Ġwerd en
Ðµ Ð·
im a
Ġg i
p or
Ð¸ Ðº
i um
Ġp od
ĠÏĦ Î¿
ê µ
Â °
Ġt emp
id er
Ñĥ ÑĤ
ç İ
ç ¤
ĠØ§ Ø²
Ġer a
k ten
ÑĨÐ¸ Ð¸
íķ ľ
ÑģÑĤ ÑĮ
Ġm ag
ä¸ »
Ġp ass
Ð¶ Ðµ
. .
Ġà® ª
et s
Ġor gan
ut sch
Ð Ĳ
ĠQ u
os ta
åħ ¬
áĢ Ħ
ĠÎº Î±Î¹
Ñĥ Ð´
Ġsec ond
or ld
Ġc re
Ġ ÑĢ
y r
Îµ Ïģ
Ġde f
Ġs ont
el ij
Ġk e
Ġm ais
Ġ× ŀ
å »
y t
àµ Ĩ
ãĤ °
ãģ Ĭ
Ġbe f
ay s
1 3
Ġo ther
ant s
ar s
ra f
Ä± n
i x
Ġà¦ ¸
Ġthe y
i Ã³
ĠØ§ÙĦ Ø¹
ik a
ÙĪ Ùħ
or g
ì ĭ
Ġn ew
v ers
I l
Ġc amp
Ġáĥ Ľ
ow a
æ Ĭ
it z
el e
Ġd iv
æĸ ¹
. "
áĢ ±
Æ°á»£ c
å Ģ
Ġm Ã¡s
Ġdo or
Ġo d
ç¬ ¬
Ġp as
ĠR eg
Ã¤ ng
ver n
Ġpar te
Ð½ Ð¾Ð²
k re
ed er
×Ļ× ľ
Ġc as
p en
Ġ201 2
Ø¨ Ø±
à¥ ģ
S t
ÛĮ Ú©
Ð¾ Ñĩ
j e
áĢ Ń
à´ Ĥ
Ġ200 8
Ġ200 9
c er
Ð¸ Ð´
è ³
es ch
Ġ19 0
à¹ Į
ier t
ion i
Ġde t
ĠG en
ig in
áĥ £áĥ
ĠB o
×ķ× ĵ
Ġb r
end en
f ter
Î¯ Î±
Ġl eg
an k
Ð° Ð·
Ã ¦
ar r
Ġs ind
Ñī Ðµ
al is
Ġ u
Ñĥ Ð±
Ġdel l
om in
Û ģ
or ia
v ol
Ġ3 0
Ã© c
Ġpro gr
b a
ë ı
åŃ Ĳ
ìĿ Ģ
ãĤ Ħ
å £
ÑĢÐµ Ð¼
ĠÄĳ Æ°á»£c
s on
i ra
Ġin to
Ġ Ñħ
s en
áº §
Ġc r
ÙĦ ÙĬ
ê³ ł
Ġdi ff
× Ł
l am
å® ¶
Ġw ork
i am
Ġ1 1
çĤ º
Ð°ÑĤ ÑĮ
Ġw y
Ð¸ Ñı
il i
ĠÐº Ð¾Ð¼
à¦ Ł
ent r
Ġprin cip
Ġb el
ens ch
ĠG e
Ù ĭ
à¹ ĥ
k m
à° µ
äº ĭ
ĠE urop
Ġt ill
st r
æ ±
Ġ201 3
ĠÐº Ð¾ÑĤÐ¾ÑĢ
Ġincl ud
Ġcom e
Îµ Î¹
f ol
ic s
Ġde i
n s
Ġ×Ķ× ŀ×
Ġth á»
Ġ200 7
ĠâĢ Ķ
Ġp u
Ġes c
ur ch
Ġ201 4
uv ud
Ġt ime
ä¸ ĭ
Ġm er
ĠJah r
ar g
ad as
ãĤ ³
Ġà¦ ķ
ãģ ¤
Ð¸ Ð¹
ë ħ
¸ °
ìĦ ľ
Ġc u
b y
Ġ18 9
ing en
Ġsp ec
ĠÎ ¿
iá» ĩ
ãģ¨ ãģĹãģ¦
Ġà¦ ª
Ã¤ l
Ġf e
ì ķ
Ġs us
Î± Î½
le y
Ġpol it
Ġi h
b all
Ġun t
ĠÐ¿ Ð¾Ñģ
é« ĺ
Ġl ist
Øª Ø±
m ed
Ġv á»
ĠI I
Ġ 0
Ġf l
Ð¸ Ñĩ
Ñĥ Ñĩ
é ł
ain t
at z
Ð ł
ãĤ ª
Ġsu a
å §
Ġ× ¤
èĢ ħ
h al
a ir
ov e
ess o
ar io
ãĥ Ĩ
iv er
ãĥ ŀ
Ġs am
áĢ Ģ
Ð» ÐµÐ´
ĠÐ¸ Ð¼
è ©
Ø§ Ùĩ
re g
Ð¶ Ð´
ãģķãĤĮ ãģŁ
à¸² à¸£
Ġre t
ĠM a
Ġein em
an i
Ð½ Ðµ
Ġw ord
ÐµÑĤ ÑģÑı
en e
Ġal bum
as h
Ġk n
Ġ Ñı
Ġd r
Â» .
Ð°Ð½Ð¸ Ñı
ÅĤ o
ãĥ ī
am es
Ġdi es
A n
5 0
Äĥ m
Ġ200 6
ĠA s
on es
èĩ ª
h ip
ge b
Ġà® ķ
ãģĦ ãģŁ
u en
à¸ Ľ
ç ¨
Ġde p
Ġb est
ç ©
Ġf u
or te
ci al
Ġà° ª
Ð° Ð¹
Ġ201 5
à° Ł
Ð¾ Ðµ
ãģ ©
Ġre m
Ġen d
Ġ× Ĺ
or o
ar m
à¸ Ī
ĠÎ ´
Ġal la
ow ie
ĠH er
Ã¼ ck
as on
um ent
Ġz ijn
Ø§ Ø¹
u le
æ ¯
Ã¼ hr
Ġv al
ãģ§ ãģ¯
ow e
ĠI m
è µ
Ø¯ Ùĩ
lich en
ist r
ul i
Į Ģ
ç Ń
Ġtr ong
ter s
Ð» ÐµÐ½
ÅĽ ci
Ġn icht
Ġv or
au x
Ġh im
ĠJ ohn
Ãł i
ad t
æ ŀ
u es
Ġs he
à¥ Ī
ĠB ar
Ġh uvud
Ġg e
å® ļ
b o
Ñİ ÑĤ
Ġan n
æ ¨
Ð½Ñĭ Ð¼
ĠC l
Ã³ r
ãĤ ¦
Ġà® ®
ĠÐ¿ ÑĢÐµÐ´
åł ´
Ð½Ð° Ñı
ÛĮ Ø±
Ġì ł
f r
j en
Æ ¡
ad or
j o
ÑĢ Ð¾
à¤ ª
Ø§ Ùģ
à® ļ
eb ru
ì Ĭ
Ġt it
in c
ant es
Ġ ord
an z
out h
ek t
Ġ× §
à´ ²
ĠE ng
à¤ ¦
áĥĲáĥ ľ
Ġh ij
ys tem
× ĸ
Ġs ign
ĠF l
ç ¶
l en
à¸Ń à¸ĩ
n et
ĠØ¨ Ø±
Ð¸Ð½ Ð°
Ġn ov
ä¸ į
ç »
ç ı
ãģ« ãģ¯
x t
Ġ2 4
Ð½ Ñı
ĠÑĤ Ð°Ðº
è £
à¦ ¦
Ã© l
Ġm emb
at en
Ø§Ø ²
Ġlig ger
ess e
ĠS te
ĠP a
le v
ê° Ģ
Ġm ot
Ð¸ Ðµ
Ïģ Î±
à° Ĺ
ut ion
Ð¸ ÑĩÐµ
Ġà¦ ¬
à° ¸
åī į
éģ ĵ
ÑģÑĤÐ² ÐµÐ½
ç« ĭ
at ive
Ø§ ÙĤ
Ã¤ nd
à¸ ·
äº Ĩ
à± ĩ
19 8
io us
Ī ëĭ¤
ÏĢ Î¿
D e
3 0
Ð½ Ð¾Ð¼
×ķ× Ĳ
ur y
Ġsu cc
Ġpro p
k er
ro l
C h
Ġm aj
Ġm ore
Ġt á»
Ġ ÑĨ
Ġh á»į
b urg
Ã¶r d
Ġm ay
è ĥ
Ã¤ h
ãĥ ¡
æ³ ķ
Ġo per
è ¥
ĠM on
ilom eter
Ġfo i
Ġ×Ĳ ×ª
ãĥ Ĺ
i as
á ģ
Ġl ong
Ġ201 6
it al
ĠÐ¿ ÑĢÐµ
è Ń
Ġà° ķ
ĠE st
à´ ±
ĠE in
Ġz e
Ġc e
an ia
åħ ¥
ak o
Ġd at
ĠÃ ¥
Ġro ku
Ïī Î½
Ġo l
Ġwh en
w ay
ÙĪ Ø³
Ġb l
U n
Ġm ost
ĠG er
ar en
ìľ ¼
ĠÄĳ á»
ãĤ ı
it i
u de
Ġw ird
è ²
ang e
Ġ ÑĪ
ĠA nd
ãĥ Ĳ
ä½ į
ar l
à´ ª
Ġc Ã³
p s
ë ĵ
u h
æī Ģ
Ð¼ Ð°
om en
Ġwo uld
as ed
s el
é ĺ
ik e
Ïģ Î¿
le x
Ġd on
Ã´ ng
à¹ Ħ
à¸ ¸
Ġ &
ta g
ĠÐ ¤
ãģ Ī
s c
in en
Ġau x
Ġc er
le g
ĠH o
à¸ ŀ
áĥ ł
Ø§Ø ¡
à± Ģ
ĠF or
t y
Ð¸ Ð¸
n en
Ġ18 8
å¤ ļ
A r
Ġyear s
éķ ·
Ġt en
Ġj ed
Ġs im
Ġa Ã±
e an
ĠW est
ĠÑģ Ð¾ÑģÑĤ
è ģ
ĠA ug
Ġgro up
ãĥ ¥
æĸ °
Ġcont in
is m
ÑĢ Ñı
ĠU S
ÙĦ Ùħ
ant o
ĠÑĩ ÑĤÐ¾
Ð¾Ð½ Ð°
ç ¥
Ġ200 0
im ent
Ġs itu
in es
ĠD er
Ġm eg
ri ed
Ã¼ l
ä» ĸ
Ġen c
Ġl ater
Ġpubl ic
at or
on y
Æ°á» Ŀ
Ġl ie
ĠL and
Ñĭ Ñħ
Ġp ort
Ġs ing
et z
g el
Ġn ord
éĸ ĵ
ç Ł
Ġb and
Ġ× Ĵ
áĥ ķ
Ġj o
in de
Ġ× ¨
Ð°Ð» Ð°
sk i
im o
Ġg ra
tem ber
Ú Ĩ
Ã¡ g
ĠN ov
ens e
é ¡
op h
Ð Ŀ
os a
Ġk on
Ġw ie
è ®
qu ip
Ġn Äĥm
Ù ¾
è §
Ġor igin
à° ª
ĠA ng
ãĥ ĩ
ë ¦¬
Ð³ Ð°
æľ Ģ
Ġpers on
Ġl at
ÐµÑĢ Ð²
it er
Ġa an
iv a
à®ķ à®³
ì§ Ģ
Ġn ie
å± ±
Ġs ol
Ãł y
Ġres p
n ia
as i
ãĤ µ
Ġs ig
à´ ®
Ġex p
v ent
it Ãł
Ðº ÑĤ
æ ¬
z ie
k et
éĸ ĭ
i áº¿
ĠO n
ëħ Ħ
Ð¾ Ñı
ĠÐ¾ Ñģ
Ġwh ere
ë¥ ¼
Ġo t
Ġp el
Ġm ill
Ø± Ø¨
Ġein en
il s
Ġst r
Ġcon c
à¸µ à¹Ī
Ġdes c
Ġv is
Ã¶ l
ar ia
ro ugh
è¥ ¿
g li
we en
is hed
×ķ× ¡
Ġet t
i ro
è ¾
Ġcl ass
æ° ĳ
ĠØ¹ ÙĦÙī
Ġt y
æ ©
Ã µ
pres ent
s n
ĠÃ© tÃ©
Ġt ak
à´ µ
ic os
to ber
Ġp ow
Ġ x
ãģ« ãĤĪ
v Ã¤
çĻ º
a ar
Ġtr ad
çī ©
ut a
Ġê °
Ñĭ Ð¹
Ġag ain
Ð ľ
à® ¨
è ·
Ġform ula
ãĥ £
ĠÃ¶ ver
re ich
ĠÚ© Ùĩ
Ġ×¢ ×ľ
Ġ200 5
Ġb ir
st ra
ĠM o
Ø ¸
ĠÐº Ð¾Ð½
áĥ ļ
Ñĥ Ð¿
Ðº Ð¾
ĠG u
ad es
iv o
à¹ ĩ
Ġ2 2
ri o
re m
Ã³ l
ÑĢÐ° Ð·
ÅĤ y
b ar
ãĥ ĭ
Ġon ly
åĭ ķ
Ñĭ Ðµ
ĠC an
z ione
Ġin st
Ġs es
am ent
æĶ ¿
×Ļ× §
d a
Ġinter n
Ð°Ð½ Ð´
Ġde ux
ç ½
or r
ãģ¦ ãģĦãĤĭ
áº¡ i
ä¸ ĸ
Î ²
ÙĬ Ø¯
Ġp oss
ĠM an
ĠP er
ãĤ ¨
un i
ÑģÑĤÐ² Ð°
oll ow
ĠìĿ ´
æ ı
ul l
Ġk Ã¶
Ġte am
æĸ ĩ
ar ter
Ġ200 4
op p
our s
Ġ18 7
Ġp ra
d o
Ġ Å
Ġdur ing
pr il
æ Ħ
ah r
om a
ĠA t
ĠUnivers ity
ĠM it
ÑģÐºÐ¸ Ñħ
Ġà¦ ı
ut o
b le
ien e
Ġe ff
Ġing Ã¥r
æĪ ¦
áĢ Ļ
Ùħ Ø§
Ð¾ ÑĢÐ¸
Ġh ar
Ð ŀ
ĠI ng
ĠT ra
Ġo der
åľ ĭ
Ä± r
Ġd ue
ĠÏĦÎ· ÏĤ
ar on
Ġ× ¡
éĢ ļ
i Ãªn
Ġ18 6
ĠÑģ Ð¾
Ġc z
Ġáĥ ¡
Ġ Ú¯
Ġwur den
iv al
ĠM us
ÙĩØ§ ÛĮ
ĠM in
Ġp a
Ġim port
al ia
Ġp un
il t
×ķ× ¤
is k
Ġon t
à® £
áĥ ¡
Ġcl ub
Ġm ov
ĠUn ited
Â» ,
à¸ ¹
iel d
Ġáĥ ĵ
à¤ Ĺ
iss ion
Ġre p
åĮ ĸ
ch n
ãĢ İ
ian o
ãĢ ı
o us
Ġ201 7
à¹ Ĥ
ä¸ º
ib le
è ī
Ġnel la
Ġà® ĩ
19 7
ent es
ĠN e
ãĤī ãĤĮ
ell o
im m
ĠÐº Ð°Ðº
Ġconst ru
ãĥ ł
Ľ i
æĿ ±
ì Ľ
è¡ ¨
Ġet a
åĮ Ĺ
Ġ×Ķ× Ĳ
Ð¸ÑĤ ÐµÐ»ÑĮ
à§ Ģ
à§ ĭ
Ġ2 3
ĠY ork
ers ch
ãģ ł
ak an
Ġbet ween
Ġg ew
ĠÐ´ Ð¾
áĢ ŀ
Ġth ere
Ð± Ð¾ÑĤ
ì ĸ
Ġm as
Î¼ Î±
g et
ied er
Ġë °
Ä± nd
ĠdÃ© c
k l
ĠP l
ier te
Ø± Ø¯
æ ¼
es te
Ġà° ¸
Ġmet er
áĢ Ĳ
æĹ¥ æľ¬
áĢŃ áĢ¯
in ter
ĠÐ¾ Ð´
Ã© p
×ĳ ×¨
at ure
ur es
an c
ì ļ
Ġh igh
æµ ·
Ġa p
id os
Ġde b
Ñĳ Ð½
est o
Ġar r
åħ ¨
ÙĬ ÙĦ
i i
ĠÙħ Ø¹
á» Ł
Ġt amb
at ing
Ġfo und
Ãµ es
æĸ ¼
Ġm ade
çī ¹
ĠN ach
Ġ× ª
am ento
ãģ¨ ãģª
Ġim p
ìĬ ¤
ĠG re
Ġ( )
ãĤ ĵ
Ñĥ Ñģ
åį Ĺ
Ġà® ¤
ĠÑģ Ð¿
ãģĿ ãģ®
Ġs te
æķ Ļ
Ġse b
lich e
T h
o ugh
ĠØ ²
ãĤ Ń
Ġ2 1
Ġr unt
×Ļ× Ĳ
áĢ ¼
al ah
ÑĤ Ðµ
ç Ī
çı ¾
en ne
is mo
æ¥ Ń
à¦ ª
Ġcom me
ĠG ro
Ð¾ÑĢ Ð¾Ð´
åº ¦
Ø ¦
ĠÐ² Ð¾
ĠÐ £
ĠÎ¼ Îµ
à°¿ .
ĠS ep
au f
ĠE d
ì ĺ
Ġsu ch
å¹ ³
Ġn am
ĠÐ´ Ð»Ñı
ĠB rit
Ġth en
áĢ Ķ
ie w
Ġs ob
er st
ag ue
æī ĭ
å° ı
à¸£ à¸°
ĠN ational
ÑĢ Ñĭ
ĠE m
× ļ
Ġth ree
± Û
åĬ ł
ë Ĥ
Ġus ed
ĠG o
end er
Ã¤ hr
Ġs em
Ġdel le
è ¯
Ġo cc
Ð³ ÑĢÐ°
ie go
Ġ2 6
Ð» Ð°Ð²
Å ±
is i
m et
ãĥ ĸ
Ø± ÙĪ
Ġpr z
ig er
ĠC omm
Ú º
Ñĥ Ð½
ãĤ º
Ð Ķ
æĢ §
b or
Ġth an
ir es
at u
Ð°Ð½Ð¸ Ðµ
ÐµÐ½ Ð°
Ġde v
ÑĤ Ð¾ÑĢ
Ð½Ð¾ Ðµ
åĨ ħ
ĠE x
ç¤ ¾
è» į
ic as
l ing
Ġì ķ
ep ubl
l as
ĠTh is
Ø§ Ø³Øª
Ġ2 8
ir c
ak t
ĠM al
Ġcomm un
Ġdis p
r ich
i us
ê ¸°
×Ļ× Ł
ÑģÑĤÐ² Ð¾
Ġl ang
ah l
ĠÐ¿ ÐµÑĢÐµ
Ġab out
y e
Ġd ass
Ġf ut
e x
i ÄĻ
ĠS c
Ġl iv
ĠÂ »
é Ł
ĠC om
ĠÐµ Ð³Ð¾
in k
Ġsch ool
u ro
Ġn omb
ce pt
ê ²
Ġ1 00
Ã¼ nd
i h
æľ Ł
Ġà® µ
Ġsu o
à¥ĩ à¤Ĥ
Ġfin al
Ġf ol
Ġs et
Ġà¤ µ
Ġthe m
Ã¶ g
a an
ist en
Ġe gy
Ġ2 7
ĠÑģ Ðµ
ed erb
à´ £
al if
ut h
Ġcon f
à¤ Ł
ĠAug ust
Ġt re
Î½ Î±
ederb Ã¶rd
Ġr ad
a Ã±
ĠAus tr
à¸ Ĥ
ĠM ed
ãĥ ģ
Ġv Ã¤
Ð½Ð¸ Ðº
ian a
Ġrec ord
Ġe ar
Ïĥ Î·
el m
v al
at her
à¸ Ĭ
Ġm y
ëı Ħ
o is
ĠØ§ÙĦ Ø³
st ell
ãģª ãģ©
le ct
ess ion
Ġà¤ ľ
Ð¸Ð» ÑĮ
ĠAmer ican
×Ļ× ĵ
un c
Ġgr up
Ġpop ul
Ð· Ð°
çĲ Ĩ
Ġfin ns
çĽ ®
Ġv u
id ade
Ñĥ Ð¶
la g
Ġbec ame
un k
2 5
er r
ÙĦ ÛĮ
Ð· Ñĭ
Ġs lÃ¤
Â ²
Ñģ Ðµ
w er
Ġpi Ã¹
Ġg eb
ĠW ill
av e
es p
ĠØ§ÙĦØ Ń
Ø§Ø Ń
b ol
Ġb ar
ic z
re i
u an
isch er
j ect
Ġm ain
áĥĶáĥ ļ
ĠÃ º
Ġpres ent
Ġsom e
ãĥ Ĭ
Î¿ Ïį
Ġm ilit
æĸ ¯
ĠÐ ¥
ĠS ta
ÏĢ ÏĮ
Ø¹ Ø¯
Ġ Ã¡
or f
Ġrel e
D er
ĠÐ¸ Ð½
ÃŃ n
Ġut il
k at
Ġm u
Ð¾ ÑĢÐ°
Ġà® ħ
ä» »
Ġ %
ĠW ar
à´ ³
ĠM ay
et h
ä¸ ī
Ġd est
Ġpr ze
ĠS he
ĠÙĦ ÙĦ
Ã «
st and
Ð³ Ð¸
ĠB ro
Ġa ff
Ġin f
Ġi hr
Ã¶ s
ch er
ĠW e
up er
Ã ®
Ġh an
Ġf our
ÑģÐº Ð¾Ð¼
ny ch
ĠÐ´ Ðµ
Ġl ar
Ġdire ct
ĠØ£ ÙĨ
19 6
Ġà¤ ħ
Ġs en
Ġkn own
Ùħ ÙĦ
Ġ199 0
im i
Ġl i
Ġf ollow
×Ļ ×ķ×ª
ĠW orld
h t
Ġdel en
Ġ ess
r ic
ac ional
Ġal le
Ġì Ħ
ĠCh rist
ãĤ §
çĶ ±
Ġ×Ķ× ©
Ġc all
he m
Ġb ro
ĠÐ¾ Ðº
Ġc a
el f
Ð¸Ð» Ð¸
ĠØ§ÙĦ ÙĤ
ie f
è» Ĭ
ra ph
v s
ä¹ ĭ
à¯ Ĩ
Ŀ ¼
ra b
Ġloc al
ÙĬ Ø§
kt et
v ed
ë §
j et
Ġm il
ĠÐ Ĺ
ri j
ãģ ¡
Ġpart icip
ab a
h am
un a
l os
Ġt or
op le
Ġf il
per atur
ĠE s
ë ©
4 0
Ġg eh
ad em
Ð ĳ
Ġfamil jen
l ed
t Ã³
ol i
è¦ ģ
ĠÃ© ta
av a
ĠIn tern
ĠS o
ĠSep tember
è¨ Ń
sch aft
Ø§Ø ´
ĠJ anu
ÑĨ Ð°
æ© Ł
Ġt em
Ð°Ð½ Ð°
ãģĵ ãģ®
ĠP art
eit en
Ġ200 1
Ã³ d
v i
Ġw ell
ĠÐ² ÑĢÐµÐ¼
Øª Ùĩ
Ġse ason
ë ł
m ar
Ġc Ã¡c
ul o
ìľ¼ ë¡ľ
ĠB l
and er
Ġd ari
Ġson o
ç º
à´ ¸
ä½ ĵ
Ġal t
est er
Ġf ac
Ġ200 3
Ġà° µ
ĠØ¥ ÙĦÙī
is en
ik an
Ġv i
g al
ĠL es
ĠH a
Ġ ur
ç Ħ
ë Ĳ
Ġ [
ĠS u
Ġg re
éĿ ¢
Ġv ari
Ī ĺ
vel op
à¤ ľ
åĬ Ľ
ÑĨÐ¸ Ñı
m ann
×ķ× ĳ
Ð´ Ðµ
à¦ ¶
ro und
è ĭ
ud en
Ð² Ð¸
Ġ200 2
à¥ Ĥ
Ġt a
us tr
Ð½Ð¾ ÑģÑĤÐ¸
åĪ ©
Ġg u
Ġg el
Ïĥ ÏĦ
à¤ ļ
ĠF r
le ment
Ġs ul
æ ®
Ġ áĥĲáĥ
áĢ ·
å¼ ı
Ġ×ľ ×Ĳ
åĮ º
å¤ ĸ
og ue
Ġan che
ut t
ĠÎ ³
Ġprogr am
å· ŀ
Ġw eit
ĠÑģÐ¾ÑģÑĤ Ð°Ð²
ĠN o
Ġì Ĺ
ĠA uf
Ġ×ĳ× ŀ×
Ġch ar
Ø¯ Ø±
l ia
ig t
ãĥ ĵ
ĠJ ul
ou v
Ġad d
or en
ìĹĲ ìĦľ
Ġcent r
is on
Ġbe ing
ä½ ¿
Ã¼ d
åı ¯
ers te
à¯ ĩ
ah n
Ġem p
Ġà® ļ
is p
am er
Ùħ Ø±
ĠM ich
áĥ ĵ
ĠÐ¾ Ð¿
Ġp at
Ġhav et
ãĥ¼ ãĥ«
Ġk om
ãģª ãģĦ
Ġ× ĵ
ĠS er
ĠÎ Ń
ë ¶
Ġan g
ĠØ§ ÙĨ
ĠB el
Ð½Ð¾ ÑģÑĤÑĮ
Ġ2 9
åı Ĭ
la y
ult ur
v in
×Ļ ×ķ
ãĢ ĭ
ãĢ Ĭ
ĠS ie
Ġk an
ĠP o
å½ ĵ
Ġst art
Ġle ad
p is
ect ion
Ġ rom
ny a
c is
ĠA pril
ĠN ord
áĢ ķ
ĠL o
Ã¨ me
f or
ic ial
unt y
Ðµ Ñĩ
ĠÐ ķ
ç ±
Ġr en
çŃ ī
Ġre ce
Ġd ar
ÑģÐº Ð°Ñı
ĠL ond
Ġth rough
è ¼
æĺ İ
Ã©r ie
ÃŃ s
èĥ ½
Ġm any
Ġê ²
ĠL ife
i Ã©n
å ģ
Ġm m
am en
v is
Â ·
Ġgr and
ĠÄ Ĳ
al le
es i
it ies
Ġn eg
Ðº Ñĥ
Ïģ Î¹
ĠA ss
×Ļ× ĺ
å¾ Ĺ
Ġsh ow
ìĿ ¸
à¸ģ à¸²à¸£
ĠØ§ ÛĮÙĨ
ë Ŀ¼
ĠÛ ģ
im in
Ġper io
áº¥ t
ĠS outh
ç· ļ
×Ļ× ©
g io
in ed
ĠSch ool
Ã¤ s
ÃŁ en
ig a
ç ł
ÑģÑĤ Ð°Ð²
z ia
Ġm un
c ie
Ġen g
ĠslÃ¤ ktet
Ġbes kre
å» º
ĠC atal
è ¢
ich e
ĠâĢ ľ
à´ ļ
Ð ĺ
owe ver
eb en
ur r
ĠÑĩ Ð°
s a
ĠÑį ÑĤ
Ġcon d
Ð» Ñİ
áĢ Ľ
Ð° Ñħ
ĠÐ½Ð° Ñĩ
im es
Ð°Ð½ Ð¾Ð²
Ġcons ider
2 1
ec k
Ġwar en
Ùģ ÙĬ
Ġb en
Ġbeskre vs
Ġorgan iz
ĠC or
op o
Ð» ÐµÐº
v es
ent i
Ġc in
id es
Ġ× ĸ
ĠNov ember
ĠP al
Ġp ada
à± Ĩ
Ġ201 8
Ġch o
· ¸
v an
c zy
ìĭ ľ
Ð ¢
Ġdur ante
Ġland et
b b
×Ļ ×Ļ×Ŀ
Ùħ ÙĨ
i ques
é ¦
Ġter m
ers on
Ð» Ð¾
Ġs m
Ġinclud ing
Ġr est
ĠF o
Ġsucc ess
åĪ Ŀ
Ð» Ð¾Ð²
Ġh and
st aden
à¦ ľ
åħ ¶
Ġs y
Ġz we
Ġpre mi
u w
f e
Ġso ci
ĠR om
i at
Ġt ri
ĠS al
le ge
Ġh al
Ġ×ĳ× Ĳ
2 4
l ass
Ġì ĭ
Ġ5 0
ic es
Ġp al
Ġpart ic
iv ed
×ķ× §
Ġk tÃ³
ĠØ ·
Ġnomb re
ass a
Ð¸ÑĤ ÐµÐ»
Ġm em
Ġsob re
ìĸ ´
ĠK on
Ã ī
ĠØ µ
éģ ¸
Ġcont ra
Ùĩ Ø±
ĠÐ¾ Ð½
×ķ× ¢
ĠP ort
ne y
áĢº áĢ¸
ĠØ§ÙĦØ ¬
Ð¸ÑĤ ÑĮ
à± Ĥ
ĠÎ ½
Ġ199 9
Ġz osta
ØŃ Ø¯
ë °
Ġpl an
Ð¼ ÐµÐ½
ĠC ity
Ðº Ðµ
Ġb a
f ord
à¤ £
2 3
v ad
Ġf em
Ġesp ec
Ġin i
ãĥ Ł
Î½ ÏĦ
Ġcomp let
×¤ ×¨
ant i
ĠM ag
×ķ× Ŀ
à¸ ³
ÑĨÐ¸ Ð¾Ð½
ÙĪ Ø¨
ÑĪ Ðµ
Ġv illa
er i
×Ļ× ¡
é £
Ġdes ign
ĠZ eit
Ãł nh
or ge
Ġs ystem
á» ĩ
ĠFran ce
Ð ĵ
Ã¶ d
Ġagain st
Ġf ait
à¤ ¶
è ¶
åħ ±
u el
Ġs l
um e
áĢ ħ
elij ke
ind en
áĢ Ĭ
Ð° ÑĢÐ°
Ðµ Ñħ
ĠÏĦÎ· Î½
Ġpla ce
è· ¯
he t
Ġgo vern
à¹Ģà¸ Ľ
Ùģ Ø±
Ġbef ore
Ġv om
ĠSt ates
Ġf ig
Ġde velop
ĠN orth
ag o
ĠS aint
Ð¸ ÑģÑĤ
ĠØ§ÙĦ Ø¨
ãģŁ ãĤģ
Ġg li
Ġpro m
äº Į
ess a
Îµ ÏĤ
Ġs owie
Ġcomp os
à¦ Ĺ
a e
ÑĢÑĥ Ð³
Ġ198 0
à´ Ļ
ãģ¨ ãģĦ
Ġh um
Ġà¦ ®
Ġs al
s ak
ĠØ± Ø§
ÃŁ e
Ġd oc
æł ¡
ot ball
Ġpro c
æķ °
l io
Å¼ e
Ġsein er
ĠD as
Ġn Ãły
o ff
áĢ ¾
Äħ c
Ġwh ile
ĠÐ Ń
pr Ã¨s
Ġc our
ãĥĥ ãĤ¯
Ġl ui
×Ļ× ĳ
ĠCh ar
te ur
ĠØ¨ Ø§ÙĦ
×ķ× ©
Ġn u
ĠW h
Ġgen er
Ġden gan
ĠK ir
åĪ °
ÙĦ Ùĥ
. ,
im ento
Ø§Ø ¬
é Ĺ
ÑĬ ÑĢ
ais on
Ġà¦ ¹
Ð¸ ÑĢ
à¯ ĭ
Ġc i
uk t
Ä ģ
Ġar m
ro w
Ġre f
ro ss
ist s
åĵ ¡
áĢ± áĢ¬
ãģ§ ãģĤ
áº§ u
Ġpr zy
Ġn ur
æ¬ ¡
ne j
á» ±
ãĥ ĳ
Øª Ùħ
ĠSt adt
åİ Ł
å ³
Ø³ Ø¨
2 2
Î½ Î¿
Ġ ÅĽ
Ã¤ m
ĠÃ ī
à¦ Ĥ
Ġcom b
Ġt il
ãĤ¹ ãĥĪ
æ° ´
Ð² ÐµÑĢ
Ġme hr
ÙĪ ÛĮ
ĠM c
im p
å ²
O n
ĠÑģÐ² Ð¾
x im
ol f
up t
æ ĥ
åĪ ¶
Ġ18 5
Ġà¤ ¨
Îµ Î¯
g ar
ĠØ§ÙĦ ÙĨ
ç ®
Ġst at
ĠJ ap
Ġb oth
19 4
Ġy a
ĠV al
Ġo k
ĠH ol
áĥ Ľ
å· ¥
ch es
Ð¿ Ð¸
äº İ
å Ĥ
it ions
ĠF in
Ġhuvud staden
à¸ ¨
et y
ur t
ãģ ¿
ĠD et
åħ ĥ
Ġbe k
Ġw ill
ĠÎ± ÏĢÏĮ
£ ¼
ra ft
ĠF re
ãĥ §
ĠÎ ĳ
è «
éĥ ½
" ),
á» ĭ
Ġê ³
Ġb us
Ð¸Ñģ ÑĮ
Ġel le
Ð½ ÑĥÑİ
àµ ĭ
×Ĺ ×¨
A m
iss a
Ġpro b
Ġt al
Ġ×Ķ× ¨
ĠJ os
ent re
ĠC omp
Ġunt il
æ º
æ² »
ze it
ent ly
Ġunder arter
ĠÐ² Ð¾Ð·
ri k
Ġd ir
Ġare a
ĠAl l
Ø³ Ùħ
un n
ĠAr t
Ã¼ t
Ġpre m
Ġì §
ĠIng a
çİ ĭ
è Ĥ
è¢ «
ver t
Ġb ij
àµ ĩ
ect ed
ar na
Ġw rit
å¤ ©
ann t
Ġa o
Ġlist ade
os p
áĥĲáĥ Ľ
ad i
ĠL os
Ġë §
ĠUn ter
omm un
on na
ĠD av
çĶ °
Ġn ame
Ã¡ k
Ġpr Ã©s
ell en
è º
g est
é »
ãĥª ãĥ¼
Ġper form
Ġ ud
á» ©
Ġà´ ª
Å¼ y
Ġw on
à¸²à¸ ¢
Ãª me
ĠF ilm
ÐµÑĤ Ð°
Î ¾
íķ ´
2 8
Ġt ut
ĠÐ³ Ð¾ÑĢÐ¾Ð´
ÛĮ Ø§
åı £
ÙĪ Ø§ÙĨ
à¤ ¡
Ġdis c
æ Ł
Ã ¯
v ir
ind er
Ġ197 0
Ġmus ic
Ġg uer
ĠPh il
ÅŁ t
Ð¼ ÐµÑĢ
h i
Ġno ch
ĠÃ¥ r
ãģĹãģ¦ ãģĦãĤĭ
tem peratur
L es
ĠD an
ĠM ad
ï¼ ļ
Ġre present
um b
à¦ ·
ĠK ar
Ġf re
2 6
åı °
Ġc el
ĠÐ° ÑĢ
Ġà¤ ¬
Ð° ÑĢÐ¸
amp ions
Ġex t
Ð± ÑĢÑı
Ġb re
sk a
la ck
Ġapp ear
k ilometer
ÙĬ Ùħ
ag es
Ġhat te
Ġ ir
H e
àµ ¼
ĠÑĢÐ° Ð±Ð¾ÑĤ
×¨ ×Ĳ
Ġ199 8
ĠF ebru
à¸²à¸ ĩ
u ck
Î» Î¿
w ie
æŃ £
åĽ ŀ
Æ°á»Ŀ i
Ġn ational
Ġnum ber
Ġst and
2 7
Ð¸ÑĤ Ðµ
Ġj ug
Ã§ Ãµes
å¥ ³
Ġinv Ã¥n
ĠM art
å ĸ
ĠS a
Ñĥ Ð»ÑĮ
Ġd ivers
ver al
Ġáĥ Ĵ
Ġcontin u
ĠinvÃ¥n are
ĠJ o
con om
éĩ į
ĠCatal ogue
Ġse ine
á» ¯
ur ing
Î¹ Î¿
y al
Ġtr as
et en
h an
our n
ĠPar is
ç ³
ro d
Ġm Ã¥n
Ġre aliz
×ķ× ¦
ãģĦ ãģ¦
ç¾ İ
à¹ģ à¸¥
ãģ Ľ
temperatur en
Ġc al
Ġl ib
èĢ Į
Û °
Ġb at
Ġtot al
Ġj e
Ġs ong
ĠH ar
z w
í ĸ
ĠÐ° Ð²
àµ ½
Î¹Îº Î®
Ġop en
Ġr Ã©g
Ð³ Ñĥ
Ġà¦ ħ
ac iones
ì ¹
el temperaturen
Ġpe ople
in ce
Ġ×Ķ× ¢
k k
ĠD ec
áĢ ½
Ġc ette
å ¢
Ġp en
à¤ ·
Ġ×Ķ× ª
áº ¯
Ù ı
Ġin form
Ġ×ĳ× ©
ze ich
Ġ )
Ġn atur
ĠØ¹ Ø§Ùħ
éĩ ĳ
il a
ĠGer man
áĥ ¢
min ist
ĠÛ ±Û
ip p
Ġp ub
Ġf am
z er
ar ch
åı Ĺ
ÅĽ Äĩ
rat kilometer
ut en
Ð¸ Ð½Ð¸
Ġ201 9
und o
Ø³ ÛĮ
Ġprze z
Ġo c
Ä± l
ĠT er
Ġa ber
à¤ §
Ø± Ø©
Ġo wn
Ġà¤ ¦
Ù ĳ
Ġc os
Ġg es
ÑĢÐ° ÑĤ
z Äħ
ĠWill iam
ì Ĥ¬
Ø¹ Ø©
æ¼ Ķ
ãģ °
áĢ »
ill er
å¯ ¾
ell es
on i
u ally
Ġl ine
ÑĢÑĥ Ð¿
Ġj un
Ġ18 4
el en
Ñİ Ñī
k eit
Ġë ĭ
id d
ement s
19 5
Îº Îµ
p end
Ġ ÑĢÑĥ
Î ¶
y le
vad ratkilometer
Ġal g
à° ļ
ĠÑĢÐ° Ð¹
ãĤ »
å ķ
Ġ4 0
Ã¤ Ã¤
Ġ use
Ġk o
Ġb ack
ĠLe ague
ĠÑģ Ð¾Ð²
Ġà° ¨
Ġd am
Ġad alah
Ñĥ Ð¼
à¸ ¶
Ġf ur
Ġl u
à¯ Ĭ
ê³ ¼
Æ°á» Ľ
Ġà° ī
is tem
he it
Ġv id
h ol
æ §
Ġà® ¨
ĠT ur
Ġj est
ĠSt ud
z el
h or
å½ ¢
ì Ļ
Ġser ies
ha us
2 9
ru ct
ÙĪ Øª
ãĥĥ ãĥĪ
ot her
é ħ
éĽ »
Ġf ra
Ġm es
ĠmÃ¥n aden
ĠØ§ÙĦØ ¥
Ġk ar
åĵ ģ
ing ton
éĩ Į
ĠÐ §
ten s
ĠCo unty
Ġst ate
r Ã³
é Ĥ
Ïİ Î½
Ġg Ã©n
Ġ3 1
et a
ĠØ¨ Ø§
Ñģ Ð°
Ġp ot
Ġper m
ç§ ĳ
ĠO c
n is
Ġg egen
te ment
6 0
Ð½Ð° Ñĩ
è ½
ts ch
ĠDe utsch
ad y
ç ¸
Ñĥ Ð»
æ Ĵ
ÑĤÐ¸ Ð²
à¤ ¬
as ter
ĠB en
ay a
sn itt
ĠJah re
ach t
ãģ« ãģª
ir en
Ġres ult
è ĳ
ç ģ
Ã© k
f ul
ĠG eme
Ġbu ild
iv en
Ġn om
Ġsup er
Ġan s
ik o
Ø± ÛĮ
ãĤĪ ãģĨ
Ġna am
c om
ĠSt re
Ġar ch
Ġ199 6
Ø ¥
Ġc at
Ġà¦ ¤
éĻ ¢
áĥ ľ
y cz
ãĥ³ãĥ ī
st it
al la
" ).
Ð´ ÐµÐ»
c io
Ġng Æ°á»Ŀi
Ã¤ ch
r s
Ġr un
Ġ199 7
Ð¾Ñģ ÑģÐ¸
ĠÑĤÐ°Ðº Ð¶Ðµ
ÙĤ Ø¯
Ġzwe i
ĠR ec
as a
Ã¬ nh
Ġan y
Ġc aus
å ¦
ĠD o
Ġe ing
à¯į .
Ġv ia
ãģ ĺ
Ġd it
in er
Ġ196 0
ĠD es
è¨ ĺ
en en
Ġf und
èª ŀ
ab l
ĠS k
Ġ ÛĮÚ©
Ġcall ed
Ġ×Ķ× Ĺ
Ġà° ®
Ġm ol
ãģ¾ ãģŁ
ìŀ Ĳ
Ġcon tr
n ik
w s
ĠÎº Î±
å· Ŀ
æĿ ¥
Ä±nd a
Ġrele ased
Ġdal la
ãģ¨ãģĦ ãģĨ
ãĥ¼ãĥ Ī
áĥĲáĥ ĵ
Ġg er
Ġm uch
æľ ĥ
Ġplay ed
ec e
ĠÄĳ Ã£
om snitt
Ġs ame
×ķ× Ĵ
á» ¥
ins i
an ie
Ġr Ã©s
Ġà¦ķ à¦°
ãĥ³ ãĤ°
ĠÐ¿ Ð¾ÑģÑĤ
Ġà¤ °
ar n
Ġpopul ation
Ġì ĺ
ĠO l
ne k
à¦ ĩ
Ġmun icip
à¸²à¸ ģ
Ġfamil y
ĠØ º
Ġn ederbÃ¶rd
le ich
Ñĭ Ð¼
Ġdal am
éĢ £
Ġre v
Ġ199 2
åŁ º
O r
Ġter rit
ëĤ ĺ
å Ŀ
ĠP ark
Ġso us
iv il
k on
å® ī
Ð° Ð¿
è Ĳ
Ø§ ÙĬ
Ġmaj or
and a
I m
Ġen s
Ġal c
k ow
is c
à¦ ¹
at an
Ġà´ ķ
Ġtel ev
ìĿ ¼
Ġon der
uit o
Ġes te
a ff
ĠÐ´ Ð²
ch i
Ã§ ais
Ġunt uk
u ÃŁ
Ø¨ ÙĦ
Ġh el
ë ³
am men
ļ áĥĺ
om as
in h
Ġact iv
Ġ199 4
ĠÐ¿ ÐµÑĢÐ²
Ġn ow
áºŃ t
ĠA ir
ç ¦
Ùĩ Ùħ
Ġto d
Ġcomp et
ar es
ow er
ĠC amp
ãĥ ı
Ùĥ Ø§ÙĨ
ãĥ Ģ
ĠÑģ Ð°Ð¼
å¹´ ãģ«
elij k
et ti
ion en
ĠH en
iv id
w est
Ġc ui
Ġ $
ĠR uss
ë ŀ
iz z
Ã© ri
ĠÐ¸ ÑģÐ¿
3 5
Ġc rit
Ã¡ m
y p
Ġd id
ë ĮĢ
çĲ ĥ
Ġ199 5
Ġse veral
Ġf un
Ġc ity
è¦ ĭ
Ð°ÑĤ ÐµÐ»ÑĮ
ãĤĤ ãģ®
Ġfamil ie
b eit
Ġear ly
ann o
åĢ ĭ
è Ĭ
nie j
ĠS oci
à® ´
l ung
Ðµ Ðµ
Ġk vadratkilometer
çľ Į
ĠÑģ Ð»
g n
èº «
g ent
ì ĥ
Ġb lev
ĠØ§ÙĦ Ùĥ
çķ Į
al k
Ġm ak
ĠØ§ÙĦØ ´
çĶ »
ë ¬
ĠD iv
r id
ĠÐ ¨
ĠØ¢ ÙĨ
8 0
ÑģÐºÐ¸ Ðµ
ag en
ass e
olog y
Ġë ĮĢ
äº ¬
Ú ¾
Ġat ta
Ì Ī
Ġs olo
ãģ ¸
çµ Ħ
Ġe quip
Ñı Ð²
at r
Ġde utsch
Æ° Æ¡
Ġ199 1
ik t
g u
Ġs yd
Ġp ap
ĠØ¹ ÙĨ
Ġsup port
er os
ĠB ra
Ø§Ø ·
éĸ ¢
ĠaÃ± os
Ð· Ð²
Ġv ez
iv es
Ð¸ Ð±
å£ «
ĠÐ¼ Ñĥ
ĠS ec
Ġgen eral
æ´ »
Ġth ese
n ak
ĠL u
te il
Ġo li
Ġprim a
ĠM or
ĠÐ² Ð¾Ð¹
Ġin fl
ĠAr m
Ġst ation
ed en
é §
og en
f in
ĠÐ¾Ð± Ð»Ð°
å Ħ
ĠÃ §
ent a
lie ÃŁ
Ġê ·¸
Ġrel ig
Ġm al
×Ļ× ¢
Ġw et
éĢ ²
æĮ ĩ
D as
Ġb ere
n ah
êµ Ń
el o
Ġso ort
ĠÙĩ ÙĪ
ĠÐ½ Ð¾
Ġtamb iÃ©n
å ŀ
he im
og raf
ÏĦ Î¹
ac ter
Ġt ur
×ł ×Ļ
çĽ ¸
Ġì ľ
ĠI r
ĠV ol
ĠÐ±Ñĭ Ð»Ð°
Ġprincip al
Ġl im
Ġg ame
ĠÏĥ ÏĦÎ·
p re
Ġh on
æĶ ¾
ĠU m
ÙĬ Ø³
a Ã§Ã£o
ĠBrit ish
Ã¼ h
ãģķãĤĮ ãĤĭ
ĠÐ±Ñĭ Ð»Ð¸
Ġun o
ĠÃ ĸ
el es
e y
Ġp ost
pr ess
Î» Î»
as c
Ã¤ ter
ĠØ§ÙĦ Ø¯
l oss
Ġf ond
w ick
en z
ãĥ ¢
ĠD r
a el
od y
Ġvá» Ľi
t al
Ùħ Ø§ÙĨ
Æ°Æ¡ ng
Ð Ľ
Ð»Ð° Ñģ
å³ ¶
Ġà¤ Ĩ
ãĥ Ļ
m es
ÛĮ Øª
Ġê µ
ç³ »
å ¡
áĥĲáĥ łáĥ
Ġ á»Ł
à¸²à¸ ¡
on ia
ÐµÐ½Ð¸ Ð¸
ĠT or
ag y
if f
ĠMar ch
Ã¡ ng
à¹ģà¸¥ à¸°
ly mp
Ã³ ÅĤ
Ġbeg an
ĠG eb
à®ª à®Ł
ĠÃ© l
Ã¨ res
as ta
ad re
i u
ÑĢ Ð¾Ð¼
ro du
k ar
ç¥ ŀ
×ķ× Ĺ
à® Ļ
Ġm el
og raph
ny m
ìķ Ħ
Ġn orth
end ant
åı ĸ
ĠW il
ĠD ies
Ġlo Ãłi
Ã³ s
is ation
t es
Ġin te
ĠÎ ·
Ġmen g
á»Ļ c
ĠSp iel
ire d
Ġà¦ ¨
land s
Ġr ic
ĠD ep
er g
ÅĦ sk
Ġ ide
Ġein es
ĠÃ© t
Ġw est
Ġzw ischen
Ġcont ro
Ġ199 3
us ta
í Ļ
d z
ë¶ Ģ
é ¢
y w
Ġà° Ĺ
ĠÐ¼ ÐµÑģÑĤ
ward s
Ġn ear
Ġì Ĥ¬
à¦ ¡
b ra
å§ ĭ
ic iÃ³n
el i
il ity
Ð¾Ð½ Ðµ
Ù İ
Ã§ a
Ġword en
Ïĥ Îµ
à¦ ļ
Ġo pp
ier ung
v ille
áĢ¬ áĢ¸
Ġk l
ĠÐ¿ ÑĢÐ°Ð²
idad es
Ġz a
Ġn Ã©
ĠO k
Ù Ķ
ãĤ ¬
ot o
Ġk ol
æĮ ģ
Ġj u
Î¯ Î½
M ar
le h
it es
åĽ ł
ĠPa ul
Ġe g
ĠÎ £
is ka
åŁ İ
iel t
ä¸ ª
ensch app
Ġun ivers
Ġto wn
ĠÐ¾ ÑĢ
ĠI II
Ġo ok
ok s
Ġfor mer
Ġsing le
Ð¾Ñģ ÑĮ
Ø¬ Ùħ
ĠT o
Ġ×Ķ× ŀ
åĲ ĳ
uss i
id ed
ir k
ĠK ing
Ġto ur
Ġan ni
ëĵ ¤
Ð¿ ÑĢÐ°Ð²
Ġam b
em a
Ġor az
Ġt ah
¨ áĥĺ
Ø§Ø± ÛĮ
omm en
×ł ×ª
Ð¾Ð»ÑĮ ÑĪ
ĠÙĥ Ø§ÙĨ
ap t
æĦ ı
m aste
if t
ãĤ¿ ãĥ¼
Ġ×ĳ× ¢
Ġqu al
est ig
ne h
ug e
Ġ×Ķ× §
Ãº n
Ġhist or
Ġw ieder
w ar
ĠÎ ľ
Ġprem ier
r ess
à¥ĭ à¤Ĥ
Å º
ĠÐ±ÑĭÐ» Ð¾
Ġto p
æ ĵ
ĠP res
åĭ Ļ
×ķ× ŀ
] ]
ver y
ĠA z
Ġe erst
ìĿ´ ëĭ¤
ãĤ ½
al ian
Ġà¤ ¤
ĠA c
Ġpro te
Ġ â
Ġl ed
ar o
æ ģ
Ġapp ro
v or
ÙĪ Ø²
all s
Ġn em
ç½ ®
ĠÐ¾Ñģ Ð½Ð¾Ð²
ç Ŀ
ot s
ĠM et
ges ch
å¾ ·
ĠS en
Ġà¤ ²
Ġ Ã¤
çµ Ĳ
Ġdes de
Ġs ent
ĠH et
ov a
ëĲ ĺ
Ð° Ð³
b and
ou is
ĠÐ²ÑĢÐµÐ¼ Ñı
m as
áĥĶáĥ ľ
áĢ ľ
Ġd ro
Ġl et
Ġfran Ã§ais
Ġgr ande
áĥĲáĥ ķ
Ġc irc
àµģ à´Ĥ
Îµ ÏĦ
Û Ķ
Ø± Ùģ
Ġv en
ard s
åħ ĭ
ra w
y er
Ġk er
3 1
Ð¸Ð» Ð°
ust ri
Ġmod ern
ĠØ¨ ÙĨ
ĠLond on
ÙĪ Ø¬
Ã¤ d
Ð½Ñĭ Ð¼Ð¸
Ġro z
å¿ ĥ
ĠB a
áĢ ģ
Ã¡ ny
Ġ à§
Ġb ase
ĠR ich
Ġdes p
Ġex per
Ġch ild
ÑĤ ÑĮ
Ġhab it
a use
Ġ194 5
ĠJ ac
ro t
Ġre d
Ġle ur
Ã¤ ll
iá» ģ
Ð· Ð¾Ð²
il y
Ġà¦ ¦
ĠÑĥ ÑĩÐ°
Ġ ident
ÛĮ Ø¯
Ġev ent
áĥĲáĥ ¡
est ival
og y
æĶ ¹
áº ·
Ġso uth
Î± Ïģ
ĠS w
Ġg ran
ÙĪ ÙĬ
åº ľ
ÐµÑĤ Ð¾
Ġ×ľ ×Ķ×
Ð¼ Ñĥ
tr y
ĠE sp
3 7
à¤ ¥
à¦ §
Ġë ¶
Ġ×Ķ ×ķ×Ĳ
ĠÐ¿ÑĢ Ð¾ÑĤ
æł ¼
è Ĺ
ampions hip
Ġë Ĥ
ĠÏĥ Ïħ
Ġl ors
t he
g s
ĠÙħ ØŃ
Ġf er
u Ã©s
u ent
à± Ī
Ġv ier
k in
Ġgovern ment
n es
Ġdies er
à¦¼ à§ĩ
n ego
ĠÄĳ áº§u
åį ģ
ĠC ap
Ġg eld
áº§ n
ell i
S ch
at ta
ĠJ une
Ġa i
ĠÐ¸ Ð»Ð¸
æµ ģ
Ġs ci
ion ale
id ente
i Äħ
ad ores
Ġw aar
Ð ¤
Ġt est
ĠÐĿ Ð°
Ġre pr
Ġse u
Ġ198 9
Ð°Ð½Ð¸ Ð¸
Ġan im
Ġà® Ĩ
Ġs v
ĠThe y
ier en
ĠP e
Ġs old
y c
oc a
ĠGen eral
ĠÎ ļ
Â «
Ġ ;
Ġorigin al
ĠaÃ± o
ĠÐ½Ð° Ñģ
Ġsin ce
ãģ ³
Ñĥ Ñħ
å¤§ åŃ¦
í ĺ
ãģ¾ ãģ§
éŁ ³
ĠR ad
ĠD em
in ning
ÑģÑĤ ÑĥÐ¿
ç© º
Ġhas ta
éģ ĭ
et to
Ġhá»į c
Ð¾ÑĤ Ð¾
èĩ ³
ĠÚ© ÛĮ
el n
Ġtra b
èĪ ĩ
ĠÃ© gal
Ġst ato
it Ã¤t
ĠFran k
Ġgeh Ã¶r
ĠS am
ĠC ent
Ġf a
ij d
o ung
os i
ĠJah ren
alif orn
iz ed
end ed
ep h
it te
S e
ĠCol lege
o z
ä¹ Ł
Ġ Ïĩ
Ġl og
ĠA fter
3 6
owa ÅĤ
ĠS m
Ġret urn
Ġc ant
ĠkÃ¶ z
Ñĳ ÑĤ
Ġvers ch
ĠEl le
éĽ Ĩ
d em
ä¿ Ŀ
ut es
Ġre fer
ide o
ow s
Ġm is
Ðµ Ð¶Ð´
ÄĻ p
Ġ195 0
Ġho use
åĲ İ
ĠJanu ary
Ġhe ad
×© ×¨
ÎŃ ÏĤ
ci as
ud ad
o ir
Ġna ar
re a
Ġ×Ķ× ¤
Ġà° ħ
ãĥ¼ãĥ ł
ĠÐ³ ÑĢÐ°
er ed
ĠM ont
op s
Ð¸ ÑĨ
äº ¤
ev a
Ġf uer
ĠÐ·Ð° Ð¿
Ġs ud
Ġt id
Ġsi x
åŃ ¸
åŀ ĭ
ĠB as
ter i
ĠOc tober
Ð¸Ð» ÑģÑı
ĠP re
ĠZ w
3 8
Ġl ug
è ´
ĠØ§ÙĦ Ø±
Ð¾Ð» Ð¾Ð³
ĠÃ©ta it
7 0
9 0
ĠB re
Ġh om
ĠM ac
g iv
èŃ °
Ġ /
Ġk un
Ġest Ã¡
Ġsm all
o ta
Ġc ost
Ġv ir
ÐµÐ½ ÑĮ
Ġre qu
Ġp ob
×Ļ× ¤
um p
Ġà´ ¸
ĠJul y
Ġáĥĵ áĥĲ
åı ·
à¸· à¹Ī
3 4
j Äħ
Ġ×ķ ×Ķ×
use um
ÑĤ Ñĥ
A s
Ġs qu
h und
Ġwet enschapp
Ġvilla ge
ec ts
Ġd ont
Ġn Ã¤r
Ġs istem
un ter
Ġë ı
os to
P r
ow ej
Ø§Ø ®
ut z
ãĥ³ ãĥĪ
Ġse it
la v
c ul
Ñı Ð½
Ġz iren
ĠH is
Ġpop ular
Ġn i
à°¿ à°Ĥ
× £
it or
Ġà¤ Ĺ
ĠN a
Ġm ater
ë į
Ġprof ess
ë ª
ÙĦ Ø§
. )
Ġra p
Ġr is
ĠK an
c el
ad u
und a
ĠÃ©gal ement
Ġpr iv
f ic
et ta
op er
ens o
ĠG es
éļ Ĭ
ĠB ay
à´ ¦
ĠH igh
Ġ ÏĮ
Ġper o
ë ²
ÐµÐ» Ð¾Ð²
al en
ĠØ§ Ø³
æĽ ¸
ãĥ¼ãĥ ī
us ammen
ĠS z
sch e
b el
ĠÏĥ ÏĦÎ¿
ĠAn t
Ġpr ime
or ks
Ġal ong
ens is
Ġs ett
Ġ ÚĨ
ĠM il
Ġë ³
Ġ( *
ÃŃ an
Ġm Ãªme
Ġdiff er
ag er
Ġk a
Ġe ach
ĠR es
ĠBer lin
Ġcon n
at ro
è Ļ
Ġb ra
æ ¡
Ġa y
ie g
Ø³Øª Ø§ÙĨ
ik er
Ġm ember
iz e
ĠK r
çĤ ¹
Ġn y
ĠCl ub
c ent
r ict
Ġm ond
Ð¾Ð´ Ð°
Ġo Ã¹
ĠÎ ł
Ġform a
ĠZ e
ĠÙħ Ø±
à¦ £
Ùħ Ø¯
ãĤ ¡
Ġ×ŀ× ©
3 9
i y
Ġmat ch
olog ie
ĠG ra
Ø§Ø µ
ĠÑģ Ð¾Ð±
èµ ·
Ġto ok
Ġb rit
Ġ×Ķ× ¡
ãĥ Ŀ
æ ħ
Ð° Ð±
ĠL i
p a
Ġk u
Ġà¦ Ĩ
ĠJ oh
Ġtra kten
ord s
B C
Ġperio d
Ġ× ¦
Ġsp e
Ġcom un
g l
Ġc ult
ĠØ³ Ø§ÙĦ
st itu
Ġà¤ ī
à±ģ à°Ĥ
ÑģÐº Ð°
Ġ198 8
Ðµ Ð¿
å® Ł
al er
ĠÎµ ÏĢ
in ess
à¦ ¥
ĠÃ ħ
ĠTe il
Ġfollow ing
Ġrem ain
Ð £
Ñĳ Ð»
ì ²
us es
k el
Ġw orld
Ð°ÑĤ ÐµÐ»
å ĥ
ç´ Ħ
Ġtah un
å¸ ¸
f Ã¼hr
ĠSt ate
Ġs á»ĳ
Ð¾Ð³ ÑĢÐ°
à¦¼ à¦¾
ĠÙħ Øª
è¨ Ģ
Ġloc ated
Ġis s
Ġdon de
Ġlar ge
Ġà´ µ
on de
al ist
Ġf el
ag n
Å «
ĠÑı Ð²
m ark
ãĤı ãĤĮ
Ġj ust
éĩ İ
an h
ë ¯
è¿ ĳ
Ġc are
Ġd Ã¥
ment s
ï¼ī ãĢĤ
p ol
ice erd
Ġm ort
Ġth u
Ð½Ð¸ ÐºÐ°
ĠG l
éĢ ģ
ot ta
Ġan no
Ġ6 0
Ġg est
Ġco uld
ĠÐ² ÑģÐµ
' d
ÃŃ nh
Ġser ie
ĠP et
Ġa k
è ı
ĠØ¨ ÙĪØ¯
×ķ× Ľ
Ġind ivid
vÃ¤ st
çŁ ¥
ĠÐ´ Ð°
á» ĵ
Ġcomp any
ç ¿
und es
ĠØ§ÙĦ Ùģ
Ġde gli
ĠÄĳ á»Ļ
Ġcom pr
ĠÎ½ Î±
ch a
ck s
ĠJ ean
Ñģ Ñģ
Ġn Ã£o
ç ¯
ĠÐ¿ÑĢ Ð¾Ð²
et zt
Ġg epubl
iá» ĥ
ĠÙģ Ø±
Ġn av
ç± ³
à¸± à¹ī
Ġk all
Ġà¦ ľ
ĠV or
Ġbe h
ĠÑģ ÑĬ
í Ĭ
Ġa ge
Ã© ny
ãĥ į
Ã¤ Ã¤n
à° ¶
ard o
Ã¤hr end
áĥĲáĥ ļ
il ar
Ġh eld
Ø´ Ø±
ĠIntern ational
iv i
é Į
ĠÃ ľ
Ġc ual
est i
all en
ÙĦ Ø©
ĠO b
ÑģÐº Ð¾Ðµ
ent lich
æĽ ²
ìĻ Ģ
Ð°Ñģ ÑĮ
ãĥ ´
iz i
ĠDec ember
od o
Î¹Îº ÏĮ
ĠC ast
í ĥ
Ġa ussi
à¦ Ľ
ç į
ĠA lex
Ġt v
áºŃ n
Ġhuvud sak
Ø§Ø± Ø¯
Ġvol t
æŃ ¤
ãģķãĤĮ ãģ¦ãģĦãĤĭ
Ã¤ng en
ìĽ Ķ
ĠÐ¾Ð± ÑĢÐ°Ð·
l Ä±
ĠÐ· Ð°Ð²
Ġwetenschapp elijke
Ġgepubl iceerd
ìł ģ
åĭ Ŀ
Ø ¢
Ġer h
Ġ id
im at
an ta
áĥĺáĥ ľ
Ġg l
aj o
at re
Ġpro t
Ð¾Ð»ÑĮ ÐºÐ¾
ĠÚ© ÛĴ
Ġp uis
ì Ĩ
al th
Ġg eme
Ø§ Ùĥ
Ġm om
Ġ×ĳ× ª
ĠØ °
ow y
éĢ ł
ï¼ī ï¼Į
Ø¯ Ùħ
ĠØ£ ÙĪ
we ise
oci ation
Ð¼ Ðµ
ĠÑĢÐ° ÑģÐ¿
ĠF amil
r ad
à¦ Ń
ere in
Ġest abl
ĠM at
es c
ë Ł
Ġë ª
Ġáĥ ¨
an ces
s erv
ä¿ ¡
z n
ä¸ İ
Ġáĥ ¬
ho f
E m
ÐºÐ° Ð·
Ġm or
ĠF ra
ãģ ļ
×Ļ× ŀ
er ing
r Ã¤
Ġh ome
Ġw ater
Ġà® İ
áĥĲáĥ ł
P ro
Ð¾Ð· Ð´
ag ai
Ġserv ice
ĠX V
Ð² Ð¾Ð´
iz ione
C on
r ig
Ġer sten
ch o
fol g
Ġd ia
t or
Ġáĥ ł
Ġa insi
Ġa mer
Ġn ue
é ¤
Ġfo otball
Ġgeld ig
Ġsp Ã¤ter
Ġal ors
Ġh ier
in ing
id as
Ġjed och
ĠÐ¸ ÑģÑĤ
is a
Ġest a
Ġn az
Ġk le
he ten
ist o
èĭ ±
3 3
Ð°Ð» ÑģÑı
Ġt ar
un kt
Ġm iej
ra c
ĠÐº Ð¾Ð»
æ ·
ĠD el
igh ts
Ð² ÐµÑĤ
Ġd own
ĠH an
z et
iem bre
Ġd om
Ġh Ã¤n
ĠÐ¿Ð¾Ð» ÑĥÑĩ
ĠM er
ec ut
and id
Ġa prÃ¨s
Ġd opo
çĽ ´
åĪ Ĺ
Ġc s
Ð¸ ÑĢÐ¾Ð²
ĠÐº Ð¾ÑĢ
Ð Ĺ
II I
à° ¬
Ġ198 7
ĠV en
å½ ±
Ġ198 6
ìĺ Ģ
Ġk ap
Ġed uc
Ġer st
ic ally
Ġex ist
aw a
æĭ ī
ĠJap an
×ķ× ŀ×
ÙĪ ÙĤ
l ic
Ġa ta
Ġter min
A S
ĠW elt
ç¨ ®
Ġk onn
æ¯ Ķ
ë ¦
is es
ãĥ ¯
ist as
Ġintern ational
r Ã©
ÐµÐ½ Ñĭ
á»ĳ c
ĠFran cis
g in
è¨ Ī
Ġmemb ers
Ġ Ñİ
Ġest ado
Ġe pis
ĠvÃł o
ĠO s
Ġa ir
aj a
è ±
us h
Ġ×ľ ×ŀ×
Ġ18 0
à¯ Ĥ
ÑħÐ¾Ð´ Ð¸ÑĤ
ak i
Ġa round
á» ķ
ĠR iver
m al
Ã¡ z
i ale
Ð°Ð½ ÑĤ
Ġbes ch
×ĵ ×Ļ
à¸ ĸ
Ġa ver
3 2
Ġso cial
Ġit al
od es
y st
ÑĢ Ð¾Ð½
i ar
Ġáĥ Ļ
¡ °
ĠC al
ap a
Ġà¤ ¯
nd er
Ġp ri
im on
ÑģÑĤ ÑĢÐ°
ÑĢ Ð¾Ð¿
ĠÐ² ÐµÑĢ
Ġg esch
r ia
áº¿ n
ĠÐ¿ Ð°ÑĢ
ãĤ ±
Ġt u
ĠÙħ Ø³
ĠÐ´ ÑĢÑĥÐ³
ĠÏĦÎ¿ Î½
P ar
ĠH owever
Ð½ ÐµÐ¹
×ľ ×Ķ
åı ¸
du c
w eg
ĠN or
ìŀ ¥
Ġin de
Ġr u
ĠC up
×Ļ× ¦
Ã¶ t
Ġl ast
ĠL ake
ation ale
E r
Ġv ille
Ġn orm
ik i
Ġà´ ħ
ìł ķ
Ġb orn
Ġpart ir
en cia
Ã¸ r
çľ ģ
ĠDav id
ĠS el
Ġh Ã¶g
ĠÐºÐ¾Ð¼ Ð¿
Ġ198 4
b ro
Ġk ho
ear ch
å° Ķ
Ø¨ ÙĬ
ÑĥÐ»ÑĮ ÑĤ
Ġv a
d es
am t
amp ion
Ġty p
ac ji
Ġbu ilt
v at
Î¼ Î¿
à¹Ħ à¸Ķ
æĹ ¶
od en
Ñģ Ð¾Ð²
ÏĦ Î¬
Ġnam ed
ãĥ İ
ien ne
Ð¾Ð» Ð¶
Ġad minist
Ð± Ð¾ÑĢ
iel e
ÑģÑĤ Ð°
af ten
Ġà¤ Ń
Ġj anu
Ġà° ¦
er de
o de
å± ŀ
ĠA g
z on
ĠJ ames
ĠÑĥ Ñĩ
ĠÎ ²
F ran
r icht
Î¸ Î·
Ġ198 5
ìĹ Īëĭ¤
Ġzosta ÅĤ
è§ £
Ġà¤ ı
Ġp ela
ell t
Ã¶ ff
il es
ĠÙĪ Øª
th ough
ĠGe orge
ut er
ĠIn ter
ĠÑģ ÑĢÐµÐ´
v ar
ĠÑĩ ÐµÐ»Ð¾Ð²
la c
Ïī ÏĤ
v et
ad s
æĿ ĳ
Ġw el
áĢ ¡
Ġpro d
ut ta
un try
Ġt ip
Ð¸ Ð¿
ĠG ar
Ġre port
åı ¤
ÙĪ Ø¹
Ġtemp or
ĠMe x
Ġserv ed
.. .
é ¦¬
Ġo leh
ĠM os
Ġsp ort
ĠO t
ĠÐł Ð¾ÑģÑģÐ¸
Ð° ÑĪ
ãĥ© ãĤ¤
ĠÎ ¤
ÐµÐ½Ð¸ Ð¹
ri pt
Ġrece ived
it ar
ĠÑıÐ² Ð»Ñı
b ach
Ãº bl
Ð¸ ÑĢÐ°
Ø¹ ÙĦ
ĠGr and
Æ°á»Ŀ ng
ir i
Ġz en
ãģĵ ãĤĮ
ĠB y
Ġt ek
Ġn iet
Ġn og
s ol
ĠR epubl
Î» Î·
am s
ĠØ§ÙĦØª ÙĬ
ç§ °
ĠB ras
Ġpre v
¤ ĳ
S p
Ð¿ Ð¾Ð»
Ġt w
Ġz n
ĠÐ¿ Ð»
×ľ ×Ĳ
Ãº s
Ñĥ Ðº
ich te
Æ°á»Ľ c
ut s
Ã¢ y
Ġg et
æ £
h at
ç ĭ
ĠAl s
ate ur
Ðµ ÑĨ
Ġp et
ĠU r
ke y
Ø§ÙĨ ÛĮ
ÐµÑĢ Ð¶
iá»ĩ n
z ent
Ġd rei
Ġj us
Ġc ab
à¹ĥ à¸Ļà¸
ãĥ Ħ
zia ÅĤ
C A
ĠÙĩ Ø°
' t
l or
íĬ ¸
um mer
ĠÐĲ Ð½
Ġd ay
ĠC re
Ġì Īĺ
àµ Ģ
ĠW o
Ġì§ Ģ
æı Ĳ
Ġle ft
Ñĥ ÑĪ
az ioni
Ġr end
Å į
Ġk am
ĠR ed
Ã¥ ng
Ġ×Ķ× ł
Ġg io
in ts
Ġinc re
ĠÐ¿ÑĢÐ¾ Ð¸Ð·
ĠEng l
Ġt an
iáº¿ n
b orn
on ne
Ġn ome
Ð¾Ð² Ð°
Ġpremi Ã¨re
ĠL ouis
is ed
ãģ£ãģ¦ ãģĦãĤĭ
ĠR os
Ġet wa
ĠB es
ĠÙħÛĮ Úº
u ff
ĠF orm
or ed
Ġ194 0
r ing
ge w
Ġìŀ Ī
ÑİÑĤ ÑģÑı
ch ter
b es
éĩ ı
éģ İ
æ ¶
Ġ198 2
ìĦ ±
ig r
ĠR ev
Ġcent ury
entr al
4 5
Ġc la
áº£ i
Ġà´ ®
ĠØ§ÙĦÙħ Øª
æĺ Ł
çĻ ¼
Ġk at
Ġbec ause
Ġe ven
op e
ĠÐº Ð°
éļ Ľ
Ġbas ed
ĠT our
ĠÃ ª
ë© °
un ta
áĥ ®
áĢŀ áĢĬ
å¸ ĥ
×ĺ ×¨
ãĥ ľ
áº£ n
Ġ194 4
Ġ197 5
ÑĤÐ¾ ÑĢÐ¸
ĠSt ra
ĠÃ© p
ord ing
up akan
Ġse k
Ù ¹
ĠÎ ķ
ÏĦÎ± Î½
ov o
Ġp ier
åı ²
Ð½ Ð°Ðº
P h
Ġseg u
áĥĿáĥ Ľ
Î¯Î± ÏĤ
h in
Ġ193 0
ĠØ´ Ø¯Ùĩ
ç Ĭ
ath ol
ill es
al m
ot to
eg r
rie b
ĠD a
ĠMar ia
ĠEng land
Ð»Ñİ Ñĩ
Ġwith in
ÙĤ Ø©
Ġh ac
íķ Ļ
Ġh ogy
Ġf Ã¼hr
æ¸ ¯
Ã© v
Ġprov ins
Ġà´ ¨
à¸ ĭ
ĠA ut
Ġcont rol
å¤ ª
ri an
Ġ198 3
ĠÐ¿Ð¾Ñģ Ð»Ðµ
åŁ Ł
ĠK re
çĶ º
ĠÃ© c
ãĤ· ãĥ§
ans e
æĶ ¯
Ã¹ ng
æİ ¥
ç® ¡
×Ļ× ŀ×
é ľ
¹ Ħ
ĠØ§ÙĦØ ®
j ÄĻ
Ġpo int
×Ļ× Ĺ
Ġfol g
Ġf av
Ð»Ð° Ð´
Ð¾ÑģÑĤ Ð¸
un s
ç¾ ©
ĠÐ½ Ð¾Ð²
Ġmer upakan
Ġtá» «
Ġci udad
Ġ×Ķ× Ĵ
å® ĺ
ier on
Ġa kt
ĠS ant
Ġà® ī
i ers
Ð¾ ÑģÐº
ĠÐ· Ð°Ðº
ren ch
c ji
ÅĤ ad
ie k
ĠÑĩ ÐµÐ¼
Ġt we
Ġex pl
Ġcon ta
Ġk w
ĠChar les
Ã¶ tt
en ces
ÑĦ Ð¾ÑĢ
r is
Ġe urop
Ġa st
Ġ197 2
ĠFebru ary
Ùĥ ÙĨ
Ð³ Ð¾Ð²
ĠÏĢ Î¿Ïħ
ĠD on
Ġ197 9
7 5
p art
ĠT op
åį Ģ
ĠÑį Ðº
Ġth Ãłnh
is iÃ³n
Ð² ÐµÐ´
n ung
Ġz o
Ġd ig
ê² Į
ì £¼
áĥ łáĥ
sk iego
itt el
b au
Ġ20 20
Ġk ur
uk s
ï¼ī ãĢģ
åĽ Ľ
Ġfor t
d y
Ġp es
att le
Ġprov in
ang an
ä¸ ¦
Ġ19 20
os ten
Åĳ l
ig keit
ĠS il
ro c
Îµ Î½
Ġs oll
Ġtrad ition
ĠÃ ģ
ĠRo bert
ãĤ ®
f Ã¶r
p ed
Ġsa id
Ġm Ã©d
uv e
ri es
Øª ÙĬ
Ġm ind
par tement
ok o
ĠA f
d om
at ter
ag ne
Ð ¨
ĠG esch
å° ĳ
Ġìĭ ľ
im eter
Ġfr Ã¥n
à¸Ĥ à¸Ńà¸ĩ
am an
ì Īĺ
Ġst ill
ãĥ¼ ãĤ¹
çķ ª
åĳ ½
Ġm ai
ie urs
ĠÐ¶ Ðµ
ant en
Øª ÛĮ
ri end
ĠO ber
Ð» ÐµÐ½Ð¸Ñı
çµ ±
ĠM el
Ġ×© ×ł
Ġà¤ Ķ
Ã³ g
ĠgÃ©n Ã©r
Øª Ø¨
n ic
Ðµ ÐºÐ°
Ñı Ð·
N el
ÑĦ Ð¸
ĠT V
à¤¾ à¤Ĥ
ĠÃª tre
Ïģ Î¬
imi ento
Ġm i
ĠN av
ĠØ´ Ø¯
z u
ÑģÐºÐ¸ Ð¼
ĠV ir
Ġte chn
ÐµÐ» Ð¸
Ġ197 4
y ed
Ð¾Ð» ÐµÐµ
ac c
Ð¿ Ð¸Ñģ
Ġi f
k ed
at ie
ĠÐ¸ Ñİ
ãģ« ãģĬ
×ľ ×Ļ
Ġ3 5
áĥĺáĥ Ĺ
it Ã©s
Ð¾ ÑĢÐµ
ib t
Ð¾Ð³ Ð´Ð°
Ġ198 1
F A
ĠÐ¿ Ð¾Ðº
± c
Ïģ Î¯
Ġproc ess
Ġzur Ã¼ck
ÐµÐ½ Ð¾
ç¤ º
ëĵ ľ
ent ion
Ġk or
ÙĪ Ø§
Ġê° Ģ
ìł Ħ
Ġ197 6
Ġword t
ĠJahr hund
ing er
and en
çŁ ³
g ed
m it
Ñĥ ÑīÐµ
wo od
Ġk ann
ĠnÃ¤r heten
ĠÐ» ÐµÑĤ
Ġk Ã¶n
am in
ĠÏĦ ÏīÎ½
ĠP ri
o te
Ġà¤ ĩ
ĠF ried
Ġint rodu
ÑĢÑĥÐ¿ Ð¿
ĠJ an
×¨ ×Ľ
Ġdist rict
un de
Ä± m
Ġn Ã¤
ĠM od
ta k
Ġb an
Ġs ort
ä½ Ĩ
áĥĶáĥ ł
áĢ ®
æľ Ŀ
Ġcont re
ĠM ann
Ġpart ie
er in
åı į
æĹ¥ ãģ«
ow any
Ġtr at
az z
Ġ17 9
ĠAn ton
ä¸ĸ çķĮ
åı Ĥ
Ġest ud
çµ Į
ÑģÑĤÐ² Ð¾Ð²
Ġ197 8
Ġse p
d ic
ĠÐĶ Ð¶
ĠdÃ© b
200 7
Ø ¤
Ġvi ol
Ġc es
Ġtv Ã¥
×ķ× ĳ×
ĠÐ¿ÑĢ Ð¾Ð´
og o
ĠC aliforn
çĦ ¡
Ġ196 8
ĠR a
åĨ į
ag a
Ġmay or
Ã¡ ban
æŀ ľ
Ġincl ude
×ĵ ×¨
200 9
åŃ ĺ
çł Ķ
Ġ× ĺ
ĠSan ta
rit o
orn o
Ġsein em
ĠN am
he id
ÙĨ Ø©
Ġe conom
Ð¼ ÐµÑģÑĤ
Ġpe ut
ot en
à¸Ļà¸ Ĺ
Ġ8 0
ÑĢ Ð¾Ð´
Ã¶ m
Ġwo j
ĠEurop e
æ± º
Ġà¤Ķ à¤°
á»¯ ng
ier a
ĠS ur
ĠF C
ro ll
is me
Ġf ive
ĠF ern
áĥĿáĥ ĳ
ĠØ§ÙĦØ µ
ĠB au
l ine
or gan
Î» Îµ
Ä± ÅŁ
èī ²
Ġrad io
und en
at us
æ ¢
Ð² Ð°ÑĢ
Ġb ien
Ġb ed
oc o
×ķ×ł ×Ķ
Ñĩ Ð¸
s er
j an
ad er
Ġ197 3
Ġ×¢ ×Ŀ
te k
Ġdef in
n Äħ
ar am
Ġ×Ķ× ¦
ĠHo use
Ġf ar
é¦ ĸ
êµ ¬
ra k
¹ Û
ä½¿ çĶ¨
Ġo ld
Ġcom mer
ĠPro f
y k
Ġess ere
Ġoff ic
Ġnh Æ°
Ġqu ando
ĠQ ue
ÛĮ Ùħ
Ġe igen
Ġê ¸°
I t
e ft
t el
Ã©t Ã©
ÐµÐ² ÐµÑĢ
Ġm ult
ĠB ur
å± Ģ
ĠA fr
r il
Ġj uli
ap at
Ġth Ã¡ng
ĠÏĥÏĦÎ· Î½
ist an
Ġs ite
A d
Ġa ug
le ction
Ġpa ÃŃs
z k
ĠX I
ĠCh ampionship
Ġel ler
ìĽ Ĳ
4 8
r Ã¥
Ġver w
Ġl an
åĲ Ħ
ÙĦ Ùģ
j Ã¤r
à° ·
Ġby ÅĤ
iv at
N A
Ġbes te
Ġl ife
ĠGeme inde
ĠØ§ÙĦØ °
á» ģ
l ad
ĠÐ¼ Ð°ÑĤ
Ġs yn
ĠhÃ¶g sta
Ġcont rib
Ġc urr
ĠK o
Ġw at
v ing
å Ķ
ÑĥÐ± Ð»Ð¸
Ġre al
any a
ir m
Ġk ommun
æ į
f ield
ìĹ ¬
th ers
à¥Ī à¥¤
ĠTh ere
ĠÃ© v
Ġj ul
Ġprovins en
c ciÃ³n
Å ¡
Ġ197 7
Ġdeb ut
ĠØ «
Ġde ath
Ġl ike
Ġde cl
Ã± o
Ġm ass
Ãł n
Ġbuild ing
Ġìł Ħ
ĠAr ch
Ġjanu ari
ĠS port
Ġc ast
ĠB et
id ing
uv o
ÐµÐ½Ð¸ ÐµÐ¼
b il
Ġà° °
Ġprodu ct
Ð¿ ÑĢÐ¸
Ġcr Ã©
Ġpubl ished
ĠÑģ ÐµÐ¼
ĠP or
ë¥ ´
Ġch ang
Ġsein en
ãĥª ãĤ¢
en za
Ø± Ùĥ
Ġsign ific
ok a
ĠÑĢ Ð¾Ð´
à¤ ¼
ind et
ow ych
at ic
ÃŃ o
×ŀ× Ķ
×Ļ× Ľ
Ġver y
ĠÏĥ Îµ
ãĥ³ ãĤ¹
Ø³ ÙĬ
Ġinclud ed
n ess
ig u
ç ¹
on te
ĠH all
ÃŃ as
Ġ197 1
ri z
Ġma ar
ct ed
Ġpers onn
Ġdist rib
Ġaut or
Ġver b
ãģĬ ãĤĬ
ĠB and
æĹ ı
áĥ Ĵ
ÙĨ Ú¯
Ġh or
ak s
ÑĨ Ñĭ
Ġhe m
Ġ×Ķ× ĳ
ĠÐ¾ ÑģÑĤ
ĠA v
ĠEngl ish
ĠW al
ĠP f
ÑĮ Ñİ
ur en
Ñĳ Ð¼
Ġseb agai
ĠB undes
Ġf act
ĠIs land
Ġpel o
Ġl arg
é§ ħ
ill o
G r
up e
Ġih m
Ġst Ã¶r
ĠR ep
ĠÛģ ÛĴ
Ġd all
n am
ĠS ol
Ġb ul
Ġth ird
om an
à¯ģ .
íĻ Ķ
ĠÐ° Ð½
åŃ Ĺ
it el
áº ±
à¯į ,
Ġg ab
ãĥĨ ãĤ£
à° £
emb re
ak a
Ġe j
ÑĤ Ð¾Ð¼
p i
ĠÐ² Ð¸Ð´
ĠÐ½Ð°Ñĩ Ð°Ð»
Ġpub bl
ĠF rench
à´ ·
Ðµ Ð¶
áĥĶáĥ ¡
Ġs ug
ĠB ern
Ð¡ Ðł
Ïģ Î³
ĠD ar
Ġd im
ĠT el
æ ¹
ĠS eg
Ġ194 1
ÑĢÐ° Ð¶
ÐµÐ½Ð¸ Ñİ
l u
å¼ ķ
Ġs ym
ri ff
i w
Ġresp ons
×ķ× ĸ
×Ļ× Ĵ
Ġë ĵ
ãģĮ ãģĤãĤĭ
×ŀ ×¨
Ã¡ p
an za
on en
R e
à¸² à¸Ļ
Ġwe ek
§ à§
Ġspec ial
ìĥ ģ
å§ Ķ
y ar
u ah
ek o
Ġpow er
Ġdep art
ĠA k
Ġcons erv
Ġì ĥ
ãģ¦ ãģĦãģŁ
ĠS uper
os o
in te
S h
Ġvers ion
Ġw in
Ġ×ŀ× Ĳ
Ġáĥ¡ áĥĲáĥ
Ġn ell
áĢº áģ
Ġ193 9
end a
à®µ à®°
Î¿ Î»
c iones
Ð¾Ð½ Ñĩ
Ġl ate
Ġ196 9
Ġ ÛĮ
Ġv iene
om o
Ŀ i
ç Ĺ
ĠMit gli
unc il
ĠG uer
ĠTh omas
Ø® Ø±
Ġal lem
ond er
Ġl oro
Ġn ec
Ð½Ð¸ Ð¼
ãģ§ ãģį
Ġw a
Ġpro pos
201 0
at ore
Ġlie gt
è£ ½
up pe
æ² ³
Ġann Ã©es
Â º
ĠO lymp
ud o
Ġbe im
×Ĳ ×©
w erk
y o
ĠÙħ Ø¯
ĠÑģ ÐµÐ»
Ġp s
ĠA ct
ãģ§ãģĤ ãģ£ãģŁ
ç¨ ĭ
ÑĥÑİ Ñī
Ã§ o
íķĺ ìĺĢ
iá»ģ u
Î¹ Ïĥ
çī Ī
ÑĢÐ° Ñģ
Ðº Ð°Ð½
ÑģÑĤÐ² Ðµ
Ġtamb Ã©m
ĠJ uli
ure d
à° ľ
y j
Ġm ach
ow o
w ork
ist or
ch ts
Ġdiffer ent
àµ »
Ġse x
Ġ7 0
Ġ à¹Ģà¸
lig a
Ġg ef
Ġprodu ction
be fol
y an
eit er
id ge
å Ļ
ä¸Ń åĽ½
c u
Ġ4 5
Ø§Ø¯ Ùĩ
Ġ×Ĳ ×ľ
åŃ¦ æł¡
oss a
ÑĢ Ð¾Ñģ
Ġp il
å° ±
Ġd ann
Ġ ill
Ġdi ese
ĠInd ia
re b
Ġreg ion
ud a
Ġ196 7
Ġprim er
åĪ ¥
à± Ĭ
ri p
v ia
is l
Ġpos ition
ĠØ¨ Ø¹Ø¯
ĠM as
Ġm ake
Ġà¤ ¶
our t
Ġà¦ °
ĠH and
Ġpun kten
Ġadd ition
Ġtro is
la ge
ĠÐº Ð°ÑĤ
ÛĮ ÙĦ
Ø§Ø ¶
T r
é Ń
ĠÐ¼ ÐµÐ¶Ð´
ĠÐ¿ Ð¾Ð²
6 5
ĠktÃ³ ry
Ġk ilometer
Ġr it
Ġro ck
el and
Ä «
Ġan other
ĠÑģÑĤ Ð°Ð»
Ġse par
Ġst or
ãģ«ãĤĪ ãĤĭ
ugh t
ĠÅĽ w
ÑĤ Ð¾Ð²
Ñĳ ÑĢ
à¯ Ģ
ning arna
ab b
sh ip
Ġà¦ ¯
Ġ Ã¡l
Ġth ose
ur al
ter a
ĠJoh ann
ãģ¨ãģª ãģ£ãģŁ
R o
og n
Ġmov ed
Ġc itt
ĠP at
ri ft
Ġs ho
es a
ãĤ¤ ãĥ³
ern a
áºŃ p
is er
ĠTr ans
Ùħ Ø¹
ed s
×¨ ×ĳ
Ġs j
o or
Ġand ere
ar se
b ild
ĠÄ °
ĠL as
Ġb i
it Ã¤
ĠÎ³ Î¹Î±
ç« Ļ
Ġkh Ã´ng
ĠO p
ch Ã©
Ġn omin
ĠP eter
Ð¾Ñģ ÑĥÐ´
f en
ĠØª ØŃ
è Ħ
ĠK h
ĠM ill
la h
ol k
ĠC ons
c ol
ĠÐ¿ÑĢÐµÐ´ ÑģÑĤÐ°Ð²
ul s
ĠL eg
ĠCan ada
Ġl iter
è į
ou w
Ġìķ Ħ
Ġ194 3
ÃŃ st
Ã¡ ri
ĠÐ¼ Ð°ÑĢ
in os
ĠÑģ Ðº
eb r
ang en
us o
à¤ ı
Ġt áº£
befol kat
Ġsh ort
) "
Ġa gr
Ù Ĳ
ç© ¶
Ġ ig
åħ ī
vir on
Ġe fter
Ġof ten
Ð½Ð¸ ÐºÐ¾Ð²
Ġp an
r est
Ġ Ïħ
ĠÑĨ ÐµÐ½ÑĤ
Ġih re
Ġ196 4
Ġpar ti
y ing
ÙĪ Ùģ
Ġel ec
at ori
Ġchild ren
ĠTra kten
ol it
Å ©
Ġle v
è °
ir tsch
ãĢģ ãĢĮ
Ġg ia
Ġìŀ Īëĭ¤
æŃ »
Ùħ Ø§ÙĦ
Î» Î±
ãģ »
Ġà° Ĩ
ĠS ing
i ente
if ied
Ø§ÙĨ ÙĬ
Ġs w
, "
×ķ× ĺ
ç¶ ļ
8 5
Ġ194 2
Ġinv ol
ap e
ĠUS A
Ġk i
Ġsim p
ai ent
ic ol
c os
Ġc op
ĠÄĳ áº¿n
æŀ Ĺ
ĠÐ ¯
Ġd omin
æĽ ´
à±ģ .
í Ħ
al y
b st
oh l
ç§ »
ra ch
Ã¼ k
Ïģ ÏĮ
tr es
ìł ľ
ĠD ire
×ŀ× ł
á»ĳ i
ĠÐ¿ÑĢÐ¾ÑĤ Ð¸Ð²
ãĥĩ ãĤ£
Ġfr ont
ami ento
æ± Ł
ç ¢
Ð³ Ð¾Ð´
Ã¤ lt
it ect
ĠÃ¶ ster
Ġt urn
ãģĭ ãģ£ãģŁ
ra in
Ġle b
Ġent r
ash ington
Q u
Ð¾ÑģÑĥÐ´ Ð°ÑĢ
ĠØ¨ ÙĬÙĨ
Ġe z
ier re
Ġs il
ier ten
ĠInd ones
áº¿ t
er es
éĸ Ģ
Ġbo ok
á» Ń
Ð¾ÑĢ Ð¾Ð½
T V
ãĥ¥ ãĥ¼
ab an
Ġcare er
Ð¿Ð¸ Ð¾Ð½
âĢľ .
åħ Ī
åı ĳ
N e
Ġcomm une
ãģ Ĵ
àµ Ĥ
ĠáĢ ¡
æŃ ¦
ĠØ§ÙĦØ «
st adt
åħ µ
y on
å± ķ
ab or
æŃ Į
ĠF e
é ©
ij k
Ġguer ra
e ff
ĠRo yal
çĦ ¶
on om
ĠÐ¿ Ð¾Ð¼
us k
ļ Į
emb le
ĠØ Į
st re
Ġv ict
ĠCaliforn ia
Ġla w
ĠÙĩ Ùħ
Ġapp ar
ĠÑģ Ð»ÐµÐ´
ĠÎ ®
ell er
ĠE ast
6 4
×¨ ×Ļ×Ŀ
Ġjus qu
ĠÏĢ ÏģÎ¿
ĠÐ ®
ãĤ ©
Ġdep uis
ãĤ ¶
çµ Ĥ
Î¹Îº Î¬
ĠÛ ²
Ġac qu
op t
ĠR unt
y g
ou ve
s ide
m m
ĠMich ael
ĠN el
Ġenc uent
Ø§ÛĮ ÛĮ
Ð»Ð¸ Ñĩ
Ġg iá»
er c
Ġtra v
Ġs ido
ãģĹãģ¦ ãģĦãģŁ
ĠÃº lt
aj Äħ
Î¹ Î½
Ġ196 5
ĠD ev
ĠÐ ¦
Ġg ar
ãĥ ļ
áĥ Ĺ
çłĶ ç©¶
201 1
Ðº Ð¾Ð¼
Ġpartic ular
ĠEn de
Ġj ako
ÏĦ Îµ
ĠB ill
ir l
ch ed
Ð² ÐµÑģÑĤ
ĠStre et
ce p
id i
ä» ĺ
ĠAustr alia
Ġth ough
ĠÙĩ ÙĬ
ci Ã³
ĠF il
am ment
iv ing
Ġutil iz
Ġnh á»¯ng
ĠÎ ¸
ed a
Ġ×ĳ× ł
éģ Ķ
Ġdis co
Ġc ame
Ġprob lem
Ġ196 6
ĠÐ¾ÑĢ Ð³
Ġmen j
c as
Ġng h
ĠDiv ision
Ġim m
ĠC ong
Ġhist ory
Ãª u
ãĤĪ ãĤĬ
em ente
C ar
ies z
ĠCh ina
ĠH ill
Ú ĺ
Ð¼ Ñĭ
Ġmin ist
ÐµÑĢÐµ Ð²
ÛĮ Ø´
Ġmill ion
Ľ Ħ
ĠRec ords
è İ
à¤ Ń
Ġv ideo
Ġs pr
ĠO d
à¤ ĸ
Ġ9 0
ãĥ Ķ
Ġeff ect
ĠÄĳ Ã³
ãĤ ²
ÐµÐ½ Ð½Ð¾
Î¯Î½ Î±Î¹
Î¼ ÎŃ
iss ensch
inn en
et o
Ġb ud
ĠPro vin
Ġprim era
´ Ģ
N ach
a x
ĠÑĤ ÐµÑĢ
19 0
×ł ×Ķ
Ø¨ Ø¯
Ġs at
res p
ĠV an
ĠEurop a
ëı Ļ
Ġd ic
Ġe qu
ĠÃ Ń
Ã¶ ÃŁ
Ġj ourn
ĠO ff
ä» ¶
Î¿ ÏĤ
zy m
an ci
lich er
h and
Ġ×ĳ× ¡
it ter
ect or
ÙĨ ÙĬ
S A
Ã¼ lt
A t
od s
un st
æ° Ĺ
Ġc ur
Ġáĥ Ķ
ag ement
Ġplus ieurs
ul le
gen de
Ġi z
Øµ ÙĦ
ĠH ij
Ġn as
Ð´ Ð¸Ð½
Ġart ist
giv ningarna
Ġkonn te
ĠÐ¾Ð±Ð»Ð° ÑģÑĤÐ¸
sk iej
ans ka
Ġd ort
Ġs ide
istr ict
ãĥ Ľ
ar an
ĠØ§ ÙĪØ±
Ġ×Ķ× Ľ
ĠG i
ĠÐ¿ÑĢÐµ Ð·
ĠComp any
re w
ĠA le
ĠS om
ãģ«ãĤĪ ãĤĬ
Ġqu est
4 7
Ġ×ķ ×ĳ×
ãģĿ ãĤĮ
áĥ ĳ
Ġt Ã¤t
ÙĦ Ø¯
ĠCh urch
iv amente
Ġcon du
çĻ »
ĠFl or
ĠÎ Ł
Ðº Ð¾Ð»
ÙĦ Ø³
ĠB u
Ġb ah
Ġ erste
ĠV erb
ĠEn t
ĠM ai
Ġgroup e
Ġdesc rib
Ġ×ĳ ×¨
ual mente
und s
in as
ĠA p
Ġz ich
Ġde ze
is se
Ð° Ð¼Ð¸
ra v
Ġa par
5 5
ke hr
Ġli ber
ãĤ ´
oc rat
ang s
ĠD ur
ä¾ Ĩ
Ġv ic
ĠÐ¸ Ñħ
9 9
Ġv il
à¸ ©
ĠSch w
ĠS on
Ġhum an
Ġin sp
h ib
é ī
Ġí ĺ
Ġpla ats
Ã© b
Ġhab ÃŃa
Ġn Ãº
ĠÐµ Ñĳ
ĠB or
à¸Ľ à¸£à¸°
Ġde ter
Ð¸ ÑĪ
Ġam ong
1 00
B A
m us
ri er
çļĦ ä¸Ģ
Ð»ÐµÐº Ñģ
Ð¸ Ð¼Ð¸
n ig
ÙĦ Ùĩ
Ġl ÃŃ
la k
Ġr iv
ab e
A mer
à° §
å£ ²
Ġmater ial
Ġt iÃªn
ĠOk tober
Ġs ed
Ġra g
Ãªn cia
å ¨
Ġpol ÃŃt
ĠM iss
à´ Ĺ
ĠM en
ur i
ri Ã¨re
ãģĵãģ¨ ãģĮ
G e
c ar
ÙĬ Ø«
áĢ· áĢº
ass en
Ġdesp uÃ©s
l ant
ÑĢÐ¸ ÑĤ
ov i
ÏĦ ÎµÏģ
æĥ ħ
Ġb il
er em
Ġà¦ ¶
Ã¡ i
Ġ196 2
æ »
Ã¶ h
ì¹ ĺ
Ġcon v
c le
au er
Ġst ad
at ik
Ð» Ð¸Ð½
Ġbus iness
ĠM ot
Ġëĭ ¤
hal ten
Ã´ n
æľ ¨
Ġdoc ument
Ġco untry
ÑĪ Ð¸Ð¹
ĠÐ½Ð°Ñģ ÐµÐ»
ĠÐ¼ Ð½
Ġpr Ã©
ĠT re
c s
ãģ«ãĤĪ ãģ£ãģ¦
ct or
Ġ194 8
cl us
Ġc andid
ĠÙĪ Ø£
ad r
ĠB eg
Ġ196 3
áĥĺáĥ ĵ
Ġ×ŀ× ¡
ĠÐ³ ÑĢÑĥÐ¿Ð¿
Ġ×Ķ ×Ļ×Ķ
Ġb ag
Ġvar maste
med eltemperaturen
Ġkall aste
Ġmed eltemperaturen
al bum
Ġs au
rs medeltemperaturen
or ie
Ñī Ð°
ĠÏĢ ÎµÏģ
ĠO ne
Ġs ou
ĠS ar
à¹Ģ à¸£
ÑĬ Ð»
uj e
äºº åı£
Î¿Ïħ ÏĤ
çĪ ¾
b ahn
ĠL at
Ð² Ðµ
ĠC he
ro te
ĠÐºÐ¾Ð¼ Ð°Ð½Ð´
Ġt rop
ĠS in
ĠÐ¸ÑģÐ¿ Ð¾Ð»ÑĮ
ĠI V
Ġjug a
Ġfin ale
æĺ ł
hal b
ĠÏĦ Î±
Ġver d
Ġcol la
Ġra pp
et i
Ð¿ ÑĢÐµ
uch t
Ġm iss
Ġ194 6
ter e
n oc
à¹ĥ à¸Ļ
Ð¾Ñģ Ð»Ðµ
æī ĵ
ÃŃ c
er m
ĠA u
ĠB lack
Ġmon th
Ġt áº¡i
åĽ £
Ġ =
Ġall ow
Ã¶n ig
Ð» ÑĥÐ±
Ã¨ ne
ĠÙĤ Ø±
ĠMus ic
r al
íķĺ ëĬĶ
) ;
ig o
à¸Ń à¸¢
Ġwh at
ĠØª Ùħ
Ġre ach
çĶ ·
Ġw ent
Ġconst itu
Ð ¥
Ã¤r z
id s
Ø§ÙĦ ÙĬ
à¸ ĵ
åĨ Ľ
ãĥª ãĤ«
çı¾ åľ¨
err Ã¤ngen
ĠF ir
and s
Ä± k
Ġex emp
èĤ ²
Ġ×ŀ× ª
Ġkh i
Ġ ÏĨ
Ã¶ k
200 8
Ġfuer on
en k
or io
ĠÐ³ Ð´Ðµ
Ġimport ant
Ġprim o
Ð² Ð¾Ð»
Ġë ¬
Ùħ Ø©
í Ķ
Ġord er
Ðº Ð¾Ð¹
Ġs Ã©
åħ ļ
Ġìł ľ
åľ Ł
ĠW ashington
Ãª s
Ġstart ed
å° Ĩ
Ġan ci
Ġav ant
Ġmunicip al
Ġseb uah
esta ur
ĠJ uni
Ðµ ÑĢÐµÐ´
la ciÃ³n
áĢ ¶
à¤° à¤¤
ãĥĹ ãĥŃ
Ġà° ļ
b u
ĠÐ¸ÑģÑĤ Ð¾ÑĢÐ¸
à¦ ĸ
ĠÃħ rsmedeltemperaturen
åł ±
h old
Ġp ed
ĠÐ²Ñĭ Ñģ
Ġ195 6
am o
Ùĥ ÙĦ
al o
Ġmus ical
itt le
éĺ ¿
Ġf ather
ut i
Ø® Øª
up p
8 6
Ġ" (
Ġcon oc
ĠRich ard
Ġ5 00
Ġz usammen
é¡ ŀ
A nd
Ã »
Ġc ir
áĥĿáĥ ľ
Ġkho a
ĠK arl
T A
Ġv enne
ĠC er
f a
io g
ĠÐ½Ð° Ð·Ð²
ĠS Ã¼d
ĠHa upt
ĠE le
ĠÎµ Î¯Î½Î±Î¹
ed eral
åĦ ª
×¨ ×ª
Ġco unt
Ġtr Ã¨s
Ġe very
ĠÐºÐ¾ÑĤÐ¾ÑĢ ÑĭÐ¹
ĠP erson
áĥĺáĥ ļ
ov en
ÑĨÐ¸ Ð°Ð»ÑĮ
h ab
z Åĳ
Ġ[ [
ĠAc adem
se qu
at to
um a
4 4
uk an
uss a
ĠØ§ÙĦØ ·
ra cht
Ú¯ Ø±
on ie
Ð¾ Ñħ
Ñı Ð±ÑĢÑı
ra z
8 9
Ġn os
Ä ©
ud i
Ġt ent
èª į
ĠÑĤ Ð¾Ð¼
il o
ĠV ict
ĠP an
å¤ «
ĠÐ´ Ð¸
å¤ ī
å° ¼
á»ĩ n
h d
ch te
Ġà° ľ
Ġber g
Ġro le
à¹ĥ à¸«
ik k
Ġass oci
Î¹ Î¬
ìļ °
Ġcentr al
iz o
Ġsim ilar
Ġ196 1
Ð¾ÑĢ ÑĤ
Ġ ÅŁ
Ġst ruct
ĠB ol
n ow
g eme
ĠÐ¾Ð± ÑĬ
Î¿ Î½
Ã¼ m
àµ ¾
ÙĨ Øª
ÙĦ Ø¨
ç ²
Ã¡ ly
Ġlug ar
Ġcap ital
ÙĦ Ø§ÙĦ
å¹´ ãģ®
Ð± Ñĭ
201 2
al an
Ġup p
ang er
h ar
eit e
Ø§Ø± ÙĬ
Ġc Ã´
Ã¶ v
200 0
Ġt rib
est ra
ãĥ¼ ãĤ¯
æĬ Ģ
Ġaut hor
S S
Ð¼ Ð°Ð½
×Ļ ×Ļ×ª
ĠChrist ian
ĠÐ³ Ð»Ð°Ð²
ë© ´
Ùĥ ÙĬ
à¸ į
es en
Ġestabl ished
Ð¿ Ñĥ
b our
Ġ áĥĺáĥ
ist ersch
ĠMart in
è¡ ĵ
æ´ ¾
ĠÑĩÐ° ÑģÑĤ
ĠÑĢÐµ Ð·
Ġsistem a
éħ į
Ġco up
Ð¸ÑĤ Ð°
Ġ193 8
Ġcomm on
Ġáĥ ŀ
Ø§ÙĦ Ùħ
ĠR ob
×¨ ×ĺ
ĠL in
ĠÐ¿ Ð¾Ð¿
Î½ Î·
Ġmill imeter
con tr
ĠPort ug
ï¼ Ľ
áĥĶáĥĳ áĥĺáĥ¡
atur a
ãģ¨ ãĤĤ
ĠM y
Ġà¤ı à¤ķ
Ð½ Ñĥ
Ġg an
Ġco ver
ĠÐ¸ Ð³
å½ ¹
ĠTe x
T errÃ¤ngen
Ġpo ints
Ġgrup o
Ġh y
Ã¤l le
ÅĤ u
ĠUn ion
æĻĤ ä»£
á»© c
ĠÑĩ Ð¸Ñģ
ab ei
áĥĿáĥ ¡
Ġf ield
Ġind ustri
Ã± a
Ġ195 8
o int
it ti
íĦ °
ĠS l
ip s
ag ed
Ġm ur
Ã¡ ch
Ãª m
Ġn aj
ĠF estival
é Ĭ
8 8
ul es
áĥĶáĥ Ľ
uit e
ras te
Ðº ÑĢÐ°
zeich net
ĠB est
Ġv áºŃt
Î® ÏĤ
Ġst re
ĠMar y
ĠØ ¶
b ur
ĠÑģ Ð¾Ð·Ð´
Ø³ Ø±
Ġinde pend
Ø§ÙĤ Ø¹
d et
ë§ Į
ĠÐ¼ Ð¾Ð¶
Ġbec ome
ĠHen ry
Ð¾Ð½ Ð¾Ð¼
Ġk es
ĠX X
ĠT om
un que
áĥ ¨áĥĺ
ãĤ¸ ãĥ£
Ġcu ando
ĠC r
Ġn ar
ass er
Ġqu el
ĠA ward
ĠAr gent
ÑģÐº ÑĥÑİ
ÙĪ Ø´
ãģ§ ãĤĤ
çļĦ ãģª
ÐµÐ¹ ÑģÑĤÐ²
ãģ¨ ãģ®
æ ļ
Ð¾Ð» Ð¾Ð¶
9 5
Ð¸ Ð³
ĠAmer ica
Ġb ran
Ġag osto
Ġchar acter
Ġg ames
Ġ×ľ ×©
Ð°Ð² Ð°
7 6
iel en
Ø§ Ú©
Ġì ļ
ĠK rie
Ġbere its
ĠGe org
ĠK l
Ġ19 18
un ced
ÄŁ Ä±
Ø§ÙĨ Ø¯
Ġl ic
Ġvu onna
Ð² Ð°Ð½
à¸²à¸ §
Ġgen omsnitt
Ð»ÐµÐ´ Ð¾Ð²
Ġhab en
ÐµÑĢ Ð±
Ġde dic
Ġs Ã¶
ia k
Ġand eren
Ġprev ious
f te
h y
åĻ ¨
ĠV ers
ĠB ud
âĢ ¦
Ġs Ã©rie
ä¾ ĭ
Ã©s z
Ġ à¹ģà¸¥à¸°
ãĤ¢ ãĥ«
ĠN eder
äº Ķ
ĠØ´ ÙĩØ±
ru ck
ĠÐ¿ Ð¾Ð·
Ġpres ident
af ts
ativ a
ĠØ¹ Ø¯
Ð¸ Ð½Ñĭ
ĠÙħ Ø´
id ence
Ġrec on
Ġstud ents
Ø§Ø «
w are
ĠMar k
Ġo tr
Ġihr er
ĠC la
Ġe erste
ar ed
ĠS ci
ÑĢ ÐµÐ½
ĠìĿ ¼
Ġc ours
Ġemp lo
el se
ĠLo Ãłi
Ġfe ature
ĠK e
åķ Ĩ
Ġn et
Ġstud io
ä¸ ĩ
ot te
om et
ĠEst ados
Ġd ove
A b
à¸ ľ
Ġch a
à§ ¦
ãģ§ãģĤ ãĤĬ
aj e
ĠRe ich
ĠF ort
Ġy oung
c an
Ġì Ĩ
ì Ĥ
ÑĢÐµ Ð·
Ġ195 4
æ ¤
ain s
Ġk ir
í Ĩ
ĠH al
Ġà¦ Ĺ
Ã ½
ĠÃ¥r sn
Ġreg nig
Ġtor raste
ÏĮ ÏĤ
omsnitt lig
ĠÃ¥rsn ederbÃ¶rd
Ġregnig aste
Ġf ew
h elm
ĠD istrict
çĶ £
áĥĶáĥ łáĥ
Ġn or
ãĥ³ ãģ®
ãĤĮ ãĤĭ
Ġ195 9
Ġer w
à¸Ń à¸ģ
ĠRom an
ation en
ĠÚ© Ø±Ø¯
Ã¡n h
ĠÐº Ð°ÑĢ
Ġlat ach
ĠGen omsnittlig
ks i
b et
åį Ĭ
f ilm
Ġg ol
Ġw ay
åĳ ¼
Ġg ev
Ġp ays
Ġ6 5
ic ult
Ġcomm and
ell s
Ġconstru ction
lar ak
à¸ ł
Ïĥ ÎµÎ¹
Ïħ ÏĦ
Ġdi ed
C hr
Ġch urch
å° į
ĠS ud
Ġ194 7
ĠT od
Ú¯ Ø§Ùĩ
ì °
Ġel ement
ĠÐ± Ð¾Ð»ÑĮÑĪ
ĠY ou
Ñģ Ð¸ÑĤ
all er
ĠUn idos
ĠJos eph
4 6
ĠÎ ĵ
ific ation
ĠMin ister
Ġtemp o
éł ĺ
ĠN acional
Ġthá» ±c
ç¦ ı
Ġt iene
Ġfo is
×ĳ× ¢
Ð Ń
ang el
ĠÙĪ Ùĩ
Ġdi fer
Ð¾Ð¶ Ð´
200 6
Ġn ah
ĠÐ¡ ÑĤ
201 3
Ġìł ķ
Ġne xt
ĠÚ© Ø±
Ġadminist rat
Ġd ag
å¼ ·
Ġass ist
ĠS erv
er ne
il en
ãģĳ ãĤĭ
ĠAss ociation
Ġì ¤ĳ
Ġpr ess
ä½ľ åĵģ
Ġs op
Ġà° ¤
in al
ÑĮ Ñı
ess or
ak ar
ĠH Ã¤n
Ġtit le
ÙĤ ÙĬ
ÅĤ ug
ic y
Ġdir ig
ĠÑį ÑĤÐ¾
ultur al
Ġi Ã§
il er
j ekt
Ġb iz
ĠAr beit
Ġthá» ĥ
ent al
la gen
Ġsta g
c ast
Ð¾Ð± Ñĭ
it et
f o
Ġ195 2
ĠS i
ĠÃ¡l bum
éĻ į
Ġocc up
no ÅĽci
if ica
æ¨ ©
×ŀ ×ķ
ĠØ³ Ø±
Ġvar ious
ĠÑĤ Ðµ
Ð¾ ÑĪ
uss en
ĠC entral
lar Ä±
âĢľ ,
Ġn ad
æ¥ ½
w an
Ġp ur
ĠJanu ar
ç· ¨
ĠSt r
Ġw id
Ġs or
Ġ195 7
ĠÑĥ Ð½Ð¸
7 7
å¦ Ĥ
Ġpob laciÃ³n
Ġper d
ĠÑĦ Ð¾ÑĢ
eb ut
æ§ ĭ
Ġ íķľ
Ġ×ķ ×Ĳ
us ti
Ġs Ã£o
è¿ Ļ
Ġex c
ãĤīãĤĮ ãĤĭ
4 9
Ġng Ãły
ÛĮ Ø²
à¸ģ à¸£
Ġindivid ual
Ġsu ff
ĠBras il
Ġà°ī à°¨
Ġw omen
ÐµÑĢ Ð³
Ġan c
æĸ ½
Ġs our
Ġob serv
201 4
çĻ ½
ur as
Ø« Ø±
Ã© ta
b it
ĠÙħ ÙĤ
Ġl in
l ik
ÑĨ ÐµÐ²
Ġot ros
Ġc ro
Ġh owever
as tern
w on
ist i
at ti
Ġk el
Ġto ut
Ġqu esto
j u
Ġd Ã©s
ĠÑĢÐ° Ñģ
m on
Ġí Ļ
Ġcla im
Ġt ym
ÑĨÐ¸ Ñİ
ict ion
Ġhe eft
ĠL ib
aÃ± a
éķ ¿
Ġcitt Ãł
ĠØ§ ÙĪ
ĠâĢ ł
ÑĪ Ð¸Ñħ
Ġver k
Ġ193 6
Ġ ul
é¡ Į
å· ´
Ġà¦ ī
Ġg iven
ÙĨ Ø§
ub e
×ľ ×§
ä½ ı
Ġlang u
Ã©r ica
åĤ Ļ
ec to
Ġ194 9
Ġc amb
ĠR ock
tain ed
Ïģ Îµ
on to
min istr
ÑĢÐµ Ð±
Ð² Ð°Ð»
ud es
Ġk ill
f eld
Ġ íķ
Ġdevelop ment
ĠÐ¼ ÐµÑĤ
×ŀ× ª
Ġa ud
Ġer folg
Ġus ing
ĠÙħ Ø§
Ġsu iv
ĠM ur
èª ¿
ãģª ãģı
ĠÑĩÐµÐ»Ð¾Ð² ÐµÐº
ÅĤ aw
èĢ ĥ
ĠÎ Ĵ
Ãł ng
è« ĸ
ĠD ez
Ð½Ð¾ ÑģÑĤ
Ġb ord
éĿ ŀ
stitu te
Ġs ens
ĠC D
6 6
t ra
ĠGr und
³ Û
ĠIs ra
Ġà¦¹ à¦¯
ãĤĮ ãģŁ
å½ ¼
Ġc ivil
art s
ĠM useum
oc ia
7 8
Ġgre at
uj Äħ
Ġthu á»Ļc
Ġih n
ÑĢÑĥ Ð´
Ġcl os
us z
ĠArm y
as an
ic le
o i
Ġì £¼
Îº Î±
ĠK at
Å ĵ
ÑĥÑĢ Ð³
Ġmod el
Ġt ake
ĠÐ´ ÐµÑĢÐµÐ²
ol ar
it en
è© ¦
ÙĬ Øª
ĠPart y
Ġpo i
um s
ĠØ¨Ø± Ø§ÛĮ
Ġo larak
ĠM Ã¤rz
Ġk ep
ru z
Ġdirect or
iá»ĩ t
Ġwork ed
Ġm ismo
Ð½Ð¸ Ñı
ĠV on
Ġsz er
in to
ak er
Ġà¤ª à¤°
ĠÑģ ÐµÐ»ÑĮ
Ġne i
Ã³ p
åº §
Ã³ m
ĠK ur
Ã¶ st
Ġopp os
âĢĿ .
Ġnel le
s ur
Ġv ot
in y
p ut
ÐĿ Ð°
Ġcap ac
áĥĶáĥ Ĺ
i qu
i Ã¨me
Ñĥ Ð·
ĠSt an
ent en
gr und
ĠktÃ³ re
Ġind ic
êµ Ĳ
ç´ Ģ
ĠÐ» Ñİ
Ġhav ing
Ġs ac
Ġb ur
Ġm id
ĠS aison
ãĥĥ ãĥĹ
at ely
Ġw Ã¤hrend
à° ¹
æĶ¿ åºľ
Ð´ Ð¶
éĢ Ļ
é¦ Ļ
Ġ×ŀ× Ķ×
Ġcas a
Ġhe ute
ÑĨ Ðµ
×Ĺ ×ª
Æ¡ n
Ã¶ re
ìļ ©
ÙĨ Ø³
ig ung
ĠB al
ĠÐ± Ð¾Ð»ÐµÐµ
Ġv end
Ġil e
i Ã§Ã£o
om er
b al
um an
Ġg leich
Ġpra ct
Ġpro ject
I S
Ġm entre
ord in
Ġjo ined
ãĥ¼ ãĤº
Ġbe z
éĮ ²
Un ivers
åİ »
Ġaut om
Ã¤ch st
Ġa ch
Ġì ¶
alt ung
Ġtr es
Ð¾ ÑĦ
Ġf al
ĠFrancis co
ØŃØ¯ Ø©
Ġ×© ×Ķ×
ess en
ĠÐ´ Ð¾Ð¼
áĥ Ļ
Ġel e
æŃ ¢
Ġj ego
Ø¹ Ø¨
Ġprodu ced
à´ ¶
g ang
ze ug
k ap
í ļĮ
æĪ ĸ
Ġcommun ity
Ġplay er
æĶ¾ éĢģ
ĠK ol
è Į
un to
L os
Ġc Ã´ng
Ġper man
ĠH ans
Ñı Ñī
4 2
Ġreturn ed
Ġf ebru
p ret
ĠÐ½Ð° Ð´
Ġcap it
ning en
ow ego
Ġ193 3
Ġgr adu
Ġcon fl
éĢ Ģ
ĠR od
Ġ195 5
ĠC ro
ãĤ¹ ãĤ¿
Ġr ip
ĠSp an
r am
Ġfran ces
Ð¡ Ð¡Ðł
up pen
Ġweit er
Ġì ²
zen ia
Ġcent re
r ze
Ä±nd an
Î¿Ïħ Î½
Ã¦ r
ĠMitgli ed
te in
íĸ Īëĭ¤
åĳ ¨
Ä į
Ġê² ĥ
ÅĤ Ã³w
e on
ãĤīãĤĮ ãģŁ
Ã© ben
éĥ ¡
ien st
æĬ ķ
ĠÑĥ ÑģÑĤ
ĠT own
ch ni
Ġmed ia
Ġerh ielt
ãĥķ ãĤ¡
Ġ Å¼e
st ant
us ed
ãĤ¢ ãĥ¡
Ġcre ated
ord en
×Ļ× ĸ
quip e
Ð¸ Ð²Ð°
M A
ou te
ĠM un
Ġs ar
ouv elle
Ġst ar
y i
Ġo h
Ġ3 2
ĠÑĤ Ð¾
Î¬ Î½
E x
Ġt orn
è ĺ
201 5
Ġë ²
çĿ Ģ
ĠPres ident
ÙĦ Ø§Ùħ
ĠÐ² Ñģ
Ġs emp
Ġch ampion
Ġtra va
ãĤ į
å¸ «
Ġno ta
ĠgÃ©nÃ©r al
Ġprom ot
Ġs ans
cz as
Ã¼ ber
ãģ« ãĤĤ
Ġn ouve
ĠC e
ĠD is
ĠBer g
le ar
ãģĹ ãģĭ
ãĤĴ åıĹ
Ġresp ect
×ķ ×ķ
ĠC op
ul u
Ġk ont
Ġà° ²
ĠGro up
Ġl á»
áĥ£áĥ ł
er w
Ġbe iden
ĠTh ese
ĠInd ian
Ð°Ð½ Ñĭ
Ġ" "
×¨ ×¡
ĠAng eles
ol are
ĠK Ã¶nig
us a
ra p
ra y
itu de
Ġex amp
Ġvá» ģ
Ġe p
ĠC ont
Ġa ward
Ġpl ant
ĠD re
Ġf ab
Ġph ys
Ġor ient
å¸ Ŀ
Ġm and
Ġserv ices
Ã© re
Ġs ang
Ġre mp
Ð½Ð°Ðº Ð¾
n t
Ġ195 3
ĠG al
äº ŀ
Ùħ Ø§Ø±
ct ions
ĠD uring
Ġprodu c
Ġ19 19
é¤ ¨
Ġv iv
Ã¼ let
ĠEurop ean
áĢ ²
o unt
b i
Ġapp oint
ĠÄĳá» ĥ
ë £
Ø§Ø¯ ÛĮ
Ġk il
in ta
it ch
çİ ĩ
ĠP ac
à¦ ĵ
r z
èĳ Ĺ
200 5
Ġk Ã¤
Ġhal f
ãĢ ħ
ĠÐ´ ÐµÐ»
ĠÙ¾ Ø±
Ġìŀ Ĳ
R A
Ġl lam
ĠØª Ø¹
å® Į
ìĦ ł
ĠSm ith
ĠÐ¸Ð· Ð²ÐµÑģÑĤ
ĠÎ »
ĠÐľ Ð¾ÑģÐº
Ġà®İ à®©
ĠÐ¾ÑĢÐ³ Ð°Ð½Ð¸
ĠÃī t
Ġcap t
Ġf ull
sk im
å ´
éĢ Ł
Ãº t
Ġj ap
Ġ193 7
Ġà¦ı à¦¬
ĠJ er
T e
ÐµÐº ÑĤ
Ġà´ ¤
ir at
ed y
Ġcat eg
ãĥ ¤
ĠCo uncil
ĠÐ³ Ð¾Ð»
ĠB ei
Ġrel ativ
ÙĤ ÙĦ
Ġsam h
ĠÑģ Ð°
ĠÐłÐ¾ÑģÑģÐ¸ Ð¸
osp ital
ĠN g
ĠÃ ´
r Ã¡
Ġs it
f alls
ĠH ot
Ġan os
ar ono
Ġc it
ĠÑģÑĤ ÑĢÐ°
un o
ĠÐ¿ Ð¾ÑĤ
Ġw orks
Ñı Ð´
Ġv ie
8 7
Ġdiv ision
Ġp eng
å¯ ¹
ĠIt alia
Ġl leg
ri que
Ð°Ð½ Ð´Ð¸
i Ã¨re
w h
Ġfamil le
Ġal m
ãģ ¹
Ġfav or
Ġspec ies
áĢ °
éĻ Ĳ
Ġpolit ical
s ce
Ð¼ Ð°ÑĤ
tr on
Ġmy Ã¶s
Ġg ing
Ñģ ÑĮ
u ur
us ion
ind a
ĠÐŁ Ð¾
d ay
E st
ãĤ¢ãĥ¡ ãĥªãĤ«
ĠÐ³ Ð¾ÑģÑĥÐ´Ð°ÑĢ
ĠØª Ø±
is Ã©
ĠO per
end ing
y en
ĠK om
ro g
Ġmar zo
×¨ ×Ļ
201 6
Ġ( ;
Ñĭ ÑĪ
ĠK ap
li ed
ĠPl atz
Ġfre qu
ä»£ è¡¨
E s
ÃŃ m
Ġperson al
Ġtrans port
Ġt om
az ine
ah ren
Ã¡ rio
Ð¸Ð½ Ðµ
Ġin iti
l uss
or b
Ġ íķĺ
resp ond
ic io
Ġáĥ Ĺ
ä¼ Ĭ
Ġfe atur
w in
Ġgr Ã¶ÃŁ
ĠL ud
è³ ĩ
Ġs á»±
E S
Ã¼ g
ç¶ ĵ
Ġimport ante
Ġr if
F C
Ġà¦ª à¦°
ĠA cc
ĠB an
ĠÑĩÐµÐ¼ Ð¿Ð¸Ð¾Ð½
Ġpu ede
ste in
ĠJ uan
s zy
ant h
iss ance
ç´ ļ
ĠD i
ãģ« ãģ¤
Ġf ind
Ġem bar
ĠW ind
ĠKan ada
Ġze uden
j on
Ġd ens
ĠN ap
è³ ŀ
Ġpos it
ÄŁ i
æĸ Ļ
el ig
ĠT im
j es
Ġ3 6
Ġof fer
Ġf on
Ð» ÐµÐ½Ð¸Ðµ
ĠCent er
Ġvol ta
ĠÙĪ Ø§ÙĤØ¹
Ġs an
×ł ×Ļ×Ŀ
± °
âĢ ŀ
Ïģ Ïĩ
ĠÄĳá» ĭ
Ġjo ue
ĠÑıÐ²Ð»Ñı ÐµÑĤÑģÑı
ä¿ ®
Ġdef e
all o
Ġanno unced
s om
í Į
Ġp ast
åķ ı
ub le
ãģ« å¯¾
iel te
ĠÚ© Ø§
Ġnot amment
Ġk ul
ĠØ§ ÛĮ
k rie
Ġmon de
la ce
çķ ¶
à¥Ī à¤Ĥ
ÑĢÐ¸ ÑĤÐ¾ÑĢÐ¸
Ġd ah
ĠP rem
ĠT a
Ġt imes
ë§ Ī
Ð¾ Ñī
us i
Ġatta ck
Ïģ Î·
Ġc ada
ĠA pp
Ġper t
Ġf est
Ġcontinu ed
Ġë Ĳ
Ġv oc
Ġsul la
c ze
Ð §
Ġha ar
pr ession
ëª ħ
P er
æ Ĳ
ow ym
Ġm Ãºs
×¨ ×Ķ
Ġres earch
æ³ ¢
ĠkÃ¶n nen
éī Ħ
ab el
Ġte il
Ġ×Ļ ×©
Ġtod os
ĠM ass
z za
ĠÐ¾ÑĤ Ð½Ð¾
Ġja ar
áº± ng
Ġg em
åĪ ¤
Ð½Ð¸ Ðµ
Ġpubbl ic
ĠDep art
Ġ195 1
4 1
ch sel
ell ow
ch an
Ġin str
ĠJos Ã©
d i
pl ic
Ġ×ŀ× ¢
or de
ĠOr t
ĠL aw
Ġì Ĭ
å° İ
Ġan al
Ã¶ff entlich
Ġst ata
áĢ ļ
ĠÐ´ Ð°Ð½
Ïĥ Î¹
5 00
w ig
B S
l igen
à¸ ĺ
ĠDeutsch land
us se
ĠÚ© ÙĪ
ĠÙħ Ø¬
Ä±n Ä±
air es
f ten
Ġà¦ı à¦ķ
ÙĬ ÙĪ
n as
ĠP ubl
stell ung
ol ution
Ġ×ĳ× Ķ×
u ela
eg n
Ġ( ,
Ġl eng
iss ement
Ùĥ Ø±
Ġra il
b ers
ĠW er
A ll
Ã©r ic
4 3
li que
è£ ħ
ĠGo vern
Ġì ĸ
Ġdies em
Ð· Ð½Ð°Ñĩ
Ġcent ro
Ġ ub
à¹Ģ à¸ģ
ãģ§ ãģ®
ari os
H et
Ġb al
æĿ± äº¬
A fter
á» ĥ
Ġwith out
Ġal tern
×Ĺ ×§
ĠS pr
Ðµ Ð³
od a
Ġê³ µ
å® ¹
ĠN et
M S
Ġp ens
ith er
es z
Ġj ou
Ã¡ nd
Ïģ Ïī
åı¯ èĥ½
Ġinv estig
ĠØ± ÙĪ
7 9
ĠW hen
Ġb att
ĠKir che
or p
Ġs aison
Ġer an
om i
ler i
Ġm Ã¡
st ru
Ġas p
Ġinter est
íķĺìĺĢ ëĭ¤
Ø¹ Ø¶
ĠìĿ ¸
Ø¨ Ùĩ
á»Ļ i
ic ago
à´ §
e in
Ġle vel
Ġt ard
ec z
Ġh old
Ġposs ib
çĬ ¶
Ã¡ o
Ġë ¯
ÑĢÐµ Ð²
iv ely
Ġre du
Ðµ ÑģÐ¿
ĠL eb
Ġat tem
A z
áĥĲáĥ ª
Ġst att
Ġrepr Ã©s
ch s
ĠDez ember
ĠØ£ ÙĬ
æĶ »
èĪ ª
Ð¸ÑģÑĤ ÐµÐ¼
Ġprz ed
A ng
Ġdes sen
Ġc am
ç Ĩ
Ġj ud
è¶ ³
åģ ´
Ġw rote
em in
ho ut
it ta
6 8
Ġà¦ ĵ
ne o
ind i
Ġest im
ĠvÃ¤ ster
Ġv ida
è¦ ĸ
ĠO st
è ĸ
Ġ193 4
B e
Ð ķ
ĠTe chn
ĠC a
ëŁ ¬
Ġwrit ten
Ì Ħ
or ial
Ġespec ial
ĠV erein
sk ich
ĠF ol
Ġs Ã¥
Ġg y
om ing
Ġb á»ĭ
sch lieÃŁ
ĠCar ol
m als
Ġ15 0
Ġd ata
ou ver
Ġ193 5
ãģł ãģ£ãģŁ
ĠÐ² Ð¾Ð´
Ġmilit ary
ber to
ĠÐ± ÐµÐ·
ĠÐ¾ÑĤ Ðº
Ð¾ÑĢ Ð¾Ð²
ĠÐ² Ð¾Ñģ
Ġsu ite
ãĤ·ãĥ§ ãĥ³
el te
ier no
sel f
7 2
Ġn ag
Ġbel ie
Ġà´ İ
å¹ ¶
ĠB ere
à¹Ģà¸ ¡
åĮ ħ
Ġnum ero
Ġto do
ÐµÐ´ Ð¸Ð½
Ø§Ø¯ ÙĬ
f ahr
a ug
ok at
Ġìľ Ħ
Ãª te
Ġqu ale
Ġatt ra
ĠAmer ika
é º
Ùħ Ø±ÙĬ
Ġs Ã¼d
Ð°Ð½ Ð¾
Ġfamil ia
ĠK n
p iel
Ð¼ ÐµÑĢÐ¸
Ġaut res
w ays
Ġav ait
ai x
Ġt anto
Ã¶r t
áĢºáģ ĭ
neh men
ç¬¬ ä¸Ģ
Ġeng ine
il os
Ġ×Ľ ×ľ
ĠÐ¸Ð¼ Ðµ
k om
ÑĬ ÑĤ
ĠJ ust
æ§ ĺ
ä¾ Ľ
er ve
Ø® Øµ
ĠÐŁ ÑĢÐ¸
Ġê² ½
x er
æ¸ ħ
egr Ã¼nd
200 1
ĠL ac
ĠE uro
ĠÐĲ ÑĢ
eg u
Ġm ont
C O
Ñı ÑĤÐ¸
ãģ® ä¸Ģ
ĠØ¨ ÙĦ
ĠÑģÐ¾ÑģÑĤÐ°Ð² Ð»Ñı
Ã¼ ng
ĠM Ã¼n
d el
Ġre ci
Ø§Ø± Ø©
p f
n ica
ĠÐ² Ðº
Ġrel ations
os tr
ik en
f ang
Ġi k
olog ical
çĪ ¶
ĠG old
it as
ig ne
w al
Ġta x
in in
Ġreg ular
Ġf ine
Ġb omb
Ġtr Ãªn
I s
Ñı Ð¼
I A
Ġba ÅŁ
Ï Ī
ÑıÑĤ ÐµÐ»ÑĮ
Ġw eb
ian te
bo ard
ĠÙĪ Ø¬
Ġcon qu
c Ã³w
Ġfor ces
oc key
ãģ¨ãģª ãĤĭ
ÄĻ d
éĻ ¸
ĠÑĢÐµ ÑĪ
Ġop t
ĠrÃ© alis
sch ied
ow i
Ð°Ð» Ð¾
ä¸ ľ
Ġcer tain
Ġcol lect
is o
Ùģ Øª
st Ã¤nd
ĠÎ ¬
ÐµÐ² Ð¸Ñĩ
ĠÙĦ Ùħ
ede ut
Ġwy st
Ġoff icial
Ġen viron
Ġto urn
Ġ3 00
å¼ Ģ
g ra
áĥĲáĥ ®
ul ation
Ġb land
ĠØ¨ Ø¯
ev e
Ġst yle
Ġ×Ķ× ĵ
as es
Ġz d
ol le
ÑĤÐ¾ ÑĢÐ°
Ġk ans
æ Ĥ
ç ª
ĠnÃº mer
N o
ĠÏĦÎ¿Ïħ ÏĤ
200 4
ëĲ ľ
y tt
áĢ «
åº ĥ
ig lia
ĠT ro
Ġ19 14
Ð½Ðµ Ðµ
Ġversch ied
Ġh ay
un Ã¤chst
Ġdi pl
ãĥ Ĵ
pres a
ĠGre en
ãģª ãģĭãģ£ãģŁ
Ġfin o
Ġpr end
5 6
ĠT y
r iv
Ġs Äħ
ëĭ Ī
ĠH och
Ġt ijd
Ġfound ed
Ġ×Ķ ×Ļ×Ĳ
ĠSt ad
ĠÐ¿ ÐµÑĢÐµÐ´
emb ro
9 8
Ã¤ st
ÏĥÎ· ÏĤ
olog ia
Ġty pe
Ġà¤ ļ
Ġv it
ĠR ail
Ð¾Ð» Ð¾
att end
tem por
Ġde el
æł ¹
Ġg ibt
Ġp ie
Ġch ÃŃnh
vol ution
à¸Ń à¸£
Ġm uy
one y
eg a
Ġcons id
Ġconsider ed
if s
ãĤĴ è¡Į
ĠG ran
áº· c
åľ Ĵ
Ġf ace
à¤ Ī
al mente
ĠD u
z em
ĠØ§ ÛĮØ±
éł Ń
eg y
Ð± Ð°
ĠÃ¥ t
ot y
ĠC at
ers hip
ÑĢÐµ ÑĤ
Ġf riend
Ġla g
Ġfir m
ich ts
ĠÐ¶ ÐµÐ½
ĠS and
ĠâĢ ĺ
ĠÑģÐ¾ÑģÑĤ Ð¾Ñı
ÐµÑĤ Ñĭ
Ġ192 8
ĠÐº ÑĢÐ°
Ġl ive
ĠR io
Ġjun to
Ġy Ä±l
9 6
ĠP ed
Ġ19 17
iv os
Ġ192 9
ik u
a ul
C om
w ad
Ġí ı
Ã¼ ss
fer ence
ãĤ Ģ
E R
h m
und ial
Ġv ed
ê³ Ħ
Ġtelev ision
à¹Ĥ à¸Ķ
et Ãł
at os
c ont
á»ĳ ng
ĠSc ott
ĠN h
ann i
ĠSoci ety
ä¸ ¡
á» ī
ĠÐ· Ð²
Ġcolla bor
m ond
è ¬
Ġtemp s
ĠÑĥ Ð´
ĠK ong
Ã©n t
Ġmar ried
Ã³ b
Ġto get
èĲ ½
ĠØª ÙĤ
ä» Ĭ
ë¬ ¸
Ġn orr
á»ģ n
ĠÑĤ Ð¾Ð³Ð¾
ĠÃľ ber
Ġsig ui
Ġant es
Ã¶ z
k or
é£ Ł
iz io
à¸²à¸ Ĭ
Ã© ra
ĠÑįÑĤ Ð¾Ð¼
ĠÐ¿ Ð¾Ð±
ĠCar l
æĺ Ń
f ace
Ġp ut
stra ÃŁe
éĺ ²
ĠÎ± ÏĢÎ¿
æ° ı
Ġt iem
Ġd ays
áĢ ĸ
æĻ ®
Ġtoget her
ist es
Ġs ay
Ð² Ð°ÑĤ
Ã¤n de
u elle
ĠEin w
te urs
Ùĩ Ø¯
é ¨
× ¥
Ø§ÙĨ Ùĩ
ä» ¤
Ã¡ d
w y
çľ Ł
ĠB ut
Ġr ight
Ġ ult
éĽ ¢
ĠØ¨ Ø§Ø²
Û ±Û
Ġre ti
f ect
os c
ĠÐ´ Ð¾Ð»Ð¶
Ð°Ð» Ð¸ÑģÑĮ
Ġpart y
Ġd iss
Ùĥ Øª
Ġband a
k y
Ġmiej sc
ãģ¸ ãģ®
ĠÐ¼ÐµÐ¶Ð´ Ñĥ
ic ia
Ø¯ Ø©
Ġìľ ł
ĠÃ´ ng
n at
Ġm ere
ig ine
Ġbek annt
é ¾
" ;
o y
Ġd in
Ġà¦ ļ
Ġw en
ÃŃ p
Ġc ase
ĠF Ã¼r
Î¼ ÏĢ
è³ ½
l ess
ĠRo ad
×¤ ×ª
etti in
z Ã¶s
Ùĥ ÙĪÙĨ
åĬ ¨
201 7
Ġd la
Ġme er
Ġh u
Ġr estaur
Ġqu alif
8 4
æ ¿
Ġas ÃŃ
Ġj uni
å® Ĺ
Ġj ur
Ġv el
×ĳ× Ĳ
uv ent
ard en
à§ Ĥ
Ġdec ember
ok e
n Ã©
ĠH on
Ġet x
×Ĵ ×ľ
Ġcz ÄĻ
7 1
Ġcz as
Ġme et
ĠD am
ĠGro ÃŁ
Î¸Î· ÎºÎµ
Ġí Ķ
ĠWh ite
ĠJ un
ain en
Ã¤ v
ĠØ§ÙĦ ÙĪ
Ġl etz
ĠÑĤ ÐµÐ»
ĠØ§ÙĦÙħØª ØŃØ¯Ø©
ģ ¬
ĠG io
Ġ à¸ŀ
ier ra
w or
geb iet
8 3
at y
Ġopen ed
ĠP op
ĠDies e
çļ ĩ
ÙĬÙĨ Ø©
à¹Ģà¸ Ĺ
Ġz m
ĠP lay
ĠAl f
ing u
åĳ ĺ
Ġ×Ĵ ×Ŀ
à¸Ħ à¸£
ĠÐ¾Ð± ÑīÐµ
Ġsel bst
ĠF eder
Ġch i
Ġ×ľ ×¢
è© ±
Ġv iew
ĠÃ Ħ
Ġalg un
k ir
Ġst ory
ĠB ez
Î¿ Ïģ
Ġà¤ ¥
æĪ °
tag on
ĠR en
Ð²ÐµÑĢ ÑģÐ¸ÑĤ
h as
Ġà° ¬
Ġpre d
ab les
ĠÑĤ ÐµÐ¼
Ġra ce
ĠIn stitute
áĥĶáĥ ĵ
áĥĶáĥĳ áĥĺ
A c
ĠÐ¾Ð±ÑĢÐ°Ð· Ð¾Ð²
Ġim pro
Ã¤ tt
el er
ish ing
é« Ķ
issensch aft
Ġco ach
Ġ193 2
om s
ĠÐ½Ðµ ÑģÐº
ĠE v
Ġprofess ional
ÙĬ Ø¹
Ġtrans fer
Ã© ro
ĠstÃ¶r re
ĠÐ² ÑĤÐ¾ÑĢ
ens us
ĠÑĤ Ð¾Ð»ÑĮÐºÐ¾
ãĥ¼ ãĤ¸
enn is
Ġhel p
Ġmenj adi
ĠH aus
ÙĬØ± Ø©
è© ²
ck e
Ġse pt
Ġav oir
ĠCan ad
ĠM ah
ãĥķ ãĤ£
å± ĭ
Ġsqu ad
Ġfur ther
àµģ .
Ġrom an
Ð°ÑĤ Ðµ
Ġbeg ann
Ġd Ã¢n
Ġcas o
m itt
ĠPro gr
Ġì °
ell ing
ĠÑģÐ² ÑıÐ·
Ġt iáº¿
ĠP lan
ìĭ ł
ic c
ä¸Ń å¿ĥ
Å© ng
ek s
ĠL ie
áĥĿáĥ ļ
Ġtempor ada
ob y
ĠRad io
Ġpro per
qu el
ĠÐķ Ð²
Ġz aw
Ġl ost
ĠrÃ©g ion
Ġsuo i
z ug
ĠS up
8 2
äº ī
ĠG ew
7 4
ativ o
èī ¦
ĠTex as
ĠW ith
m u
íķĺ ê³ł
ut ions
å¼ µ
Ġcol on
ÑĢÐ° Ð±Ð¾ÑĤ
N ew
×ľ ×Ĺ
æľ ª
ĠIn f
Ġel Åĳ
Ġdiff Ã©r
æĽ ¾
g re
âĢĿ ,
è§ Ĵ
Ġhabit antes
ĠÐ° Ðº
ÑĢ Ð¾Ðº
ÑĤÐ¸ ÑĩÐµ
ĠP en
arb eit
Ġl ess
Î¼ Î¬
Ð¸ ÐºÐ°
Ġë³ ´
å° ĩ
Ġinfl uen
Ù Ģ
Ġz itu
ãģ«ãģĬ ãģĦãģ¦
ÑĨÐ¸Ð¾Ð½ Ð°Ð»ÑĮ
Ġh ost
Ġ uk
ev en
ĠLand es
Ġt ers
Ø« ÙĦ
áº£ ng
ĠA th
Ġst rat
Ġfor am
Ã¶g lich
Ġ19 00
ÙĪØ³ Ø·
ĠÑģ Ñĭ
Ġro und
Ġ192 4
Ġar g
iÄħ z
Ġn un
Ġte ach
V D
Ã©r ation
é¢ ¨
O S
ĠVir gin
j ar
ĠS y
Ñĭ Ð²Ð°
Ġel ection
Ġb ron
ore a
ĠØ³ ÛĴ
Ġprop ri
Ġf Ã¼n
ig an
æĿ ¡
Ð»ÐµÐºÑģ Ð°Ð½Ð´
ien ce
uk e
Ġ×ĳ× §
Ġappear ed
a ign
è¦ ª
qu er
la p
åħ §
s Åĳ
ĠÚ© Ø´
ut ed
Ġd onn
Ġform ed
Ġs av
ĠFried rich
l im
Ġtid ak
ĠE gy
ĠR oma
Ġm Ã´
la uf
ak ter
irtsch aft
ĠS ystem
Ø§ÙĨ ÙĬØ©
Ð¾Ð³ÑĢÐ° ÑĦ
ĠNeder land
Ġ×ŀ× Ĺ
Øµ Ø±
Ġit u
ìľ Ħ
Ä± s
ĠOr gan
Ġs um
ÙĬ Ùģ
æ¯ į
Ð¸Ð½ Ð³
Î³ Îº
is ing
ĠÐºÐ¾ÑĤÐ¾ÑĢ ÑĭÐµ
éĻ ¤
Ġj ak
à±ģ ,
Ġinte gr
m ina
ĠÑģÐ¾Ð² ÐµÑĤ
ast ÄĻp
Ġalt ri
Ġd ok
Ġe hem
ÑģÑĤÐ² Ñĥ
ì ¡°
Ġaver age
Ġà¤ķ à¤°
ï¼Ī ï¼ī
el de
ĠÑģ Ñĩ
ĠÃ¡ ll
c m
ÃŃ ch
Ġst esso
Ġdevelop ed
à¹Ģà¸ Ķ
Ġprof es
as k
åı İ
7 3
ĠÐ½ ÐµÐ¼
å® ¢
Ġtak Å¼e
Ġcor respond
ors o
ç ħ
Ġ×Ķ× ľ
ĠÑģ Ð¸ÑģÑĤÐµÐ¼
" -
ĠE mp
attend rag
ac a
Ġc oll
Ì Į
in ese
Ã¨ ge
è ħ
ĠS ov
Ġhist ori
6 2
am ar
vent ion
Ð° ÑģÑĤ
Ġëĵ ±
Äĥ ng
ĠVer w
è¦ ı
à¹Ģà¸ ¥
Ġ×ĳ× ¤
ic ano
ĠCre ek
n ier
Ġle urs
Ġpier ws
um ents
l og
Ġqu Ã¢n
Ġ×Ķ×¨ ×Ĳ×©
ĠM aj
P A
Ġe b
Ġà´ ļ
åĲ ī
Ġ ersch
áº¯ c
Ġs ia
ch ester
áĥĲáĥ ¢
ĠUnivers itÃ¤t
åº Ĺ
æ® µ
ĠN orm
ĠN Ã¤r
ei ro
Ġfebru ari
á»¥ c
è» ¢
Ġr im
ĠTe am
ìĤ °
ĠÐ ĸ
Ãī t
r or
à° Ń
or por
ĠFebru ar
Ġm Ã©
r ent
ç ĸ
åĳ Ĭ
ist Ã¤
J ohn
ĠCh icago
Ð°ÑĢ Ð¾Ð´
Ġrecord ed
Ġ×ĳ× ŀ
Ġdam it
áĥ£áĥ ļáĥĺ
Ġmag gi
t an
Ġpres idente
åį ¡
Ð°Ð½ Ðµ
Ġcom men
ë ¹Ħ
Ġ4 00
ic amente
m os
èª ¬
Ã¡ ll
Ġwork ing
ĠB ul
Ġf oc
itte e
ĠfÃ¶r st
E urop
ê ¸
ĠS av
ĠÃ Ģ
×ľ ×ª
9 2
ÐµÑģ Ñģ
k n
Ġk ilom
ĠÑĤÐµÑĢ ÑĢÐ¸ÑĤÐ¾ÑĢÐ¸
ar te
Ġro ute
×ŀ× ©
Ġseg undo
àµį .
Ø§Ø¯ Ø©
Ġthá» ©
ĠÐ¡ Ð¡Ð¡Ðł
5 4
Ġtwe e
Ġst ra
Ġqu ien
uz ione
æĴ ĥ
Ġm ul
Ġgrand es
idd le
al ien
t u
z as
à¸Ļà¸ ķ
Ġ192 1
Ø¨ Ø§ÙĦ
ĠÑĩÐ° ÑģÑĤÐ¸
ĠIn stit
Ð½Ð¾Ð¼ Ñĥ
ĠÐºÐ¾Ð½ ÑĤ
Ġcor r
ens a
ĠA st
ĠComm un
F or
y ear
Ġdeter min
ë¯ ¼
ich er
v est
S c
Ġinter pret
Ġe ast
Ġexamp le
ÛĮ Ùĩ
Ġex tens
C l
ĠD urch
æ´» åĭķ
ab en
ÅĤ Äħ
Ġcons ist
ĠÑĪ ÐºÐ¾Ð»
Î´ Î¿
b ew
Ġab sol
at ten
Ġg ed
à¸Ń à¸Ļ
Ġj oka
Ġd ot
ĠÑı Ð·Ñĭ
Ġ×ŀ× Ľ
Ġstag ione
ĠL ong
ĠÎ Ķ
Ġliv ing
em Ã¡s
Ġdescrib ed
ÑıÑĤ ÑĮ
ab eth
N a
Ġdr ug
ãĤŃ ãĥ£
8 1
ĠK al
Ġn orte
åĬ ©
Ġtip o
ah an
Ġm uss
k ing
Ġm ut
à° ¥
Ġk omp
äº ļ
te en
Ġp Ãºbl
ĠØ® ÙĪØ¯
Ġ193 1
he c
Ðµ ÑĪ
Ġk em
ien en
Ġ192 2
i ere
ent ro
Ġencuent ra
èı ¯
ĠÎµ Îº
ig te
ĠØ¯ Ø§Ø±Ø¯
ĠP ap
è Ĵ
ĠSt and
ĠAl bum
æľ º
ãģĿãģ® å¾Į
ĠH or
Ġf aire
6 7
Ġhim self
Ø´ Ø§Ø±
Ġn acional
Ð¼Ð¸ Ð½Ð¸
ÙĨ Ø¬
Ġd ate
orm ente
åĬ ĩ
í ı
áĥĿáĥ ķ
Ð½ Ð°ÑĤÐ°
ĠL ang
Ġab and
Ġare as
5 3
B o
Ġse i
Ñı Ñħ
ĠMad rid
ĠØ§ Ø±
ĠK le
ie u
ÐµÑĢ ÑĤ
èĪ ¹
èĬ ±
Ġ192 5
Ġ à¥
Ġà® Ĵ
Ġdes s
æ ½
n em
ĠÅ ļ
z ten
Ġh Ã¶
ĠR am
ĠM ilit
ors z
Ð» ÐµÐ¼
os z
ĠH Ã¶
ri ka
ÑĢ Ð¾Ð¹
ĠO pen
Ġ×© ×Ķ
ĠÑĤ ÐµÑħ
ĠZ u
Ġd ai
h n
5 2
ĠÐ¸ ÑģÐº
å¤ ±
×ł ×¡
Ġmak ing
Ġà¦ Ń
çļĦ ãģ«
cept ion
æĦ Ľ
ĠC as
Ġar te
Ð¼ ÐµÑĤ
ĠS ub
5 9
Î± Î»
åĲ «
ĠØ¯ ÛĮ
åį Ķ
ÙĪ Ø§Ø±
ãģķ ãģĽ
ÑģÑĤ Ð¸ÑĤ
Ð´ Ñĥ
ĠB ank
Ġ19 10
Ã¤h lt
ort s
Ġguer re
rit t
Ġg ebru
ĠÐ²Ñĭ ÑģÑĤÑĥÐ¿
Ġ×ĳ×© ×ł×ª
Ġata u
ÐµÑĢ ÑĪ
Ġsig lo
ãģĤ ãĤĬ
oc c
ĠÑĦ Ð¸Ð»ÑĮ
ĠÑĢÐ°Ð¹ Ð¾Ð½
as Ä±
Ġ3 3
ìĦ ¸
è¿ °
ãģ«ãģ¤ ãģĦãģ¦
6 3
ĠL ig
ĠÎ Ŀ
I C
ĠÎ´ Î¹Î±
ĠØ§ÙĦØ° ÙĬ
ug u
ĠÐ¼ ÐµÐ´
Ġh it
ĠØ§ÙĦÙħ ÙĨ
Ġh anno
sk og
ĠÐ¾ ÐºÑĤ
Ġte xt
Ġl ung
ĠH y
ĠÐ°Ð² Ð³Ñĥ
Ġem b
Ġd Ã¤r
ind o
ch ten
ro ug
5 1
ãģĻãĤĭ ãģĵãģ¨
ĠSch we
åŃĺ åľ¨
ak si
Ġdev ient
ĠJahrhund ert
ĠPol it
Ġet c
6 9
Ġz ona
å¯ Ĩ
Ġ×Ķ×ŀ× ©
Ġnec ess
Ġ192 6
ÑĢÐµ Ð¹
Ġh un
Ø± Ø¶
Ð² Ð¾ÑĢ
ÅŁt Ä±r
Ġav ail
ĠÚ© Ø§Ø±
Ġp ag
à¹Ģà¸ Ĥ
Ġm ic
ĠÙħ ÙĪ
ben falls
ĠB urg
Ð¾ÑĤ Ð¾Ð²
ĠÐº Ð»ÑĥÐ±
ãĤģ ãģŁ
á» ı
ond o
à° ³
éĸĭ å§ĭ
Ġb lan
ac z
T ra
ol es
èģ ·
av en
Ð¾Ð» Ð°
ĠMus ik
ĠÙĨ Ø§Ùħ
Ġenc ore
Ñĩ Ð¸Ð½
Ġ192 7
Ã´ le
ĠÑĥ Ñģ
Ã¢ u
Ġent stand
å± ħ
ol u
ÙĪØ± Ø¯
Ġà´ ĩ
5 8
ew e
Ġsci ent
Ġg uit
ber n
Ġper ten
Ã¨ ce
ç· ı
Ġj el
å¤ļ ãģı
Ġp ou
Ġb ild
Ġvis it
ĠÐ³Ð¾ÑĢÐ¾Ð´ Ð°
Ġf ly
Ġcon te
à±Ģ .
Ġ19 12
g g
Ġz unÃ¤chst
×Ļ×ł ×Ķ
æº Ĳ
Ġbro ad
è³ ª
è¼ ī
6 1
ãĤ· ãĥ¥
roug hout
Ġf ot
ĠÎ¼ ÎŃ
ĠG od
å¯ º
Ġext ra
ÃŃ f
ĠAcadem y
I nd
ĠAustr alian
Ġm ac
ĠV ert
Ġequip o
ien ia
éĥ¨ åĪĨ
Ġsecond o
Ã¼r ger
eon ato
l ang
åħ «
ĠB us
B r
Ġdes ar
ĠsÃ¶ der
d zy
ĠS ong
won ers
Ġpl at
ĠU K
ĠP ers
ĠÎ± Î½
çĿ £
Ġë¶ Ģ
Ġnatur al
P S
ĠÐ²Ð¾Ð¹ Ð½Ñĭ
Ġmar ket
Ð°ÑĤÑĮ ÑģÑı
Ã¡ ra
Ġt Ã¶
ĠÃīt ats
ĠN atur
ĠÎµ Î½
Ġo st
ãģ¨ ãģ¯
Ġder en
Ġ×Ĳ ×¨
ĠFran cia
ìĨ Į
ç´ ł
Ġr Ã³w
ÑģÐº Ð¾
M a
ub a
å® ®
Ġk r
åł´ åĲĪ
ĠE sc
×ľ ×Ļ×Ŀ
ret to
å® ¤
ĠL uc
×ķ ×Ļ
Ġad v
ell schaft
Ġ×ľ ×¤
á» £
Ġà§ §à§
çį ²
ĠÐ¼ Ð¾Ð³
Ġ Å¼
ĠÙĩØ° Ùĩ
Ġf ire
ĠdÃ©b ut
en er
Ġal though
Ġ Ã¤n
ac o
Ġihr en
i Ã£o
Ġdel lo
ĠÐ· Ð°ÑĤ
ë¯ ¸
Ġdisp ut
ĠFo otball
ĠÐĿ Ð¸Ðº
rie ben
Ġf ast
Ġlie u
ĠReg ion
Ġsuccess ful
Ġer reich
éĿ Ĵ
ĠF er
×ķ×ª ×ķ
Ġs n
Ġse hr
Ġorgan is
Î´ Î±
Ø¯ ÙĬ
ter ior
Ġl ok
x e
ÑĤ ÐµÑĢ
la cht
Ġsign ed
éķ ĩ
A T
ĠN amen
åį ļ
ĠIndones ia
Ġmom ento
Ġbef indet
v as
ĠÃ© r
on k
ĠÑģÐ» ÑĥÐ¶
Ġ×ŀ× §
ĠLe e
ëł Ī
ob ierno
ond a
Ġtit re
Ġa le
re y
å¥ ½
æ± Ĥ
è¡Į ãĤıãĤĮ
[ [
Ġact ual
ĠÐ¿ ÐµÑĢÐ¸
ient ras
ativ es
äº Ī
h ard
Ġp Ã©
Ġne ver
Ġesp aÃ±
ÅŁt ir
ĠÑĩ Ð»ÐµÐ½
ĠL an
Ġ×Ļ ×ĵ×Ļ
ĠÐ¾ Ð½Ð°
201 8
act ion
å¹´ ä»£
c ion
v iew
Î¹ ÏĤ
or ies
ãģĪ ãĤĭ
íķĺ ìĹ¬
êµ °
×Ļ× ĳ×
Ġa pro
ĠnÃºmer o
ĠÐ¾Ð± Ñī
Ø¹ Øª
Ùĥ Ø©
S aint
Ġ192 3
Ġo thers
ĠD ay
Ġehem al
Ġf ail
å¢ ĥ
Ð» ÐµÑĤ
ĠÑĢÐ°Ð¹ Ð¾Ð½Ð°
ĠÐ´ Ð²Ð°
íĥ Ģ
ĠSt ock
it os
Ġ×ľ×Ĳ ×Ĺ×¨
çģ «
éģ¸ æīĭ
ãĤ¹ ãĥĨ
ĠS ir
Ġseg uito
Ġfilm s
ĠÐ°ÑĢ Ð¼Ð¸
ĠS ohn
ĠL iga
an ne
à¸Ī à¸²à¸ģ
ĠH ier
en i
ĠÐ¿Ð¾Ñģ Ð»ÐµÐ´
Ġinst it
Ġh Ã¡
ĠO m
ì§ Ħ
Ġappoint ed
Ġprof ession
ÙĨ ÛĮ
ĠC ourt
Ġnh Ãł
k al
Ġre form
ag gio
Ġ à¸Ħ
ans a
Ġke ine
Ġp adre
S u
Ġz ug
ĠK a
æİ ¨
hol m
Ġrele ase
Ġáĥ ĳ
istr z
ĠØ¯ ÙĪØ±
à§ĩ à¥¤
à¸¶ à¹Ī
5 7
å ©
æ¡ Ī
å· ²
Ø· ÙĦ
ia ÅĤ
ge h
il ia
Ġm undo
ĠÂ» .
ed ed
Ð´ ÐµÐ½
ĠK unst
Ġar beit
Ġdo es
Ġn ac
ugh ter
ÎµÏĦ Î±Î¹
ĠÙĪ Ùħ
Ġph ot
iv el
az a
äºº ãģ®
Ġstr ong
ol s
ÑĨÐ¸ Ð¹
ãģ«ãģª ãģ£ãģŁ
ĠÛ±Û ¹Û
b on
Ġà¤ĩ à¤¸
Ġl ow
z z
ÐµÐ» Ð¸Ðº
Ġmond iale
z ig
Ġp om
Ġocc as
æĦ Ł
Ã¤ ude
ÑĢÐ¸ Ð¹
Ð½Ð¸ ÑĤÐµ
Ø Ľ
Ġav eva
ĠÎ Ļ
Ġcomp lex
áĥĶáĥ ķ
ĠGeb iet
ĠM i
çĹ ħ
ĠÐ¸Ð¼ Ð¿
iÄĻ dzy
ĠÐ² Ð¿
at te
ĠT ri
Ġcaus a
ĠÐ· Ð´
ĠÐºÐ°ÑĤ Ð¾
Ġmod o
ĠP as
Ġprovin cia
h u
Ġc ross
Ġgl ob
Ġ×Ķ× Ķ×
Ġw yd
ĠJ ug
G C
min ister
åį ĥ
Ġposs ible
ìĹ Ń
ÅĤo Å¼
Ã¼n st
ãģĹãģĭ ãģĹ
y cl
ĠN az
vo ir
im b
Ġgew ann
ÙĪ Úº
åĸ ¶
Ġtiem po
yl v
×ķ×ł ×Ļ×Ŀ
Ġprot est
ÑģÑĤÐ² Ð¾Ð¼
ĠÑįÑĤ Ð¾Ð³Ð¾
à¸ Ł
ÑĢÐ° Ð»ÑĮ
áĥĺ áĥĲ
ĠE ins
ĠÑĤ ÑĢÐ¸
Ġnouve au
×ķ× ļ
ĠE nd
er ts
Ġweit ere
ĠÐ²Ð¾ ÐµÐ½
Ġt ec
Ġver t
ien n
ĠÐ¿Ð¾Ð» Ð¸ÑĤ
ver no
C o
Ġp em
ks on
200 3
ÅĦ st
ĠÐº Ð¼
à¸¹ à¹ī
Ġn Ã³
ĠÑı Ð½
Ġembar go
Ġdire c
è± ¡
ìĹ Ī
åħ¬ éĩĮ
w ell
it ud
Ġnord vÃ¤st
Ġk uper
z ial
ĠÐ´ ÐµÑĤ
ĠPerson en
ãĥķ ãĥ©
Ã¤s ident
åĬ Ł
ĠB uch
Ġw z
æĿ ¾
áĢ» áĢ¬áĢ¸
sk ap
Ð»ÑĮ Ð±
c ito
Ġw ife
à¹Ĥà¸Ķ à¸¢
Ġy ap
kre is
9 7
Ġa j
æĺŃ åĴĮ
ĠdÃ© f
Ð½Ð¸ Ð¹
ĠÐ¢ Ð°Ðº
uer to
Ì Ģ
Ġp le
Ġto us
ĠWil helm
ĠÐº Ð¾
ä¼ Ŀ
Ġoff ice
ĠB ahn
Ġkuper ad
ĠP od
ĠEr n
Ġb ody
ĠU l
Ã³ t
ë³ ´
ij a
Ġcontra ct
Ġà®ĩ à®°
un es
åī ĩ
ĠCol umb
ĠV illa
ĠØ° ÙĦÙĥ
ĠRe al
Ð» ÑģÑı
ĠÄĳá»Ļ ng
Ġf lo
ÙĤ Øª
ĠdÃ© partement
ĠB ru
Ð° ÐµÑĤ
Ġy h
ĠB ob
Ġer ano
ãĥ ¦
Îµ Î»
ĠT al
ĠAnton io
isp iel
re en
ĠW ien
ou vern
g un
Ã¶l j
ĠGr ande
Ġind ustr
ĠR ome
Ġp endant
ãĥ¼ãĥ Ĺ
Ġin woners
i endo
Ġz am
Ġ +
200 2
ĠÐ´Ðµ ÐºÐ°
Ġperform ance
ĠF ahr
Ġob ra
Ġc ou
Ġob jet
sk y
à¸ģ à¸¥
Ġl áº¡i
Ġpre par
æ´ ĭ
Ġgeme ente
åĪ ĩ
ĠÙĨ Ø¸
D A
ĠØ§ÙĨ Øª
æľĪ ãģ«
Ġom givningarna
ìĺ ¤
C ol
Ġteam s
ed ia
Ġ×ĳ× Ĺ
ĠG a
Ġc Å©ng
Ã¢ m
Ġen contr
oh ner
Ġtel ah
Ġà´ Ĩ
ãĤ¿ ãĤ¤
ĠS Ã£o
ĠB os
ãĥ¼ ãĥ³
ĠÐ´ Ð¾Ðº
Ġb le
Ġ×ķ ×ľ
ĠHe in
c ing
ãĤ· ãĥ£
ang a
ÐºÐ¾Ð² Ð¾Ð´
ç© į
st an
ann el
Ġm ell
Ġreport ed
Ġw sp
Ġn ap
us et
Ġcol or
Ġla un
Ġt ÃŃt
ÑĢÐ° Ðº
Ġps ych
se ud
ĠÑģ Ð±Ð¾ÑĢ
Ġeduc ation
ĠÑģ ÐµÐ²ÐµÑĢ
ĠvÃ¤ xer
ÐµÑĢÐµ Ð·
Ġplay ing
ect ions
ĠÎ¿ ÏĢÎ¿
ãģ« ãģĤãĤĭ
Ġstand ard
ĠB ad
ĠØ¹Ø¯ Ø¯
äº Ľ
Ã¤ ÃŁ
Ġac ross
al u
Ġel ected
Ð¾ÑĤ Ð°
×ķ×ľ ×Ŀ
ug g
I N
ak ing
Ġg ez
Ġn ationale
Ġat Ã©
Ġtra ck
ra gen
Ġv ec
ç» ı
ĠÐ¸ Ð³ÑĢÐ°
æ ĩ
v ez
ĠAl t
Ð¼ Ð¾Ð¶
ĠJ es
ĠJ u
×© ×Ķ
ĠØ§ÙĦ ÙĦ
Ġm ix
ĠV o
ĠBel g
ÙĬ Ø²
ĠÑĢÐ°Ð· Ð²
ĠÐ· ÐµÐ¼
ĠP ra
ard a
ĠWest ern
Ð»Ð¸ Ð·
ĠJ ack
ĠÑģÑĤ Ð°ÑĢ
Ġon ce
ĠT amb
Ġb lack
ĠÙĥØ§ÙĨ Øª
ĠXI X
ÑĮ Ðµ
Ġsho uld
à´ ¹
Ġthá» Ŀi
ÑģÑĤ Ð¾Ñı
×ķ× £
áĥ£áĥ ļ
on ta
ie me
Ġm orte
aut res
ĠMa x
æĢ Ŀ
à¸ķ à¸£
Ġì ¡°
ĠP enn
×Ļ×¨ ×Ķ
Ġd ich
ĠÐ· Ð½Ð°Ñĩ
ies a
Ã¡ st
et an
ut ter
ĠÐŀ Ð´
Ġqu atre
Ġy ou
áĢ Ĩ
Ġs wo
Ð± Ð¾Ð»
Ġmer c
land e
Ø· Ø©
Ġí ĥ
ann a
u ed
ĠÎ® ÏĦÎ±Î½
Ġinst all
Ġcos tr
ĠA rab
Ġfor me
ĠÑģ ÐµÐ·
ic ana
Ġgro w
×ŀ× Ł
áĢ± áĢ¸
è¡ Ĺ
áº£ o
ĠT emp
ĠJ e
Ðµ Ñī
Ġn Æ°á»Ľc
Ġr und
Ġavail able
è½ ¦
è¡ Ľ
as z
ort un
ann te
Ġh ely
ste ad
ĠØ§ Ùħ
ĠÎ ¹
at ors
¢ ħ
æ¨ ¡
ĠU p
Ġdis e
ĠÐ° Ð´
Ġla v
ãģ§ãģį ãĤĭ
áĥĺáĥ ª
o ire
ãĥª ãĤ¹
teri ormente
Ñı Ð¼Ð¸
9 4
×¨ ×Ĺ
ĠÑĥÑĩÐ° ÑģÑĤÐ¸
ob ile
è¿ Ľ
ecut ive
Ġfor ce
ue b
Ã¥ l
Ġsamh Ã¤lle
å¿ µ
us c
Ð¨ ÐĲ
Ð·Ñĭ Ð²Ð°
Ġab ril
Ġv l
Æ°á»£ ng
Ġáĥ ľ
Ġb ras
ab il
ĠGre at
áĢŃáĢ¯ áĢ·
Ġr an
ĠÎ¿ Î¹
ĠCar los
ÐµÐ½ ÑĤÐ°
ãģĤ ãģ£ãģŁ
ĠF ar
ĠÑĥÐ½Ð¸ Ð²ÐµÑĢÑģÐ¸ÑĤ
ĠÐ¶ Ð¸Ð²
é ĵ
è¿ ĩ
ê³ µ
f ass
Ġconc ern
ĠS im
9 3
Ð°Ð½Ð¸ ÐµÐ¼
Ġp ay
Ãº c
Ġqu art
Ġh ow
ĠÐ¾ Ð½Ð¸
ÙĤ Ø±
à¸§ à¸²à¸¡
p unkt
×ķ×¨ ×Ķ
à§ ĥ
ç ĥ
Ġà¦ ĩ
Ġse us
at Ã³
Ïĥ ÏĦÎ·
Ġreg ional
Ġc idade
ĠH u
Ġel imin
w i
Ð½Ð¸ ÑĤ
ç ĩ
Ġt egen
he ad
o on
Ġ ia
Ġda ar
Ġlangu age
ĠDan iel
Ø¯ ÙĬØ¯
Ġfin an
Ġ×ĳ× Ľ
Ġdis pos
Î ¤
Ú Ī
ÙĬ Ø§Øª
au te
ministr ation
ÃŃ v
ÐµÑĤ Ðµ
Ġprov ince
Ġm ission
ol Ã³g
ĠÑģ ÐµÐ½ÑĤ
×Ļ×§ ×Ķ
Ġm og
Ïģ Ïİ
Ġh ol
Ġin n
Ð½Ð¸ ÐºÐ¸
ĠN ot
æĢ »
ace ae
×ł ×ĺ
ĠreprÃ©s ent
E C
áĥĵ áĥĲ
Ġso it
E d
f all
ĠØ´ Ø±
Ġfur ono
ìĿ Į
Ġen f
Ġ3 4
el ing
Ð» Ð¾Ð¶
ç¾ ħ
Ġste ht
Ø³Ø¨ Ø©
ĠìĦ ł
Ð¾Ð¶ Ðµ
it an
ĠBro wn
un tain
ÙĨ Ø§Ùħ
D en
æ¨ Ļ
ÑĢÐµÐ´ ÐµÐ»
ĠlÃł m
ãĥķ ãĤ©
ag u
åİ ¿
iáº¿ t
ber e
Ú¯ ÛĮ
Ġcour t
Ġon de
Ġb all
ĠW ars
Ã¡ lt
ÐµÐ½ ÐµÑĢÐ°
j ects
ĠS eit
sch ule
ĠB ild
ĠÐ¸ÑģÐ¿Ð¾Ð»ÑĮ Ð·Ð¾Ð²
Ø¨ Ø©
Ġmult ip
Ġro l
á»± c
ĠnÃ¤ ra
Ġr ank
ĠM Ã©
ies e
Ġf le
Ø¨ Ø§Ø±
Ġí Į
Ġ×ĳ ×Ļ×Ł
ĠNÃ¤r maste
ĠÑĢÐ°ÑģÐ¿ Ð¾Ð»Ð¾Ð¶
g ens
çĭ ¬
ig es
ĠB on
ãģ ¶
end et
Ġs la
Ġtak en
Ø§ÙĬ Ø§Øª
åħ¬ åı¸
Ġ19 13
×¨×Ĳ ×ľ
ur an
ig li
Î¯ Î¿Ïħ
ãĥģ ãĥ£
ĠFir st
ep t
ant ed
Ø ¡
×Ĳ ×¨
áº¡ t
ĠØª Ø§
Ġsur v
ĠGerman y
Ġfollow ed
ĠÐ¾Ð´ Ð¸Ð½
ÑĥÑĢ Ñĭ
iz ation
en ie
Ð°Ð» Ð¸Ð·
ĠÎ± Î½Î±
ant on
Ġlim it
D es
Ġpriv ate
Ġk omm
Ġpolit ique
Ð¸Ð» Ð°ÑģÑĮ
Ġk re
Ã¤ ss
tem bre
ãģªãģ© ãģ®
Ġincl u
ti que
Ġl ub
Ã¤ ck
å¿ ħ
Ð± Ð¸
it to
ĠÐ± ÑĥÐ´
Ġm ust
å¹³ æĸ¹
Ġacc ess
ĠÐ² ÑĬ
Ġì Ļ
ìľ¼ ë©°
ur us
ann ya
Ġpol ice
Î Ł
Ã¡n ak
ĠÐ¶ Ð¸Ð·
ÑĢ Ð¾ÑģÑĤ
áĢ ĳ
ĠSt ar
iz a
Ġme j
A R
um ento
i ans
áº¡ o
Ġl ight
ĠØ§ÛĮØ± Ø§ÙĨ
Ġg egrÃ¼nd
ĠA uch
×Ĺ ×ĵ
Ġche f
ĠØŃ ÙĬØ«
Ġ ÛĮØ§
Ġg les
ĠÐ´ ÐµÐ¹ÑģÑĤÐ²
ĠÐ¿Ð¾ Ñĩ
ĠMex ico
Ġmot or
ta ins
Ġf az
Ġf ree
form ula
Ġpe u
ĠÐĲ Ð»ÐµÐºÑģÐ°Ð½Ð´
ĠÑĢÑĥ Ñģ
Ġro dz
Ð°Ð» Ð¾ÑģÑĮ
zen ie
ĠØ¯ ÙĪ
åī µ
ç¨ ±
áĥĶáĥĳ áĥĲ
Ġ×Ľ ×Ļ
ĠÐĵ ÐµÑĢ
Ġarch itect
Ġg min
çī ĩ
Ãª tre
å¤ ®
sp iel
b ed
×Ļ× Ķ×
ĠCh ile
ĠÐ¾Ðº Ð¾Ð»Ð¾
ãģĳ ãģ¦
Ġf all
Ġh all
Ġm Ã©t
ul la
Ġcamp aign
Ġsitu Ã©e
om ot
ĠÐ¿ Ð¾ÑĢ
ĠÑį ÑĤÐ¸
èŃ ¦
ia go
sch n
åĥ ı
w iÄĻ
áĥļ áĥĺáĥ¡
Ã¡s a
ens ive
Ġnah m
enn en
Ġtrab aj
ŀ× ©
ĠÐ¿ ÐµÑĢ
çİ °
Ġnh áº¥t
ud er
z at
c Ã©
enn es
Ġt in
d zie
áĥĿáĥ ł
201 9
Ġst an
ol t
Ġc av
ä½ İ
m at
az u
un an
Ġinv est
Ġd re
ÑĪ ÐµÐ¹
Ãł o
Ġmar s
Ġh in
áĥĺáĥ Ļ
Ġapp lic
Ġh ade
ĠÙĩØ° Ø§
çķ °
Ð½ ÑĥÑĤ
in ation
Ġesc rit
Ã© se
Ġsec olo
Ġáĥ ¤
ĠR u
Ġb ajo
Ġp ian
al de
Ġg as
çĶ µ
Ġdeutsch en
ÑģÑĤ ÑĢÐµ
ãĥ¼ ãģ®
ĠÐ½Ð° ÑħÐ¾Ð´
Ġg anska
ed es
Ġand erem
æķ ´
ĸ áĥĶ
im al
Ġe benfalls
Ġì ¹
ĠÐ°ÑĢ Ñħ
l at
ĠfÃ¼n f
Ã©r t
ãĥĨ ãĥ¬
Ġgles befolkat
ch od
ĠF uÃŁ
Ġver m
Ġh iá»ĩn
ĠÐ¿ÑĢÐ¾ ÑĦ
ĠÐ¤ ÑĢÐ°Ð½
ĠB at
Î± ÏģÎ±
Ð¾Ð½ Ð¾Ð²
ar Ä±
Ġb zw
ĠØ¬ ÙĨ
ĠÑĩÐ° ÑģÑĤÑĮ
Ġd w
ĠB arb
Ġëª ¨
k es
ĠìĹ °
Ġmonth s
Ġh ard
Ñĥ ÑĩÐ°
Ġters ebut
ĠÐ¡ Ð¨ÐĲ
li ament
uit en
ĠMar c
ĠfranÃ§ais e
×ķ×ł ×ķ×ª
e e
é¦Ļ æ¸¯
ĠÐ² Ð·
ĠÙĪ ÙĬ
h ire
ond en
Ġcon cl
Ġmol to
Ð¾ ÐµÐ²
Ġn at
Ġmom ent
Ġret ro
Ùħ Ùĩ
Ġpro jet
Ġ( ),
te au
ä¸ ļ
Ġ4 4
Ġil s
ĠP os
ain es
Ġdiv is
Ġg ave
ì ¶
Ġb lo
Ġman if
Ġel ev
Ġsam t
Ġë¯ ¸
ÙĪ Ùĩ
Ðµ Ð±
P ol
et r
æ´ ²
×ŀ× ¦
vel opp
P o
Ġsp ielte
áĢ® áĢ¸
ne a
f ois
Ġch ap
é© ¬
×ĳ ×Ļ
ach e
æİ Ī
Ġëı Ļ
Ġf arm
ĠMon te
ãģķãĤĮ ãģ¦
Ġ19 15
A ss
Ġmo ins
i ros
ign ed
æĥ ³
Ġa way
ĠOr ts
ic us
ĠH amb
ara f
æķ Ĺ
è¶ ħ
Ã© ge
Ġag re
ĠÐ¾Ðº Ð¾Ð½Ñĩ
ÑģÑĤÐ²ÐµÐ½ Ð½Ð¾Ð¹
à¸²à¸ Ħ
Ñĭ Ñģ
Ġprincip ale
à¸¹ à¹Ī
å¾ ©
Ġl it
èµ °
u est
ĠÐ²Ñĭ Ð¿Ñĥ
) :
pro du
ĠF rom
ÎŃ Ïģ
Ġl Ã©g
å® ³
ian ce
Ø´ ÙĪØ¯
Ġsu c
éĥ İ
ĠÑĩ Ðµ
Ã¤nd er
ig ur
Ġperio do
ĠÐ¿Ð°ÑĢ ÑĤÐ¸
ĠÑĥ Ð¿
ĠØ³ Ø¨
m ir
ad d
Ð°Ð½Ð¸ Ð¹
ĠH aw
ĠáĢ Ļ
ism us
ul os
Ð°ÑĢ ÑĤ
Ġmunicip io
Ġ×¤ ×¨
Un is
ãĥ¼ãĥ ŀ
Ð¾Ð¼ Ñĥ
al and
av y
Ġth Ã©
Ġo tt
Ġp oco
ĠB ig
æĶ¿ æ²»
ro v
ap s
ĠëĤ ĺ
à¦° à¦¤
Ġtelev is
Ġd ol
Ġìĺ ģ
9 1
Ð¸ ÐºÐ¸
L as
Ġbest Ã¥r
Ġkl ub
Ġcour se
Ġattem pt
Ġk ra
Ñĭ ÑĤ
ÙĪØ± ÛĮ
ĠI ll
Ġ3 8
Ð½Ð¸ ÑĨÐ¸
ĠÏĥÏħ Î½
ĠIsra el
ĠAr ts
form ation
Ġh ot
ÛĮ Úº
ze ch
t ime
Ġperform ed
ub re
ĠArgent ina
ÙĪ Ùĥ
ĠìĿ ĺ
ig i
è© ķ
Ð´ ÐµÐ¼
Ġex tre
up a
åħ Ń
éĹ ´
å® Ī
à¸« à¸¥
iss en
åı¯ ä»¥
ĠG ren
Ġro ad
ĠJ ew
it ation
áĥĺáĥ ¢
nie Å¼
Ġlarg est
ĠU k
äº ķ
Ġà° ĩ
at ory
ĠÐ¿ÑĢÐ¸ Ñģ
th ur
ad ing
Ð¼Ð¸Ð½Ð¸ ÑģÑĤÑĢÐ°
ĠÐ¡ Ð¾Ð²
Ġnov el
ĠÃ¤ ven
í Ĥ
ra ge
Ġfran zÃ¶s
ĠÑģ Ð¼
Ñī Ñĳ
ino is
Ġd av
199 9
h ir
z ek
×ª ×ķ
ĠÐ¶ ÐµÐ»
ic les
Ð½Ð¸ ÑĩÐµ
ì ¦
ais e
æħ ĭ
f Ã©r
ĠÑĦ ÐµÐ²
Ġsec ret
ĠK en
hr en
ĠP la
ĠÐ¿ Ð»Ð¾
ĠH ong
ĠC ette
ĠFor ce
es ies
Ġb ass
k Ã¶
áº ©
rÃ¥ det
st aw
Ġp on
ĠØ§ÙĦ Ùĩ
ĠEsp aÃ±a
ĠFamil ie
p el
æĹ¥æľ¬ ãģ®
ĠÐļ Ð¾Ð½
ĠT Ã¼r
ĠN ar
ĠÃ¡ rea
ĠDepart ment
áº¥ n
èĪ ¬
d ie
ç¬¬ äºĮ
æ ĳ
Ġnord ost
Ġj og
Ġnov ember
Ġzn aj
Ġmind re
F L
Ġdesign ed
Ġotr as
us ia
×ŀ× ĵ
ab ri
ĠP ierre
ĠS yd
uy á»ĩn
Ġcentr ala
Û µ
ÐºÐ° Ñħ
à¤ «
Ġl ik
ĠÑĢÐµÐ· ÑĥÐ»ÑĮÑĤ
ĠÐ½ ÐµÐº
ĠS qu
Ġinform ation
ĠÐ¼Ð½ Ð¾Ð³
end s
Ġv Ã¡l
Ġmot her
Ġres ident
è¯ ¥
Ġqu esta
ĠUnivers idad
em an
ë Ħ
o ver
ÑĢÑĥ Ð¶
ĠiÃ§ in
ĠR Ã¼ck
in st
Ġn omm
Ġdi f
Äĥ n
ê° Ħ
Ġof icial
Ġth roughout
ç Ĵ
iel le
ĠL im
lig t
ÙĪ ÙĬØ©
Ġs ede
Ġw il
ä¿ Ĥ
Ã± os
ans k
Ġsug gest
à°¾ à°Ĥ
ä»¥ ä¸ĭ
åĲĮ å¹´
Ïĩ Îµ
Ð´ ÐµÑĢÐ¶
ac y
á» ³
ìĹĲ ëĬĶ
Øª Ø§Ø¨
ĠÐ° Ð¿ÑĢÐµ
Ġsemp re
Å« h
er on
Ġt ag
ĠN eg
ĠÑģÐ¾ÑģÑĤÐ°Ð² Ðµ
äºº æ°ĳ
I D
Ġcom une
ĠÐ² Ð»Ð°
ant as
oc zÄħ
Ġpre ced
Ġcon ten
ug by
ç ĳ
Ġrapp ort
Ġrev iew
ķ Į
æ¶ Ī
Ġc ul
Ġremain ed
Ġe mer
ĠÐ³Ð¾Ð´Ð° Ñħ
199 8
ĠM ens
Øµ Ø¨
Ø¬ Ø±
ãĤ¯ ãĥ©
ç Į
Ġ×ľ ×Ķ
ĠAlex ander
A C
la ced
ìŀ ¬
åį ³
Ãº ng
Ġë° ľ
Ġhist oria
Ġhist Ã³r
ĠT itel
ĠM u
Ġ×Ķ× ĳ×
ig ten
ÅĦ ski
à¹Ģà¸ ŀ
ëį °
Ġpod er
ĠWelt krie
ìĭ Ŀ
uk a
æĻĤ éĸĵ
b Ã³l
ĠÎ Ĺ
isch es
isto ire
ì ¡
an j
Ġl lev
Ġden omin
ÑĢÐ¸ Ñı
ĠV I
Ġp ont
ĠD al
nah me
æº ĸ
æķ ¸
ĠAn n
à¸ŀ à¸£à¸°
ach sen
irc raft
iz er
ate urs
èī ¯
ĠÐ¿ÑĢÐ¾Ð¸Ð· Ð²Ð¾Ð´
Ø³ Ø©
Ġden en
ä¼ļ ç¤¾
Ġfran c
å² ¡
Ġev ents
áĥĶáĥļ áĥĺ
Ð¼ ÐµÐ½ÑĤ
Ġb ill
Ġm ens
Ġ×Ĳ ×ķ
ond ere
æķ ħ
ĠSer ie
Ġch ange
la b
Ġt ussen
Ġtra ining
f el
ĠCol omb
Ġáĥ ¥
ä¸Ń å¤®
Ð¸Ñģ Ñģ
Ã¡ ros
Ġ uz
Ġho a
æĿ İ
Ġdon c
al ter
Î¼ Î²
Ġk ing
Ð´ Ñĭ
áº¡ n
Ġqu ant
Ġok tober
ĠR ay
entr um
ok u
ĠÙĨ Ùħ
Ġmet al
çĽ £
¯ à§
Ġab le
ĠK ab
Ġ19 11
ar si
ĠÙĪ ÙĨ
ĠE ste
ĠÙĤ Ø¨ÙĦ
ç¢ º
Ġn im
Ġver Ã¶ffentlich
Ġpr ison
Ã¤ g
ĠmÃºs ica
ÑĤ Ð¾Ð±Ñĭ
Ð°Ð» Ð°ÑģÑĮ
ĠGuer ra
Ġex pos
ĠØ§ Ø¨
ç§ į
ĠI ran
se e
ä¹ Ŀ
Ġcrit ic
ĠVol ks
×ķ×ł ×Ļ
d ukt
Ã©rie ur
ster reich
Ð½Ð¾ÑģÑĤÑĮ Ñİ
me ister
Ġm Ã¡r
re as
ĠC es
Ġ19 16
ĠLi ber
æ© ĭ
Ġcel ui
Ġgrup po
Ð± ÑĢÐµ
Ø¨ÙĦ Øº
y es
ĠÐ¾ÑĤÐº ÑĢÑĭ
Ġcomplet ed
em at
ĠA wards
ÙĪÙĦ Ø©
he in
å¿ ľ
Ġ #
Ä± ÅŁtÄ±r
Ġ×ŀ× ĵ
æĺł çĶ»
×Ļ×¨ ×ķ×ª
Ġl ett
Ð» Ñĥ
ÙĬ Ø´
æľ į
tal et
st o
Ġle ague
×ĳ ×Ļ×Ŀ
ç¾ ¤
Ġant i
ĠS un
×ľ ×ķ
Ã¡ j
ĠØª Ø´
Ġder ni
ĠÛ² Û°
ĠÐĺ Ð½
ft ware
ĠPortug al
in et
est en
áĥĶáĥ Ŀ
ĠÑģ Ð¸
ilit ies
ÃŃ lia
Ġbe zeichnet
åħ ©
m ont
á»ĥ n
Ġr ich
Ġ×ŀ× ł
Ġb em
Ú© ÙĨ
U S
Ġd il
ĠG ol
r ÄĻ
áĥĺáĥ Ŀ
ĠEd ward
Ġs ection
Ġv Ã©g
ĠH el
Ġ×ĳ× ĵ
d orf
ok rat
Ġ3 7
s m
çģ £
æĸĩ åĮĸ
te i
ĠØ§ÙĦ ÙĬ
èŃ ·
Ġtar de
Al s
ĠØ§ÙĦØ º
Ð¸Ð» Ð¾
ÑĢÐµÐ¼ ÐµÐ½
ì² ´
Ġc áº£
ÑĢÐ¸ Ð¸
Ġr ang
199 0
Ġin aug
S an
ĠÃ©p oca
Ġr Ã¥
ĠMin ist
ê ·¸
ì¹ ´
ĠìĨ Į
Ġ 000
ĠC am
Ġk amp
æĪ ĺ
Ġse en
an cia
Ġw erk
ä¸» è¦ģ
ĠÐ¿ÑĢÐ¸ Ð·
Ġà¦ ¥
Ġcurr ent
íķľ ëĭ¤
Ïĥ Î±
ĠØª ÙĪ
ient os
os se
ere k
Ġub ic
å¾Į ãģ«
å® £
ati que
æĭ ħ
z es
à¸²à¸ ª
Ġt im
onn en
Ġperson as
ost on
ik si
Ġw er
ĠÐŁ Ð¾ÑģÐ»Ðµ
ĠC u
Î¹ÎºÎ® ÏĤ
ĠTop pen
ĠÃ© lect
ur b
ĠSch ul
Ã¶ stra
Ã¢ t
Ġp unt
W h
iá»ĩ c
Ġbe w
ĠR og
Ġcon vert
our g
á»© ng
Ġpr Ã©c
ĠF el
Û ²
à¸« à¸Ļ
ĠU nder
an ter
Ġca use
Ġx u
Ġes e
ĠÐ· Ð°Ð½Ð¸
è¶ Ĭ
ĠÐ¼ Ð¾Ð»
æĹ ©
Ã³ j
ĠØ§ÙĦ ÙĪÙĦ
um en
us ch
Ġcir ca
erd ings
Î· ÏĤ
Ġd abei
à®± à®¤
me e
Ġest aba
Ġà¦¸ à¦®
Ø£ ÙĨ
Ġa qu
Ð¿ Ð°
×ĳ× Ķ
um i
Th is
Ġte chni
Ġáĥł áĥĿáĥĽ
Ġcer ca
ØŃ Ø±
b ack
ĠÐº Ð½Ð¸
ÙĪ Ø§Øª
Ġloc aliz
Ġo lan
Ġel sÅĳ
Ġsignific ant
Ġlead ing
Ġsi endo
Ġen er
ĠÑģÐµ Ð±
éŁ ¿
Ġorigin ally
ĠP ost
ãĤ¸ ãĥ§
ÏĦ ÎŃ
Ġg ouvern
Ġhouse hold
à®ķ à®ª
em s
Ġne uen
Ġáĥ £áĥ
åľ° åĮº
Ġfeatur es
ĠS ul
ĠØ³ ÛĮ
R eg
Ġg ain
Ġsep tember
ĠT ag
Ġevent ually
Ġt ant
ob b
Ġ1 20
Ġc ard
Ġhon or
ĠB ell
n ika
åĳ ³
ho z
ãģĳ ãģŁ
Ġsong s
n ico
or ang
ãĥ ĺ
Ġg ek
Ġcon tempor
ob il
Ġon d
lÃ¤ nd
Ġ6 4
haus en
Ñĥ ÑģÑĤ
Ð´ Ð¾Ð²
Ġsp Ã©
Ġ190 8
is ce
Ġst op
Ġcult ure
ëĭ ¨
Ġo vat
ĠÑĥ Ð±
Ġfin ished
Ġappro xim
Ġla bor
Ġgo od
áĥ ŀ
ĳ Ĳ
ĠB ir
ê ¹
ens ion
ê ´Ģ
ÑģÑĤÐ¸ ÑĩÐµ
Ġest r
Ġb ank
Ġschool s
ĠÐ¼Ñĥ Ð·Ñĭ
ãĤ¦ ãĤ§
Ġph Ã¡t
Ġs atu
Ġmet h
M an
Ġqu y
ØŃ Øª
ĠÄĳá» ĵ
ĠT ok
ĠT ar
' ,
ĠCh inese
Ġ190 5
Ġaus tr
Ġs aw
Ġcamp o
Ð²Ð¸ Ð¶
ĠD ans
ëĲĺ ìĹĪëĭ¤
í ĭ
to ur
ÏĢ Î¿Ïħ
Ð¸Ð» Ð¸ÑģÑĮ
ra it
ĠO h
Ãª t
era us
×Ļ×ľ ×Ķ
ve y
ĠÐ½ Ð¾Ñı
orsz Ã¡g
z ioni
Ġw ind
ĠL ev
Ġpun to
ĠÐº Ð¾Ð³Ð´Ð°
C D
ĠL ab
à¹Ħ à¸Ľ
Ġpro s
S te
à¸µ à¹ī
Åĳ s
Ġà¦ ²
Ġn ouvelle
Ġj Ã¡
à¸² à¸Ļà¸
ëĭ ¹
Ã® t
ĠØ£ Ùĥ
Ġc Ã©l
Ġw iel
ĠB ah
Ġnh iá»ģu
Ġd ra
b ury
ta ge
eg t
ta wa
Ġê° ľ
ac io
ĠM ain
ĠÑģÐ¿ Ðµ
ff en
et ro
Ã Ģ
W e
ĠPr im
Ġle av
M on
ĠH am
f amil
ĠÎ Ľ
Ġfeature d
z b
Ġa pr
ent ial
Ġin j
Ġam ely
Ġw yn
Î¼ Îµ
i ally
ĠL ove
Ġs ond
ĠÐŀ Ð½
ÐµÑĢ Ñħ
Ġmere ka
à®Ł à®¤
ÑĪÐµ Ð³Ð¾
Ġsta at
Ġsz Ã¡m
our d
ĠdÃ© velopp
h Ã¤ng
ven ue
f ern
Ð°Ð» Ðµ
ĠÑĤ ÑĥÑĢ
æ· ±
ĠC amb
ĠM ol
i Ã©
à´ ľ
Ġo ct
à¦ ī
Ġstud y
ĠÐ¿ ÐµÑģ
ĠLe on
Ġë§ Ī
í ģ¬
tain ment
ĠH il
ĠAfr ican
ĠC ab
or re
Ġcurr ently
b org
O p
ãĥ« ãĥĪ
ãģ«ãģª ãĤĭ
á» ħ
Ġmin or
Ġv ent
erd em
ĠëĲ ĺ
Ġzu en
Ġlan Ã§
ÙĤ Ùĩ
ive au
Ġpo ÅĤ
×§ ×ĳ
ib o
Ġa ction
æĺ¯ ä¸Ģ
å¯ Ł
on ym
Ġp aint
ĠrÃ© c
çł ´
ĠÑĥ Ð¿ÑĢÐ°Ð²
ÐºÐ¸ Ð¹
ĠN ame
Ñĭ Ð¼Ð¸
ak u
Ġb ib
Ã² n
Ùģ Ø³
ĠgehÃ¶r te
ÑģÑĤ ÑĢÑĥ
Ġë į
Ġapp el
ĠComm ission
ç ĵ
uk u
Ġgroup s
% .
ÐµÐ² Ð°
Ġà¦ Ľ
Ġseg unda
is z
lt re
Ġìĺ ¤
Ġaug usti
Ġh ai
ĠØª ÙĨ
Ġsch w
Ġz ap
x ter
en h
po que
ÑĪ Ð¸Ðµ
æ ¦
Ð¿ Ð¾Ð´
Ġal k
Ġun it
D ur
il ed
z ÄĻ
ÏĦÎ¹ ÏĤ
Ð¸ÑĤÐµÐ» ÐµÐ¹
ĠCanad ian
0 9
ĠIn de
ãĤģ ãĤĭ
ãģĬ ãĤĪ
Ġ à¸¡
Ġsp ir
un id
Ġf Ã¶lj
k eiten
en o
Ġc red
p es
Ġim per
r era
uk i
Ġfr am
Ġoh ne
ĠÙĪ ÙĦØ¯
à¸§ à¸¢
×ĵ ×Ķ
Ã© qu
Ø§Ùħ ÙĦ
ĠÐºÐ° ÑĩÐµ
áĥĺáĥ ł
m el
Ġ à¸ª
is ke
ä¹ Ĺ
Ġc elle
Ġsta ge
ess er
Ġde g
Ġstruct ure
Â ª
Ġh Ãłnh
ad el
Ð³ Ð»Ð¸
Ġì Ľ
ç¸ £
ĠS eb
áĥĲáĥ Ĺ
uy Ãªn
Ġlig ne
Ġob ten
Ġcos Ã¬
Ġ×ľ ×Ľ
ĠdÃ© p
v ens
Ġepis ode
ĠD eb
ĠD om
ze j
çķ Ļ
ĠÙĥ ÙĦ
Ġan o
ac ion
ãĥĨãĥ¬ ãĥĵ
Ġs ij
Ġre b
ow Äħ
o ÅĤ
ot ten
ett u
ĠprÃ©s ent
ĠAl bert
ĠProf essor
Ġcon j
Ġs ue
é İ
Ġed ific
Ġsh ip
O N
M ich
å¸ Ń
åł Ĥ
ĠÑģÑĤ ÑĢÐ¾
ie ux
ĠM ittel
pr ise
Ġg ep
Ø§ÙĨ Øª
Ġp Ã¤Ã¤
ĠÑĨ ÐµÑĢ
Ġse ven
Ġk lass
Ġcon se
Ġ4 8
Ġquel ques
Ġv ita
ant al
aj Äħc
ãĤĴ æĮģ
Ġdi p
Ġnue vo
Ġsub sequ
Å¼ a
Ġb á»Ļ
app en
e ch
×Ĳ ×ª
Ð½ ÐµÐ¼
ĠM ic
áº¯ t
Ã¶l ker
Ä± z
å° Ħ
Ġinvol ved
iss Ã¤
g eg
re ib
ĠC orn
lam ent
ĠO ut
l ike
Ġf ils
áĥ §
ä½ ķ
Ġinfl u
ĠL uis
Ġpub li
kt or
ĠÐ¸Ð· Ð´
Ġ×ĸ ×Ķ
Ð½Ð¸ Ñĩ
k im
iz ia
Ð¾Ð² Ð¾Ð¹
cy ch
x ico
Ġ7 5
G o
Ä±n Ä±n
J os
ar c
ĠP i
½ Ķ
Th ere
æ£ ®
uf act
Ġêµ ¬
ĠÐºÐ¾ÑĤÐ¾ÑĢ ÑĭÑħ
d r
0 5
Ġim mer
ob a
ĠÐº Ð¾ÑĤ
ĠÐŁ ÐµÑĤ
Ã¡ri os
Ġad opt
Ġshow s
åĩº èº«
èĳ ī
ĠVirgin ia
Ġne ue
èĺ Ń
è® ¾
Ġw ys
Ġspec ific
h ang
×ł ×Ļ×ª
ĠÐ´ Ð¾ÑģÑĤ
duc ation
Ã¨ te
åı Ī
en ci
ĠÐ¿Ð¾Ñģ ÐµÐ»
ĠW ahl
i ens
ĠprÃ©s ident
Ġd á»¥
ar th
er ie
Ġinc orpor
y ll
í ĽĦ
ĠAfr ica
ãģ£ãģ¦ ãģĦãģŁ
ĠB ang
ur m
Ġqu ella
áº «
un ci
Ġcomp on
åħ ·
ke z
ĠMar ie
Ġinclud es
0 8
Ġsp el
ĠWilliam s
×ľ ×ĺ
ãĤ¤ ãĥ«
à¥ ĥ
å½ĵ æĻĤ
Ġdest ro
ÑģÐ¸ Ð¸
Ġdi al
Ġí Ĩ
Ñĥ Ñī
×Ļ×¡ ×ĺ
ar u
ĠØ¹ ÙĦÙĬ
rough t
no ÅĽÄĩ
Ġup on
ab ly
ow ania
ier i
à¦ «
åŃ £
Ġd z
æľ «
Ġn agy
ĠrÃ³w nieÅ¼
Ð½Ð¸ Ñħ
à¸Ń à¸¡
Ġus ually
ĠÐ² Ð¼ÐµÑģÑĤ
Ġplay ers
Ġê³ ł
Ġs ize
Ġerst mals
Ð¼ Ð¿
ç± į
oro ugh
Ġp end
Ġpl att
ĠÙĪ Ø¨
Ġprov ided
Ġf Ã¶d
Ġcol lege
æĮ Ļ
Ġm ientras
ript ion
Ġa unque
è° ·
Ġr ange
as ing
D on
à¹ģ à¸ķ
ÏĦÎ± ÏĤ
Ð¾ Ñİ
Ġgra v
Ġgo al
ĠÏĦ Î¹ÏĤ
ç« ¶
und er
ck en
Ġ ers
Ġla in
ylv ania
ell Ã¤
Ã¨ de
ahl reich
h alt
Ġpro tagon
èģ ¯
ĠJ ones
Ð¼ÐµÑĢÐ¸ ÐºÐ°Ð½
ÙĬ Ùĥ
Ġrap id
ion ato
Ġk al
Ġn ob
ĠIn s
us te
Ġl anz
Ġj our
ÑģÑĤ Ð¾Ð²
Ġc iv
ic iones
Ġ×ķ ×¢
Ġe ight
m od
Ġà¤ «
Ã¥ g
ÑģÑģ Ð»ÐµÐ´Ð¾Ð²
ann ten
à¸£ à¸£
Ġ190 6
Ġm Å±
ĠMens chen
r ar
Ġ à¸Ĺ
ĠØ§ÙĦÙħ Ø¹
Ġ4 2
ĠìĦ ¸
an os
ÑĢÐ¾Ð² Ð°Ð½
ãģ¨ ãģĻãĤĭ
Ġs á»Ń
Ķ Ķ
G en
çĽ Ł
Ġt ab
ag em
ge f
0 7
ĠFlor ida
ul ts
Ġm ez
Ġe ither
ìŀ ĳ
D R
ĠB all
ko z
Ġau ÃŁ
r Ã¨s
l Ã©
Ø· Ø±
ĠB ib
un ivers
ĠR ah
Ġcl ose
èĹ ¤
iá»ĥ u
let ak
ich ten
ĳ ľ
y la
loss en
H er
Ġe i
as ons
à¹Ħ à¸¡
k Ã³w
i ber
ĠIt alian
ÑħÐ¾Ð´Ð¸ÑĤ ÑģÑı
ãģŁãĤģ ãģ«
Ġbro ther
ho use
ĠÙĦ Ø§
Ġêµ Ń
ol tre
ĠF ue
ĠÐ¿Ð¾Ð± ÐµÐ´
Îº Î¿
ĠR oss
istersch aft
Ġáĥ ®
Ġe ver
ĠÙĬ ÙĤ
ĠÑĦÐµÐ² ÑĢÐ°
áº¡ c
ĠØ® ÙĦØ§ÙĦ
ç½ Ĺ
ĠÐ¾ Ñĩ
ern o
æķĻ èĤ²
Ġb ig
) ØĮ
ul ta
Ġor ang
ers e
Ġda ughter
Ġmen y
Ġvar ia
ĠC athol
Ġne u
ĠÑĩ ÑĤÐ¾Ð±Ñĭ
ĠNav y
ĠR h
Ġ190 7
áĢ ¹
ov ed
k ol
Ġsek Ã¤
Ġm ant
A N
Ġìĥ ģ
Ġpro ces
Ġsel on
à¤¾ à¥¤
Ġmed al
æĪ ¸
áĥĿáĥ ĵ
Ġhac ia
Ġins c
Ġf ight
w art
Ð»ÐµÐº ÑĤ
é£ Ľ
Ġdeutsch er
Ġab it
Ġë ¹Ħ
W est
Ġst ates
ĠtÃ¶ bb
åī ¯
Ġdire ction
Ġguit ar
ĠÐ² ÐµÐºÐ°
Ġcount ries
Ġv iel
Î»Î¿ Î³
ĠP ak
Ġr um
Ġper met
ãĥĥ ãĥī
a ille
à´ ¬
Ġb ad
ĠØ³ ÙĬ
Ð½Ð¸ ÑĨ
ĠDem ocrat
Ġc ru
Ġs oc
ĠS us
ÏĦÎ¿ ÏĤ
Ġ( Â«
Ġsyd vÃ¤st
uv re
us ing
Ġse e
m ak
Ã¨ rent
Ãºbl ica
Î· Î¼
ere i
ÙĤ ÛĮ
åį °
Ġpu Ã²
o x
ic ian
Ġrec ogn
G u
olog ÃŃa
è¿ ½
ĠS ab
Ø´ Øª
ĠÑħ ÑĥÐ´
est ed
ĠÃ¶ st
Ġm iem
ĠÐº ÑĢÐµ
Ùħ Øª
st ad
est s
istrz ost
d al
Ø§ÙĦ Øª
Ġt art
Ġch em
ĠIn c
Ġ×ľ ×Ĺ
à® ¸
Ġter letak
Ġens uite
Ġëı Ħ
b ez
ĠD ist
ĠSec ret
Ġprime iro
Ð½ ÐµÑģ
ĠÐ´ Ð¸Ð²
ĠÐ´Ðµ ÑıÑĤÐµÐ»ÑĮ
Ġj ewe
Ġam Ã©ric
ev ers
ãĤ¸ ãĤ§
ar p
ĠL ord
Ġhe alth
à¹Ģà¸ «
ãĤ ¼
ëł ¤
ĠEn ter
Ġ×Ķ× ĺ
Ø§ÙĦ Ø§Øª
ĠSe ine
ud em
ãģ¨ åĳ¼
Ñı Ð¶
ĠÑĤ ÑĢÐ°
ur er
íĶ Ħ
ĠÑĢÐ°Ð· Ð»Ð¸Ñĩ
æ® ĭ
al ais
ĠP ass
Ġstud ent
Ġent wick
Ġ×ŀ× ¦
áĥĺ áĥĲáĥľ
à¤¤ à¤°
ĠØ§ÙĦØ£ ÙĪÙĦ
Ġad apt
Ġqu ar
Ġà¤¸ à¤®
à° «
ĠB ach
Ġáĥ Ŀ
Ġthe o
Ð· Ñĥ
Ġcomp ar
çķª çµĦ
ãģĵãģ¨ ãĤĴ
E in
ck et
ĠH ay
ãģ® ä¸Ń
Ãīt at
×ĳ× ł
ê° ľ
ĠÑıÐ½ Ð²Ð°ÑĢ
ãĤĪãģĨ ãģ«
ĠSov iet
Ġpar k
J ean
ëį ĺ
Ð¾Ñģ Ð¾Ð±
fic ie
rie f
ĠV i
vers e
Ġm ias
as p
Ġ×ķ ×Ķ
ÑģÐº Ð°ÑĤÐ°
ĠWh ile
k te
Ã¼t z
Ġ×Ķ×ĳ ×¨
iz ioni
Ġra cc
ĠÑĢÑĥ ÐºÐ¾Ð²Ð¾Ð´
ĠÂ» ,
Ġkh Ã¡c
ed i
Ġsy st
f i
æĭ ¬
ĠÑģ ÑĥÑīÐµ
Ġv ice
Ġprogr ess
ing ham
ĠColumb ia
ĠN ik
ĠOt tawa
k op
ib i
áĥĺáĥ Ľ
Ð¾ÑģÑĤ ÑĮ
ik us
Ã¤ us
Ġ×ĳ× Ĵ
iá»ĥ m
ĠÑĤ ÑĢÐµ
to bre
ĠÃ¶ n
Ġord en
Ġalc uni
Ġinstr ument
Ġso und
Ġan te
H a
h l
ĠCor por
Ð°ÑĤ Ð¸
Ġus o
íĺ ¸
Ð» Ð¾Ð¼
Ã³ Åº
Ø§Ùģ Ø©
Ġl ot
Ġin ner
Ġac cept
åĭ ¢
ut y
Ġn au
em en
uit s
Î £
Ġse a
Ġmag azine
Ġ×ķ ×Ľ
èģ Ķ
Ch ar
ç¯ Ģ
Ġ×Ĳ ×Ĺ×¨
ĠK am
Ġincl uy
çĶ ²
Ä± ÄŁÄ±
Ã¤t z
ŀ Ī
ep endant
ĠÐ³Ð¾Ð´ Ñĭ
e a
in us
ĠÙĪ ÛĮ
ĠÑĦ Ð¸Ð½
ç ¼
Ġa po
Ġkn ow
Ã¤ re
ĠÐ´ Ð¾Ð»
Ġcol lection
Ġadd ed
Ġrep laced
ç® Ĺ
Ġw he
Ðº Ð¼
à´ ¡
ÐµÑĢ Ð¾Ð²
Ġcomm ission
ĠÎŃ Î½Î±
Ġt Ã©l
ĠC entre
ĠF I
Ñį Ð½
Ġ1 000
Ġf ont
ë¬ ´
Ġdi b
Ġelec tr
ĠK ais
ÑĥÐ½ Ð°ÑĢÐ¾Ð´
ĠH ist
Ùİ Ùĳ
rop olit
Ġ ÏīÏĤ
ĳ ×¨
Ø² ÛĮ
ans as
Ġcom enz
ĠgehÃ¶r t
ĠD esp
Ð½Ð¸Ðº Ð¾Ð¼
Ġtro uve
Ø§Ø º
Ġch á»ī
ÃŃ r
Ġbrit ann
os ter
Ġy er
Ġdec ided
Ġreg ard
Ġ×ķ ×ŀ×
Ġacc omp
ri ere
åıĤ åĬł
Ġutil is
æ® º
ĠPenn s
Ġconst it
Ġab ove
à°Ĥ ,
ĠÙĪ ÙĥØ§ÙĨ
è² ł
n ed
ĠSh ow
ĠáĢ ŀ
" :
Î¸ Îµ
A cc
íķ ł
ÃŃc ula
az io
à¸Ħ à¸§à¸²à¸¡
Ġg al
Ġk ons
×© ×Ļ×Ŀ
0 6
ĠÑĥÑĩÐ° ÑģÑĤ
per t
Ġn ation
Ġpl ats
×Ļ ×ķ×Ł
b as
Ġwh ite
v anni
amp f
Ġlead er
Ġtrab al
amer ikan
Ġv iá»ĩc
ÑĢÐ° Ñī
Ġsj Ã¶
Ã©r Ã©
ĠC rist
ĠáĢ Ģ
ess Ã¤
Ġsecond a
ĠÐ¼ÐµÑģÑĤ Ð¾
Ġ190 9
on se
Ġb ol
ĠÃ© d
à¸²à¸ ¥
Ġnov embre
à´¨ à´¤
ĠrÃ© p
à¤µ à¤°
áº¥ p
Ġgro und
Ġpos to
j as
ĠB ef
Ġdist in
il is
Ã´ i
Ġdivers e
Ġpart ido
à±ĩ à°Ĥ
Ġterrit orio
Ġd entro
å¾ Ģ
ins on
Ġtut ti
Ġg eg
éĺ Ł
Ã¢ teau
Ġprogr ama
ient es
×ł ×ķ×ª
ĠØ¢ Ø¨
H L
Ġm ec
ĠT imes
ĠD ol
nah m
ĠdÃ© m
re cht
Ġà¦ħ à¦¨
Ġwe chsel
ĠÐļ Ð°ÑĢ
Ġcom er
ãĥ© ãĥ³ãĥī
à¦¼ à¥¤
Ġsch on
Ġqu indi
ÙĨ ÙĬØ©
æ¹ ĸ
×¤ ×§
ĠFran z
ill on
Ġto ute
ek si
r ary
ãĥ¬ ãĥ¼
Ġcar acter
å¡ Ķ
rit ten
A f
ĠÑĢÐ°Ð¹ Ð¾Ð½Ðµ
Ġach ie
Ġm ention
Ġt ego
b ben
ĠìĬ ¤
Ġb ot
Ð°Ð½Ð¸ Ñİ
Ġdeg ree
V er
ĠY ear
ĠPri x
ĠÑĥ Ð¶Ðµ
fr ont
Ø±ÙĬ ÙĤ
ĠtÃŃt ulo
W ill
áĥ ª
Ã§ ois
ĠY oung
Ġst ell
ĠÑģ ÑĥÐ´
ver ed
Ġk et
ĠG h
ĠJac kson
O s
c op
Ġf and
ĠÐ² Ð¾Ð»
Ġà¦ľ à¦¨
ich en
Ġz ak
ĠÑģ ÐµÑĢÐ¸
Ġjed nak
Ġp iano
Ġcar riÃ¨re
×Ĳ ×Ļ
ĠM undial
è¦ ³
ĠH istor
ä¼ ģ
ĠÐ´Ð² ÑĥÑħ
d at
ä¸Ģ èĪ¬
ĠÑĥ ÑģÐ¿
Ġdar auf
B er
Ġder nier
wick lung
×ķ×ª ×¨
ĠBar cel
ç¶ Ļ
ĠØ§ÙĦÙĪÙĦ Ø§ÙĬØ§Øª
ĠD orf
ÐŁ Ð¾
ĠVen ez
ĠÐ½ÐµÑģÐº Ð¾Ð»ÑĮÐºÐ¾
Ġs otto
ĠÅ ģ
Ġfam iglia
Ð°ÑĤ Ñĭ
Ġdiff icult
Ã² ng
0 3
ĠO ri
ĠLeb ens
Ġthá» ĭ
Ã© quipe
Ġc ell
n ar
ãģĹ ãģĦ
Ø£ Ø³
ov ers
ĠJ on
Ġqu ali
ãĥ¼ãĥ ª
ing t
Î± Ïĥ
ÐµÐ½ Ð½ÑĭÐ¹
Ð¾Ð»Ð¾Ð³ Ð¸ÑĩÐµ
Æ¡ i
ĠÐ·Ð° Ñī
Ø² Ø±
Ġs ter
ges amt
×Ļ×Ļ×ª ×Ķ
if orm
Ġdeux iÃ¨me
ĠfÃ¼hr te
ê² ½
ÐµÑĢ Ð¾Ð¼
ĠÙĪ Ø¹
Ġ urs
Ġdipl om
åı ª
éĹ ľ
Ġterm ine
uj Äħc
lie b
ish op
z og
Î¹Îº Î¿Ïį
Ġz one
Ã´ t
Ġc rist
ÑĢ ÑĬ
ĠÎµÏĢ Î¹
Amer ican
Ġkill ed
Ġqu ello
Ð² Ñĭ
P l
Ġs Ã³
Ġg obierno
à¥ ī
áĢ² áĢ·
Ã©r cito
Ġí ĸ
Ð½Ð¸ Ð¸
ĠÙħ Ø¬Ùħ
Ġanc ora
Ġ3 9
íĸ ī
Ð¶ Ð°
Ġaut re
Ġhuvudsak ligen
ĠE ine
áº¥ y
Ġk ad
0 4
Ġz ahlreich
Ġt et
å· ¦
imm Ã¤
ĠìĦ ľ
åħ± åĴĮ
Ġà´İ à´¨
ĠSte ph
ĠÐµ ÑīÑĳ
ĠÐ¿Ð¾Ð»ÑĥÑĩ Ð¸Ð»
ĠG ef
ent emente
Ġse zon
or ado
Ġcar act
ĠK inder
o a
l it
Ġfr Ã¼
Ġdest in
×ĳ× ©
Ð¸Ð½ Ð¾
æ¯ ı
ĠÑıÐ½Ð²Ð°ÑĢ Ñı
Ġqu an
ãĤĵ ãģł
Ġform ation
Ġn ight
èĪ Ī
Ø® Ø´
ĠÐ²Ðº Ð»ÑİÑĩ
in f
Ġm iesz
ĠPrem ier
m iss
ch ange
C er
Ġt ap
Ġreach ed
Ġbag ian
Æ°á» Ł
isch of
Ġí ĽĦ
ning s
Ġs endo
å¨ ģ
ãģĬãĤĪ ãģ³
f Ã¼r
Ġreg ionen
ĠN ue
Ġl ip
Ñģ Ñĥ
ĠF ac
ĠPhil ipp
Ġgio c
ĠÐ½Ð° Ð¿ÑĢÐ°Ð²
ĠRepubl ic
ĠáĢ ķ
M e
ê ·
Ġx Ã£
ĠPhil ip
Ð»ÑĮÐ± Ð¾Ð¼
ĠÐ¼ Ð°Ñı
áĥ ¬
ĠW ald
èĻ Ł
ìľ ł
å¾Į ãģ®
×ķ×ª ×Ķ
Ġg a
Ġse ule
eh n
ÑģÑĤ Ðµ
Ġcomp an
ier z
Ġ190 4
å® ĥ
ĠÐ¿Ð¾ ÑıÐ²
ĠØ¬ ÙħØ¹
ĠÙĤ Ø¯
qu ier
ÙĦ Ø§Øª
Ġsym bol
Ġmar k
en ia
ĠS S
Ġs ah
s u
Ġprov ide
uit a
æĹ §
Ġë ķĮ
×ķ×Ĳ ×¨
ni u
il iki
Ġgouvern ement
ro ad
Ġb ay
Ġcel ebr
ĠJ ud
ÑĢ Ñĳ
Ġsom et
ĠÐ¼ Ð¸ÑĢÐ°
ĠÐ½ ÐµÐ´
Ġer richt
ĠPed ro
rid ge
Ø¯ Ø§
A u
Ġst ated
Ġqu á»ĳc
ĠCop a
ĠV erd
´ Ī
ĠH els
å Ĥ¬
es is
ĠØ§ ÛĮÚ©
Ġsond ern
áĥĶáĥ ¢
Æ°á»Ł ng
Ġj ej
l ov
or me
Ġab s
ĠJapan ese
Ġro t
ç¶ Ń
ur ity
ill s
à¥ Į
Ġa ircraft
ot he
Ġch am
èģ ĸ
×ĳ× ĵ
æĢ ¥
ÐºÐ° Ð´ÐµÐ¼
D o
sk ie
Ġa pril
Ġoper a
ĠÙħ Ø§Ø±
Ġma xim
ãĥ¼ãĥ ©
à°ķ à°°
Ġpar ts
iv as
Ġprofess or
h Ã¤lt
z ec
é ª
Ġcent er
ĠÐ£ ÐºÑĢÐ°
Ġv attendrag
Ġin izi
ĠÐ´ÐµÐºÐ° Ð±ÑĢÑı
qu is
ĠW olf
Ġm utta
ĠSta ats
j ek
ĠIs lam
ĠìĹ ¬
ÄŁ u
ĠM ir
ÐµÑĢ Ð½
Ġact ive
Ġd yn
ĠGr Ã¼nd
ĠL ew
ĠDeutsch en
è Ķ
áĥĺáĥ £áĥ
ap er
Ġintrodu ced
gen cy
it ive
ĠÐĺ Ð·
Ġra z
ĠM att
Ġro b
Ġg ot
Ġa ra
Ġh us
sch luss
f ach
Ã¼ z
ĠCl ass
ĠIm per
ĠÑĩ ÐµÑĢÐµÐ·
Ġf ick
ĠÐľ Ð°ÑĢ
ĠÐ´Ð¸Ð² Ð¸Ð·
Ð¾ÑģÑģÐ¸ Ð¹
j ed
s pr
å¿ Ĺ
ar ily
à¸§ à¸ĩ
áº· t
ĠÐĿ Ð¾Ð²
Ð¾Ð± ÑĢÐ°Ð·
ĠDe f
Ġv oll
Ġsyd ost
ãĤģ ãģ¦
Ġn ev
ĠÙĤØ± Ø§Ø±
ho od
ĠD it
ra um
Ġdirect ed
ãģ« åħ¥
çĻ ¾
ĠB oston
Ġn ature
ĠÐº ÑĢÐ¸
Ġben ef
Ġb rought
Ġein ige
æ´ ¥
ĠK omp
ens k
Ġnombre ux
ãĥ© ãĥ³
Ġin tens
à¸Ī à¸°
ur u
Ġk ez
Ġsein es
' .
ĠDur ante
ot i
åľ° æĸ¹
ĠÐ¿ÐµÑĢÐ¸ Ð¾Ð´
ãĥ³ãĥ Ģ
ĠÃº j
Ġf rat
Ġc m
×ĳ× ª
ÑĥÑĢ Ð½
Ġt i
á»Ł i
or igine
Ġex hib
Ġk Ã¶r
Ġpro mo
any ch
ĠÑģ Ð¸Ð»
Ð± Ñĥ
Ġpl ann
g ro
ol is
ani u
ä¾ ¿
ast i
ĠSc ot
ĠÙĦ ÙĦÙħ
ĠÐ¼ ÑĥÐ¶
ĠS Ã¼
Ã¡t ica
ä¼ ¯
Ġsitu Ã©
Ġm Ãł
Ġáĥ ¢
Ġparte cip
Ġstat us
áĥĿáĥ łáĥ
ç¸ ½
Ġv ide
Ġd ov
st on
Ġpe que
áº¥ u
etz ung
ie b
Ð¼ Ð¾ÑĤ
Ġw egen
Ġex press
Ġdel st
Øª Ø´
à´ķ à´³
Ġprogr amm
ĠÐ· Ð°Ð½
Ġtrans form
ĠJ ose
Ġzosta ÅĤa
ĠÃ©c rit
j al
ind ung
ÐºÐ¸ Ñħ
anu el
ÑģÐºÐ¾Ð¼ Ñĥ
ĠS ver
ÐºÐ° Ð¼Ð¸
Ùħ ÛĮÙĨ
if ik
199 7
ĠÐ°Ð²Ð³Ñĥ ÑģÑĤÐ°
ĠJohn son
emp lo
Ġel eg
est r
A F
ĠMÃ© xico
f ta
ãĤ¹ ãģ®
Ġaband on
Ġn eben
Ø¦ ÙĬØ³
ØŃ ÙĬ
itz er
ĠÐĲ Ð²
Ġzw eiten
ç« ł
à´ ¥
ot es
éĿ ©
air s
ec ial
Ħ ĸ
Ġdr am
Ġt uvo
Ġv ro
o ort
Ġw ed
à¸²à¸ Ī
e uw
ÙĪØ± ÙĬ
Ġmay o
am ed
ĠR ud
Ġa ang
Ġmed io
åı ³
d own
Ġro i
Ġme an
Ġph ilos
ìķ Ī
Î ĳ
Ġr isp
Ġ×¢ ×ĵ
z one
al ed
Ġv eh
Ġr ather
ĠÐºÐ¾ÑĤÐ¾ÑĢ Ð¾Ð¹
Ġs og
Ġcon hec
ek et
Ð°ÑĢ Ð¾Ð²
Ġf og
ãĤĵ ãģ§
ĠÐ³ ÐµÑĢ
Ð¾ÑĢÐ° Ñı
Ġ189 0
Ġs ow
Ġpri or
ĠI ts
oh en
sh ire
æĺ ĵ
Ã¸ d
Ġalm ost
ĠMa ur
Ø¬ Ø©
Ġleg isl
ĠdÃ© cl
ĠZ usammen
ge fÃ¼hr
Ġle ast
0 2
A M
Ġurs pr
ĠW erk
Ġfour th
æ¨ Ĥ
ar is
ĠA re
Ġlos s
Ġw iÄĻ
ä¹ ħ
ĠÐ¿Ð¾Ð¼ Ð¾Ñī
Ġneg li
ĠÐ¿ Ð¸Ñģ
ĠO ld
ĠÐ¸Ñİ Ð»Ñı
à´ ŀ
ĠCarol ina
Ġaward ed
Ġcar go
ĠB ew
ĠEst ado
ãĤĪãģĨ ãģª
ĠK u
ĠR ang
ĠK enn
Ġf Åĳ
Ġkol ej
ik s
Ġ×ľ ×ª
ĠÐ¿ÑĢÐ¸ Ð½Ñı
ĠO x
æŃ ´
Ġatt rib
åĿ ĩ
Ġmar ca
ĠH av
å¯ Į
Ġme as
D ans
g ing
ir s
Ð¸Ð½ Ñĥ
ut ch
ĠH it
ĠS ome
å§Ķ åĵ¡
ÏĦ Î±Î¹
ĠSec ond
Î¹Îº ÎŃÏĤ
ãĤ« ãĥ¼
Ġk ind
ĠRuss ian
Ġlet ter
ĠáĢ Ĳ
Ġs itt
åľ º
Ġc od
Ð» ÐµÐ¹
ĠB uen
Ġp it
Ð¾Ð³ Ð»Ð°Ñģ
Ġbek end
Ġc ri
Ġarbeit ete
Ú© ÛĮ
Ġo lymp
r d
ĠÎµ Î¯
Ġob ject
im s
L o
Ð¾Ð· Ñı
ĠÐ¾Ñģ Ð¾Ð±
ri x
×ŀ ×Ļ×Ŀ
ĠN ieder
Ġth áº¿
ket ball
st erd
äºĭ ä»¶
Ñĥ Ð»Ñı
ĠW ales
Ð¸ ÑĢÐ¸
Ġk as
ot ti
ãĤ· ãĤ¢
à¸Ļà¸ ª
Ã¼ s
ĠÑįÐº ÑģÐ¿
ĠÐ¼Ð°ÑĢ ÑĤÐ°
ĠØ³ ÙĨØ©
ĠÐ½Ð° Ð·Ð½Ð°Ñĩ
Ġgen om
Ġatt ended
ä»¥ åıĬ
us al
Ġbe v
ne ur
Ġsur face
æĻ ¯
Ġtra in
ãĥĭ ãĤ¢
æ¥ µ
Ġd ÃŃa
Ġn astÄĻp
ĠH ab
ĠK or
Ġvari os
Ġf ederal
Ġoct ubre
Ġest able
Ð´ ÐµÐ¹
éĺ ª
Ġed itor
ĠÑģÐµÐ½ÑĤ ÑıÐ±ÑĢÑı
ure au
ik al
Ġbeh ind
ãģĪ ãģŁ
ĠÐŀ ÑĤ
ĠÐ¾ÑĤ Ð´ÐµÐ»
Ġiz an
å¥ ¹
àµ Ĭ
Ðµ ÑģÑĤÐ¸
Ġà®® à®±
ĠÐľ Ð°Ðº
ĠÑĢÐµ ÐºÐ¸
ĠE ss
Ġent er
ĠKing dom
Ġh id
ãĤ ĩ
Ġtro v
Ã¼ b
w ald
ĠÑģÑĤ Ð¾ÑĢÐ¾Ð½
Ġ5 5
Ġv agy
Ġc ert
Ġn uc
ĠÐ¾ÐºÑĤ ÑıÐ±ÑĢÑı
Ġ4 9
ĠÐµ Ð´Ð¸Ð½
el ta
ri ke
Ġten ÃŃa
Ġdal le
ĠVal ley
Ġcol le
ĠìĦ ±
S a
åĮ »
ĠHer r
Ġsimp le
Ġw ob
à®© à®°
å¹´ ãģ«ãģ¯
Ġmen os
ë³ ¸
n el
åĽ½ ãģ®
ger icht
ĠtÃ¤t befolkat
ers ey
ĠÐ½Ð° ÑĥÑĩ
ĠÑĤÐµÑĢÑĢÐ¸ÑĤÐ¾ÑĢÐ¸ Ð¸
Ġc ort
Ġt Ã©r
ran o
ĠComm ittee
ĠAs ia
ĠFran ces
ĠSpan ish
è¿ Ĳ
ÏĦ Î®
ĠÑĥÑģÑĤ Ð°Ð½Ð¾Ð²
T C
Ġì Ĥ
ĠF ab
æĶ ¶
ĠÐ¼ Ð½Ð¾Ð³Ð¾
ad Ä±r
Ġm uj
ĠÑĦ Ð°Ðº
ow an
Ġel ek
ĠPa ulo
Ġgo verno
198 0
Ġ ort
à¹Ģà¸ ª
ĠkÃ¶z Ã¶tt
Ġsept iembre
Øª Ùģ
ĠPenns ylvania
Ġsour ce
ĠÐ½ÐµÐº Ð¾ÑĤÐ¾ÑĢ
Ġnet work
Ġis land
ian i
Ġë ħ
ĠPr in
éĽ ·
ĠyÄ±l Ä±nda
ãĤĮ ãģ°
Ġqu anto
Ð¾ÑĢ Ð¾Ð³
Ġmo is
ãĤīãĤĮ ãģ¦ãģĦãĤĭ
ss on
Ġr ights
ĠØ§ÙĦÙĤ Ø±
Ġê ´Ģ
ĠÑĦ ÑĥÑĤ
ĠAn na
Ø¯ Ø§Ùħ
ar ÃŃa
ä½ Ĳ
æİ ¡
Ġroz p
ĠÅ ĵ
à¸« à¸£
Ã§ as
ip e
Ġc ust
Ġj an
ãĥ ¨
ĠP ara
it ial
Ġgi orn
Ġso on
à¸²à¸ Ĺ
Ġd ziaÅĤ
ĠÐ¼Ð¾Ð¶ ÐµÑĤ
ul pt
ĠÐºÐ¾ÑĤ Ð¾ÑĢÐ°Ñı
uch te
Ġb esta
olk ad
ou est
± ´
Ġcel eb
ī nh
ĠØ¯ Ø§Ø±
uer te
ĠU N
Ġv iss
ĠH arr
zi ÅĤ
Ì Ĥ
à¦ ł
ĠB la
Ġdisp on
Ġfem ale
es h
ec ciÃ³n
åľ° åŁŁ
Ġmag n
os en
ÑĨ ÐµÐ½
çĴ °
à¥ĩ .
ĠÙħ Ø³Øª
Ã¶ ld
à´ ´
ÙĤ Ø·
à¤ª à¤¨
ed ad
ÐµÐ´ ÐµÑĢÐ°
ç¤¾ ä¼ļ
Ġ ich
ĠN ic
Ġb in
ĠL is
ilit Ãł
T S
Ġmi Ãªu
ĠB ev
Ġsuper ficie
Ġp urch
Ġstud ierte
ĠÐ´ ÑĢÑĥ
D uring
Ġm ga
Ð¸ Ñİ
199 6
Ø¯ Ø§Ø±
ĠSer ies
Ġpr Ã¨s
ĠG on
ãģª ãĤĭ
on ces
ë¬ ¼
å· ®
les ia
èµ Ľ
ĠØ£ Ø³
åħ¶ ä¸Ń
Ñģ Ð¾Ð½
ĠV ill
å¤§ ãģį
Ġcons um
ĠEinw ohner
Ġhe ut
Ġdem on
ur re
Ġjul io
xt art
ar re
Ġun its
S i
ãģ¨ãģª ãĤĬ
Ð¸ÑĤ ÑģÑı
ĠÐĳ ÐµÐ»
aut Ã©
ĠÐº Ð»Ð°Ñģ
ĠHein rich
Ġc Ã¹ng
ĠFo und
Ġla bel
pp ed
çħ §
Ġprime ira
ĠT ay
Ġlá» Ľ
Ð¾ÑģÑĤ Ð¾Ñĩ
ĠÐķÐ² ÑĢÐ¾Ð¿
æī ¿
Ġal tre
Ã¤n n
Ã³Åº niej
eg et
Ġnh Ã¢n
Ġdisc uss
b ul
ĠÐ¿ÑĢÐ¾Ð´ Ð¾Ð»Ð¶
Ġ íķ´
ĠB BC
ĠG el
Ð½ ÐµÐ²
Ġc ultur
Ã¼ck e
l Ã©s
ĠÐ½ Ð¸Ñħ
ist ic
Ġhat ten
æ° ¸
ĠAcc ording
Ġsc en
Ġoff ici
ord o
×ª ×Ķ
ann Ã©e
ãĥ¬ ãĤ¤
ìļ ´
ĠE lect
ÃŃ d
Ġand ra
iet nam
ung e
r ado
Ġsup p
ìķ ¼
è¾ ¼
u we
Ġsci ence
os h
est re
ĠG raf
æĪ ĳ
iá»ĩ u
ĠÑģÐ²Ð¾ ÐµÐ¹
Ġrag gi
æģ ¯
M it
ĠÐ´ Ð¾Ð±
ed ir
åħ ¸
Ø± Ùħ
ĠW y
ĠÐ¸Ñİ Ð½Ñı
ĠG reg
Ġmes mo
ap i
ĠD ort
Ġbo ard
Ķ Ĥ
b ud
ĠPro du
Ġt araf
Ġjourn al
B l
ta h
Ġer re
it eit
Ġdo is
åı ĭ
. ).
Ġcu atro
çį² å¾Ĺ
Ġwh ose
×ķ× Ķ
ĠÐ» Ð¸ÑĤ
ick et
Ġer ne
kon om
Ġcomp ag
Ġapproxim ately
Î¼ Î·
Ð³ Ð°ÑĢ
Ġen ero
Ġvers o
ĠÐ¾ÑģÑĤ ÑĢÐ¾Ð²
Ġgr und
Ġih rem
Ġfon ction
lieÃŁ lich
ĠSci ence
ia c
Ø§ÙĦ ÛĮ
å¸ Į
ĠT w
ke en
Ùĩ ÙĦ
Ġpo z
ãĥ³ ãģ¯
ag gi
ãĥ´ ãĤ£
ĠServ ice
Ð ĸ
á»Ļ ng
Ġc zy
ÙĪÙĨ ÛĮ
åĪ© çĶ¨
ĠP atr
etz te
Ġcar atter
Ġh Æ¡n
re ad
ĠìŀĪ ëĬĶ
ĠÐ½ Ð¸
Ġpla ced
ĠI d
ĠF ord
Ð» ÑĥÐ¶
ĠrÃ¥ der
ĠS erb
ĠJahrhund erts
åıĸ ãĤĬ
áº¡ ng
h ou
o ul
ol n
éĸĭ çĻº
Ġpro y
ĠW inter
ĠFin land
Ġsp ace
ĠCathol ic
ØŃ Ø©
Ð¸ÑĤÐµÐ»ÑĮ Ð½Ð¾
ot ter
áĢ Ŀ
ĠB ab
ĠÑĢÐµ Ð³Ð¸
Ġà®ĩ à®¨
Ġznaj du
á»ĭ ch
Ġot ten
ĠfÃ¶d d
Ġst ark
Ġre jo
Ġsc ored
ë£ ¨
Ġbeste ht
ä¸ ¤
as st
ãģ« éĸ¢
à´ Ń
Ã³ k
ĠC onn
Ġdá»¥ ng
Ġcompet ition
ad ora
áģ Ĭ
Ġ à¹Ģà¸Ľ
Ġpor te
×ķ×¨ ×Ļ×Ŀ
å¤§ ä¼ļ
ÙħØ± ÛĮÚ©
ĠL ar
Ġà¦ «
Ø§Ø´ Ø¯
Ġs Ã©c
per ti
Ġob ras
æ¤ į
Ø² Ø§Ø±
ÙĪØ± Øª
ĠCer ro
b uch
åį İ
gen ommen
Ġ190 3
ĠÐĴ ÐµÐ»Ð¸Ðº
Ġpro ced
Ġm ess
ĠÐ³Ð¾Ð´ Ð¸Ð½Ð°
æŃ ³
×Ľ ×Ķ
z ahl
po is
Ġjun io
ic ation
Ġin stead
åģ ľ
à¤ ³
ĠL iter
ÙĪ Ø¦
Ġb ers
Ġa h
it za
Ġmem iliki
Ġ4 3
i ÅŁ
sch rift
ir t
Ġol du
Ġsu as
yt u
Ġf if
ĠÐ¾Ð¿ ÑĢÐµÐ´ÐµÐ»
íĤ ¤
åį ĺ
Ġnu ovo
çº ¿
ĠØª Ú¾
Ġim med
ĠH of
Ġmehr ere
z il
unid ense
Ġcommer cial
Ã¤ uf
áĥĲáĥ ¨áĥĺ
ier o
Ð¾Ð³ÑĢÐ° Ð¼
Ġleg al
ilit Ã©
ĠÏĢ Î¿
- ,
ar ing
Ġinsp ir
ĠÙħÙĨ Ø·
ak te
P D
ê ±°
Ø° Ø§
ĠBo ard
Ð» Ð°Ð½
lich t
Ø® ÙĦ
ĠÐ° Ð¼ÐµÑĢÐ¸ÐºÐ°Ð½
ĠÃ©ta ient
Ġb or
ĠVict oria
Ġ×Ĳ ×ļ
Ġr i
ib les
H ol
á»ħ n
Ġch iáº¿n
Ġp Ã³ÅĤ
å¾ ¡
Ġgro ot
Ð¸ ÑĢÑĥ
ĠD VD
Ġt ai
ark an
ĠÄĳ o
all is
ti ent
ĠÐµ Ð²
ĠÐ¸Ð½ ÑĤ
Ġpra c
r el
ill y
Ġm end
ĠSt ation
ĠÙģ ÛĮ
199 5
ãĢı ï¼Ī
Ġch ez
M us
Ġmin utes
ĠÄĳá» ģ
Ð»Ð° Ð´Ð¸
Ġ Ã¡t
×ķ×ľ ×Ķ
ĠLe hr
j Ã¤
Ġd ago
æŁ »
ĠÐ°Ð¿ÑĢÐµ Ð»Ñı
ãĥ« ãģ®
eb all
ĠÑģ Ð»Ð¾Ð²
Ð¸ÑĤÐµÐ» Ð¸
ĠB ow
æľ Ľ
r ight
æĸ Ń
use o
Ġits elf
Ġman ufact
p ie
ĠÐŀ Ð±
Ġutil izz
áĥĶáĥ Ĵ
ĠÑģÐµÐ» Ð¾
ĠÑģ ÐµÐº
az ar
w en
Ġdest ac
ĠC oll
ç ¡
áĥĲáĥłáĥ Ĺ
ĠM id
ãģ® ãģ¯
ĠK ent
ĠÙĦ Ùĩ
Ġj Ã¤l
ĠÐ»Ñİ Ð±
en ing
im ate
Ã¡ bb
an st
Ġide a
ĠØ¯ Ø§Ø´
bild ung
ĠWo od
ĠÐ¾ÑĢÐ³Ð°Ð½Ð¸ Ð·Ð°
Ð°ÑĢ Ñı
la is
ĠáĢ Ľ
ul f
Ġexp and
Ġ4 7
o ft
ÑĮ ÐµÑĢ
A ut
Ġgen annt
Ġ( ).
Ġ190 2
Ġwyst ÄĻp
Ġaf in
ĠA ires
im ents
Ġdo uble
à¸²à¸ ķ
t ario
ÐµÑģ ÑĮ
Ġob ef
çª ģ
ĠFuÃŁ ball
pl atz
ĠÐ° Ð»ÑĮÐ±Ð¾Ð¼
Ġà° ¶
Ġgi Ãł
å± ¬
ĠIr eland
à¸ Ĳ
ie ck
æĹ ħ
ì° ¨
åķı é¡Į
on f
Ġbeg inning
ĠB ry
Øµ Ùģ
ĠÐ¿ÑĢÐ¸ Ð½
ĠÃ ¢
Ġt end
ĠK im
ĠÎµ Î¾
ĠÐºÐ¾Ð½ ÑĨ
ĠÐ´ÑĢÑĥÐ³ Ð¸Ñħ
Ġcz ÅĤ
ĠF ederal
à¸Ĺ à¸¢
El le
ëł ¥
Ġobef olkad
Û ´
á»ķ i
ÑĢ ÑĮ
à¹Ģà¸ Ī
Ġr iver
ç´ °
ut to
ç¾İ åľĭ
Ð² Ð¾
æ ¾
Ġh ans
ir as
ĠÐ·Ð°ÑĤ ÐµÐ¼
ĠTamb iÃ©n
Ġr at
Ġ ÑĢÐ¸
Ġl ower
ĠÅ ŀ
Ġfut ure
n in
Ġgeme ins
ä¸ ĥ
é Ħ
ÑģÐºÐ¸ Ð¼Ð¸
ĠT s
Ġby ÅĤa
og rÃ¡
Ġh Ã¬nh
ãĥ´ ãĤ¡
ci pl
ìĹ °
ĠfÃ¶lj ande
ĠL or
el ah
Ġto uch
Ġer halten
r in
Ġc art
Ġreg ul
Ġdies es
ĠB ron
æĬ Ĺ
r Ã³d
ell y
áĢ¯ áĢ¶
Ġexper iment
cy j
u as
ç» Ħ
Ġcon cept
×¨ ×ļ
Ġde ta
ÙĨØ¯ Ùĩ
Ġ4 1
Ø§ÙĨ Ø´
Ġsel f
ver k
ãģª ãģĬ
u ct
ĠGesch ichte
Ã ĸ
äº §
ĠÑĦ Ð¾Ð½
j Ã¤hr
ro b
à®ª à®¤
re c
Ġut Ã¡n
Ġnorth ern
×Ĵ ×¨
Ġout side
Ġ4 6
om y
Ø¬ ÙĦ
ÑīÐµ Ðµ
åĽ½ å®¶
çŃ ĸ
id el
K ar
Ã¶ ss
sch afts
Ġsystem s
Ñģ ÐµÐ´
ÑĥÑİ ÑĤ
ol g
Ġf estival
ro k
ag t
Î¼ ÏĮ
ĠB lan
Ð¾ÑģÑĤ Ð¾Ðº
ĠT en
à¤ ĩ
Ġcond itions
ĠAt lant
ie h
ĠL ine
Ġent onces
åĢ ĳ
ãĥ³ãĥ Ĩ
Ġpo et
ete il
att ro
ĠF und
sterd am
åĮħ æĭ¬
Ġmov ement
Ġp Ã¨re
Ġw icht
à¤ķ à¤°
ĠB ed
zÄħ d
×ŀ ×Ļ
Ġdifer entes
is an
Ġdic iembre
Ĩ Ĵ
ÑĤ Ñĭ
ĠØ¬ ÙĪ
and ra
Ú© Øª
% )
k ring
ĠíĶ Ħ
ĠÐ¼ Ð¾ÑĢ
ek en
ÏĥÎµÎ¹ ÏĤ
ĠÐ³ ÐµÐ½ÐµÑĢÐ°
ĠØªØŃ Øª
æĴ Ń
ly n
ĠCorpor ation
Ġne igh
Ġleb ih
Ã¨ le
re ch
áĥĺáĥ ļáĥĺ
ar z
ãģŁ ãģ¡
Ġrap present
Ġh omb
ĠBr ig
Û ¸
um m
ĠÐ¸ÑģÐ¿ Ð¾Ð»
C C
uk sen
ĠØ¯ Ø³Øª
å¹´ ãģĭãĤī
Î¯ Î¿
ÅĦ czy
ĠM ess
se au
ãģ Ķ
Ġindustr y
Ø¨ Ø§Øª
è¨ ±
Ġser a
Ġtel ep
Ġver f
çĻº å£²
Ġreci b
ĠT est
ĠÐ¼ Ð°Ñģ
Ġr ikt
Ġdist rito
Ġl Ã¤ng
Î³ ÏģÎ±
ãĥķ ãĤ§
ĠÐŀ Ñģ
ãĥ¼ãĥ Ĭ
Ġorganiz ation
Ġperm ett
Ð¼Ð¸Ð½Ð¸ÑģÑĤÑĢÐ° ÑĤÐ¸Ð²
Ġpar ents
Ġbo oks
ak es
Ġallow ed
Ġ×ŀ× ¤
ĠÐŁ ÑĢÐµÐ·
Ġsy fta
d ire
Ġâ Ħĸ
Ġz ach
à¸ļ à¸£
Ì ĥ
Ġalgun os
ph a
ãĥ³ãĥ ĩ
Ġ25 0
Ġf unc
Ø¨ ÛĮ
å½± éŁ¿
é ³
199 4
Ð°ÑĢ Ñħ
ĠMÃ¼n chen
Ġchang ed
ë¶ Ħ
Ã© ment
Ġ187 0
ëŀ ĺ
ĠBro ad
ĠC le
Ġcomp l
Ø¶ Ø§
Ġp icc
ond issement
Ġmiej sce
Ġocc ur
e ign
Ð¾Ð» Ñı
ãĤĤ ãģĤãĤĭ
Ġsen ior
els en
Ġconc entr
ĠÙĩ ÙĨ
ukt ur
Ġgro ÃŁen
sch aften
Ġw inning
Ð¸Ð½ Ð¾Ð²
ent h
Ġprincipal mente
I V
ĠØ³ ÙĨ
Ġ×ŀ× ĺ
E N
å¼ Ł
Ġsquad ra
e au
Øª ØŃ
k r
ĠÏĥ ÏĦ
w ahl
ÑĢÐ° Ð½Ð¸
Ġf ron
io d
Ġ5 2
Ġpor ta
é¾ į
ĠÑĥÑĩÐ°ÑģÑĤÐ¸ Ðµ
ä¸ĸ ç´Ģ
Ġìĭ ł
Ġrealiz z
§ à¥
ly wood
eb b
Ġp int
fol ge
ĠÑĥ ÑĤ
pen as
ĠZe aland
ci pe
Ġpr esso
Ġpar all
ÑĤ ÑĥÑĢ
w orth
Ġ188 0
Ġm ely
Ġc ad
b ased
ĠÛ±Û ³Û
íĨ ł
Ġreg ist
ĠÐ½Ð°ÑģÐµÐ» ÐµÐ½Ð¸Ñı
ut lich
Ġ×Ķ× ĸ
Ġappro ach
ç®¡ çĲĨ
iá»ģ n
ĠD ia
Ġmy cket
Ġme ille
Ð»Ð° Ð³
Ġdec or
ãĤ° ãĥ©
Ġh yd
Î»Î» Î¬
ÙĦ ÙĪÙħ
ĠG il
ĠÐº ÑĢÑĥÐ¿
Ġd Ã¼
Ã¤ ft
ĠÏĥ ÏĦÎ±
uk o
ĠÐº Ð°Ð¼
ah len
ç² ¾
re zent
ĠB Ã¼rger
à¸²à¸ ŀ
Ġson ra
Ġà¤ħ à¤¨
Ġd oll
ĠØ¬ Ùĩ
ĠØ¨ Ø§Ø±
å» ¶
å² ¸
ĠFre der
è¡ Ĩ
ë¶Ģ íĦ°
Ġein z
ti in
Ġital iano
ĠÐ¼ Ð¾Ð´
ãģ ²
ĠÃºlt imo
ĠÑĢÐ°Ð·Ð² Ð¸ÑĤ
ĠStock holm
ĠÐ³ ÑĥÐ±
×Ķ× ľ
ĠE t
Ġg dzie
O m
Ġ19 01
ãĥ³ãĥ Ĳ
S tr
ĠK ind
Ġj ord
ic ks
ĠS ek
èĢ ģ
ä»¥ ä¸Ĭ
Ġsouth ern
à¸ģ à¸©
ĠÐ¸Ð· Ð±
ĠÐµ Ð¼Ñĥ
y f
es zt
ĠM ais
ãģ«ãģĬ ãģĳãĤĭ
ĠP il
Ġk las
Ġ Ã³
Ġres te
à´Ļ à´³
Ð¿ Ð¾Ð½
ĠØ¨ Ø¹Ø¶
Ġt am
Øª ÙĨ
éĬ Ģ
ut her
ÑĪ Ð¸Ð¼
Ġper ÃŃ
Ġcom ment
äºº çī©
Ġann Ã©e
sc ar
ett y
ÑĪ ÑĳÐ»
ĠK er
×¢ ×ķ×ª
um in
ĠMc C
ĠF u
Ġn iem
Ġxu áº¥t
ÐµÐ½ Ð½ÑĭÑħ
ult an
ok i
×¨ ×Ĵ
Ġpel ÃŃcula
or ÃŃa
ÙĪ ÙģÙĬ
Ġl ittle
ik at
Ġn iveau
æĹ¥ ãģ®
Ġm uk
ÏĢ Î±
Ġà¤ ĸ
Ġw enn
ä½į ç½®
f ort
Ġtod as
Ġpo de
ĠThe ater
ĠC ivil
at ch
ĠfÃ¶r sta
ĠC ard
Ø§Ø³ Ùħ
Ġcomp te
Ġl ado
Ġv itt
Ø±Ùĥ Ø©
s am
í İ
Ġf ix
sz er
199 2
Î Ĺ
Ġrelations hip
l uv
ãģķãĤĮ ãģ¦ãģĦãģŁ
end ung
ĠØ£ Ø¨
arl ier
Ġwie ku
az zo
Ġindepend ent
ĠÑģÑĤ Ð°Ð½
ãģĹãģŁ ãģĮ
ĠÐ¸ ÑģÑģÐ»ÐµÐ´Ð¾Ð²
Ġh ip
3 00
ĠIl s
il der
de z
ĠM em
ĠK op
ka ÅĦ
æĺ ¥
Ġsoll te
Ġdeb ido
og e
Ð»Ð°Ñģ ÑĮ
teil ung
ĠR ac
×ľ ×ĳ
Ø§ ÙĪ
Ġg az
ĠÙĥ ÙħØ§
ell ed
æ Ĩ
uv a
ĠKre is
×ĳ× Ĺ
è¾ ¾
Ġen erg
ag i
Ġd itu
ãĤµ ãĤ¤
ĠG ames
Ø±Ø¨ ÙĬØ©
çķ ¥
Ð° ÑĨÐ¸Ð¸
Ġà´ Ĵ
et ter
Ġre ve
ĠÄĳá»ĭ nh
ĠT och
Ġdies en
h istoire
h os
I T
Ġve el
Ġsus p
ĠJac ob
ĠCons erv
ow ane
ê¹ Į
Ġdur ant
ĠGio vanni
Ġas c
Ð»Ð¸ Ñı
ĠO f
ÑģÑĤ Ñĭ
ĠH ow
Ġr uss
Ġreg iÃ³n
åĢ Ļ
ow ski
ĠG ott
ollow ing
Ġm ent
iz abeth
Ġm á»
A v
ãģķ ãĤī
ĠM and
ĠB ou
Ġto o
Ġvá» ĭ
ĠG usta
Ïĥ Î¿
Ġà´ ī
ĠQu á»ĳc
ë° ©
Î¼Î± ÏĦÎ±
å ĺ
ĠJah res
ĠdÃ©c ada
Û ¶
Ġad van
gest ellt
ĠLud wig
Ġrun s
Ġr am
ro it
ĠÐ³ Ð¾ÑĢ
Ø¹Ø¯ Ø§Ø¯
ĠÎ ¦
ĠJ ourn
ĠAl b
×ŀ ×ķ×ª
Ġf en
Ġrequ ired
ç¹ Ķ
ÑĢÐ¸ Ð³
Ġal ler
ç¯ ī
Ġp ul
Ġett Ã¤
Ġsv il
burg h
ĠÏĥ ÏĦÎ¹ÏĤ
ĠÐ¾ ÑģÑĤÐ°Ð²
Ġs ummer
Ġgro ÃŁ
M et
Ġtrans l
ĠI g
v ere
mas Ä±
Îº ÏĮ
æ³ ¨
ĠH art
Ġtra vel
al ing
áº ½
Ġprodu ce
éīĦ éģĵ
Ùħ Ø³
Ġpro ble
lÃ¤ che
Ġde pois
ies en
Ġz es
la in
à¤ ł
en ig
Ġà¦ ĸ
le b
ĠÐºÐ°ÑĩÐµ ÑģÑĤÐ²Ðµ
ĠIntern et
emb ly
Ġ×ľ ×§
ĠC ur
Ð½Ðµ Ð³Ð¾
Ġmin ister
Ġlo ok
ans on
A g
ogrÃ¡ f
Ġpu eden
Ø§ÙĦ ÙĬØ©
Ð°ÑĢÐ° ÐºÑĤ
Îº Î±Î½
Ġsou vent
id ir
ĠÄĳá»ĵ ng
Ð» Ð¾ÑĤ
é Ĳ
ĠE isen
Ã® tre
ing ga
ĠW ay
Ġk ec
Chr ist
io p
Ð½Ð° Ð´
Ġs ov
Ġall erdings
ro u
Ð² ÐµÐ»
o o
Ġr id
ä½į æĸ¼
Ġ ï¼ī
m ittel
ç» Ł
ĠL ater
Ø¯ ÛĮ
ĠÙĪ Ø³
×ķ×¤ ×Ķ
ay e
ĠÎ §
Ġquest ion
Ġarm y
Ġer n
Ġv all
ĠCong ress
Ġm est
M y
om es
h ui
ãĤ¤ ãĥĦ
Ġà§ ¨
Ġc ultural
Ġol der
ĠÐ¿Ð¾ÑģÑĤ ÑĢÐ¾
Ġp Ã¤
ë¡ Ŀ
Ñı Ð»
×ĵ ×Ļ×Ŀ
ĠÑĥ Ð»Ð¸
Ġsin h
Ġv in
Ġ×Ĺ ×ĳ×¨
ut an
ÅŁ Ä±
ĠSte in
åĲĮ ãģĺ
Ġstud i
ĠØ§ÙĦØ ²
æ¸ ¡
ĠÐ¶ÐµÐ½ Ñī
Ġnov iembre
Ġoc up
o it
Û ·
al b
Ġes per
×ŀ× Ĳ
est ro
ĠÐ½Ð¾Ñı Ð±ÑĢÑı
Ġpr est
Øª Ùī
Ġb arr
Ġd zie
ĠÐ³Ð¾ÑģÑĥÐ´Ð°ÑĢ ÑģÑĤÐ²ÐµÐ½
Ġletz ten
E FA
å£ °
Ġmej or
ìĹ ħ
av al
Ñģ Ñĭ
ĠÙĪ ÙĤØ¯
ĠAl though
Ã©b ec
×¨ ×ķ
Ð°Ð»ÑĮ Ð½Ð¾Ð¹
ĠÃ©t ant
Ġtak ing
Ġa os
ĠE g
ill Ã¤
Ġad emÃ¡s
ĠÏĢ Î±Ïģ
ier p
ĠëĮĢ íķľ
è ¤
å¾ ĭ
ĠÐ½Ð° Ð¿
Ġcon fer
Ġstud ies
l ungen
Ġre cher
199 1
ĠA sh
Ġo ltre
Ġg ÅĤÃ³w
ç« ¯
×¤ ×ĺ
µ ľ
Ġespec ially
Ã³d zt
Ġz ou
ill et
Ð ¦
Ġke y
×¦ ×ķ×ª
Ġv ÃŃ
Ġv iÃªn
uch s
P aul
Ã³ Å¼
Ġtrav Ã©s
Ġe u
ÑĤÐ¸ ÑĢÐ¾Ð²
ĠÐ²Ð¾Ð· Ð¼Ð¾Ð¶
or ing
of d
ĠA li
çŁ Ń
ar ies
ãĥģ ãĥ¼ãĥł
Ġsta ff
ĠÎ± ÏħÏĦ
Ġà°¸ à°®
Ġcin co
A p
ĠW omen
ĠRes earch
Ã¨ ve
ĠK as
Ð³ Ðµ
Ġf ase
rio de
ĠJug end
f urt
j el
ran e
ÑĦ ÑĦ
Ġ×Ľ ×Ĳ
Ġlu ego
ĠÑĤ Ð¸Ð¿
199 3
×ĳ ×ķ×¦
Ġtá» īnh
icht ung
Ġse chs
Ġ×ľ ×¡
O R
Ġde ven
ĠU t
ĠAm t
Ġarr iv
Ġt and
end es
Ġcon cer
ac ja
Ð»Ð¸ ÑģÑĮ
Ġtit olo
ĠD or
ĠFra uen
Ġtaraf Ä±ndan
åħ ³
ĠCh ap
m b
ĠtÃ¤t ig
re ady
Ġe k
ĠÙĨ ÛĴ
Ġme chan
Ġf i
iv itÃł
ÅĦsk iego
Ġwrit ing
Ã¡s z
Ġj on
Ġpro min
æī ¹
ÑĢ Ð¾ÑĤ
Ġer k
ĠGl ob
Ġc atal
Ð¾Ð·Ñı Ð¹
í ŀĪ
è£ ľ
ĠF est
Ġc Ã²n
ĠB art
à®¤ à®²
Ġsc ore
re z
Ġ Å¼y
Ġ |
Ġman ager
ad al
Ñī Ð°Ð´
Ùħ ÛĮ
å¢ Ĺ
uh an
Ġsub s
Ġclub s
ĠM oh
Ġsp ent
ĠJ r
ont ra
Ø³ ÙĨ
éĽ £
äº ¡
æı ´
Ġleng th
s Ã©g
Ġcontin ue
Ġper cent
Ġs ai
ÑĢÑĳ Ñħ
Ġob t
å´ İ
Ġper c
ĠK Å«h
é¨ ĵ
èĩ ´
P C
Ġg Ã¶r
Ġno te
Ġlar go
on ic
Ã¡r t
çµ ¦
g leich
Ġal d
Ġla k
ĠQue en
S eg
å© ļ
Ġ6 00
s l
ì Ī
Ã© rit
ĠÐ² ÐµÐº
if er
Ġsen za
×ķ×¨ ×ª
ion a
Ġown ed
Äħ Å¼
a ine
ĠSe in
im en
ĠÑģÐ² Ð¾Ðµ
Ġs ost
Ġgen us
ìĸ ĳ
to z
Ġme ans
schlieÃŁ end
ĠS imon
Ġnum eros
Ġintern acional
ãĢį ï¼Ī
à±Ĩ à°Ĥ
ĠD omin
ä» ĭ
Ãºt bol
Ġc ann
uli Ã¨re
å¤ ı
å· ±
ĠÐ¿Ð¾Ðº Ð°Ð·
ebr ero
ĠP s
h ad
Ġmon ument
Ġco ast
Ġbuild ings
Î¹ ÏĥÏĦ
ĠD ip
æĪĲ ç«ĭ
Ġprodu z
E D
ĠMar ÃŃa
ãģ« åĩº
Ġkl im
Ġa penas
Ġf us
Ġhigh er
Ġgro ÃŁe
íĸ Ī
Ġl Ã¤
Ġla b
ĠÐ¡ Ð°Ð½
ĠLond res
Ġsam en
Ø° ÙĦÙĥ
Ġsem i
Ġespec ie
az i
Ġim pr
o em
ĠÐ¾ÑĤ Ð´
ĠBuen os
ĠW ol
Ġpert ama
Ġprevious ly
Ġac adem
ĠÐ²Ñĭ ÑĪ
n ete
P re
Ġerfolg te
ãĥ© ãĥ¼
f re
ä» İ
Ø¨ Øª
ĠÎ¤ Î¿
ĠÐ½Ð° ÑħÐ¾Ð´Ð¸ÑĤÑģÑı
Ġë° ©
ah a
Ġde z
ĠÐ²Ð¼ÐµÑģÑĤ Ðµ
Ġprim ary
Ġ ere
Ġst ycz
Ġver l
enso ort
Ġper Ã²
Ġend ed
is kt
Ġher man
ĠØ§ÙĦÙħ Ø³
A uf
Ġdefe ated
Ġà®ī à®³
Ġtut ta
å¾ ŀ
à®ķ à®°
Ġd rie
ĠÑĤÐµ Ð°ÑĤ
E T
ad io
ĠÑĦÐµÐ²ÑĢÐ° Ð»Ñı
Ġrail way
ĠD oc
ĠC our
ĠgegrÃ¼nd et
ĠK ultur
Ġall en
Ġà´ ľ
ĠFra u
Ġtradition al
è¯ Ń
Ġt ang
Ġe f
ĺ Ĳ
Ġdo it
Ġex clus
Ġinaug ur
à¤° à¤ķ
à¤¿ à¤Ĥ
ĠÙĨ ÛĮØ²
Ġur ban
ĠAk adem
S he
ë° ĺ
ĠÐ¼ Ð¸Ð½Ð¸
Ġen em
ĠÙĨ ÙģØ±
ĠH ung
Ø² ÙĬ
Ġter ug
Ġsp ons
20 20
b est
un it
ĠÐ¿ÑĢÐ¾ ÑĨ
éĤ ¦
Ġiss ues
Ġfor te
on el
al in
ä»¥ éĻį
Ġra k
l ong
w as
çĻº è¡¨
Ġ5 1
Ġge en
ĠØº ÙĬØ±
Ġà®ĩ à®¤
ĠÐ¸ ÑĤ
Ġoper ations
ĠpolÃŃt ica
ath an
F l
Ġdec is
Ġkh u
Ġth us
Ð¾Ð· Ð¸
en ze
ĠW asser
ĠF a
Ġog ni
Ġch ampionship
ĠPubl ic
Ġbeg in
ĠØ§ÙĦÙħ Ø¯
ä¸ Ķ
ãģ® ãģ¿
Ġhe bben
Ïĩ ÎµÎ¹
Ġse orang
Ġinter view
rag on
Ġto wards
E sp
ĠWind ows
ĠÐ¾Ð´ Ð½Ð°ÐºÐ¾
os of
z io
ãĥªãĥ¼ ãĤº
Ġcentr ale
Ð¾ÑĤ Ð²ÐµÑĤ
Ġpop ula
à§ §à§
ĠN orte
Ġ189 8
it ekt
ãĤ¦ ãĤ£
P R
à¸Ń à¸ļ
Ġpro ven
Ã© st
à¤ ģ
ĠR and
ĠB og
Ġ×ĳ ×ľ
ĠA prÃ¨s
à®Ł à®®
ber o
ĠÎ ¡
ĠB ec
ia i
Ġj aren
Ġopen ing
ĠWal ter
p le
ic ios
Ġmag yar
ĠØ¨ Ø´
ĠJ ersey
ug en
ĠEn tre
Ð¼ Ð¾Ð½
èĪ ŀ
å¹³æĸ¹ åħ¬éĩĮ
Ġab b
Ġdi am
Ã¨ tres
Ð¸ÑĩÐµ ÑģÐºÐ¾Ð¹
ĠBet rieb
isi Ã¨me
ĠE sta
Ġf atto
ond ers
ĠÙĬ Ø¹
Ð½Ð¸ ÑĨÐ°
ãģĻãĤĭ ãģ¨
Ġ×ķ ×©
Ð°Ð»ÑĮ Ð½ÑĭÑħ
ÑİÑī Ð¸Ñħ
ĠS ym
Ġgener ally
Ã¡ val
ĠÑĢÐ° Ð½
Ã©g l
Ġ×Ļ ×ķ×ª×¨
ĠØ¨ ÛĮ
åº ·
ÙĪÙĨ Ø¯
å¥ ¥
ĠM ost
ĠGeb Ã¤ude
in and
Ġot ro
H en
Ġd og
Ġret ir
el op
ĠGovern ment
Ġm oney
Ġres erv
Ġwechsel te
Ġs ab
éļ İ
ĠK omm
Ġocc ident
å° Ĥ
es k
el ia
Ã© li
è® ¡
ug a
in cl
stit ut
Ġital ien
d ig
% ,
å¹³ æĪĲ
ĠW ild
ĠÙĪ ÙģÙĬ
ur ent
ĠB attle
Ġi b
imon io
man ia
Ġ Åĳ
Ġc Ã¡ch
Ġm int
ĠÐº ÑĬ
à¸Ļà¸ §
ol la
ĠL y
Ġb it
Ġb erb
ĠOh io
ÙĪØ± Ø©
l ers
Ġdem and
197 0
wa ÅĤ
aus piel
Ī Ĵ
Ã¤h n
B ar
ĠJun ior
rze ÅĽ
à¹Ģà¸ §
ĠOn tario
å° ¾
ĠF err
Ġse qu
ìĨ į
ìĺ ģ
co up
ĠÃ¶ ss
owa ÅĤa
kl Ã¤r
Ġcomb at
ä¸ ģ
ĠJ eff
Ø§ÙĨ Ø³
Ġay ant
Ġg irl
Ġk rit
à¦° à¦£
Ã¨ ces
ĠÑģÑĢÐµÐ´ Ð¸
ac es
Ġj ob
iv ement
áº« n
éĻ ½
ãĥ³ ãĤ¸
ĠJo e
Ġ×Ĳ ×ł
Ã¨ se
çĻ» åł´
Î¯ Îº
il io
ĠÃ© quip
ĠF al
ue z
ÙĨ Ùĩ
im os
ĠÃĸ sterreich
ãĥĸ ãĥ«
Ġfig ure
Ð³ÑĢÐ° Ð´
Ġf rag
em i
Ġacc ording
ĠÐ¼ ÐµÐ½
à¸£ à¸ĩ
Ġà¦ıà¦ķ à¦Ł
ĠÐ½Ð° ÑĢÐ¾Ð´
×ŀ× ¢
Ġclass e
Ġke ep
ĠÐ¸Ð½ ÑģÑĤÐ¸ÑĤ
M art
L A
k Ã¤
ĠÑĤ ÐµÑĩ
ĠJohann es
re to
ĠRe chts
ĠTr ung
Ġ×¤ ×¢
ĠØª Øµ
Ġ189 6
ĠA y
ìŀ Ħ
ĠÐ¾ÑĤÐ½Ð¾ ÑĪ
Ġcr ÃŃt
ç¥ ¨
Ġchar ge
Ñģ Ð»Ð¸
éĤ £
ĠA tt
ĠF red
Ġg od
ĠNew s
ustr ie
ĠØª Ø£
ĠØ£ ÙħØ±ÙĬ
gefÃ¼hr t
ĠMo unt
Ġin itial
ĠHen ri
al ity
Ġp ain
Ġom kring
Ġv orm
ĠSyd ney
ĠáĥĴ áĥĲáĥĽ
ĠW ei
Ã© nek
ĠM ach
an as
Ø§ ÛĮÙĨ
Ñĩ Ð½Ð¾
Ġà®Ĵ à®°
Ġp ied
×Ļ× ļ
Ġout ros
ÑģÑĤ ÐµÑĢ
ĠF le
Ñĥ Ð³
Ġbe au
Ġk os
ad amente
Ã¼ tt
æĿ ¿
ĠCon se
vo or
Ġà° Ń
ĠÃ Ī
ĠÐ¶ ÑĥÑĢÐ½
ĠV u
Ġwest ern
Ġr y
m y
ĠÐ² ÑħÐ¾Ð´
Ġwh om
ĠØŃ ØªÙī
Î¬ Î»
x y
Ġconta ct
Ġl ing
Ġr ÃŃo
Ġent ra
Ġu ff
Ð¾Ð» Ð¸
ĠO ver
S al
Ð¼Ð¸ ÑĢÐ¾Ð²
ĠMed ia
Ġest os
Ðº Ð¾Ð½
à¦° à¦ķ
Ġperm it
ĠV ar
åı ĥ
Ð´Ð¸ Ð¸
Ġr ue
ow ano
ĠSoci al
Ġersch ien
ĠpÃ© riode
Ġv ast
on c
ĠS to
eit o
ĠÙĪ ÙĤ
Ġ189 9
Ġz ij
è¡Į æĶ¿
åľ ĺ
Ġag li
ent y
Ġt elt
Ġb attle
ĠPac ific
ĠÐ³ÑĢÑĥÐ¿Ð¿ Ñĭ
Ġfamil ies
ãĤª ãĥª
Ã© ly
ĠÙħ ÙĦ
Ġsomet imes
ĠL ag
Ì §
Ġof t
Ġ189 7
æı ı
el ess
ä» ¬
Ġst ations
Ġwob ei
Ġm iÄĻdzy
Ġsyd Ã¶stra
Ġm adre
çº §
Ġes emp
T P
è©¦ åĲĪ
Ġ×Ķ ×Ļ×Ļ×ª×Ķ
um n
Ġar gent
àµ Ī
aff en
Ġs amp
ĠN ight
rij k
ĠÙħ Ø«ÙĦ
×Ļ ×Ļ×Ķ
i ÅĤ
orn ing
Ð°Ð»ÑĮ Ð½Ð¾Ð³Ð¾
Ġà®ħ à®®
ĠTh at
ÙĪ Ø·
èĭ ¥
Ñĥ Ð´Ð°
Ġt able
Ġre tour
ina e
Ġf ebrero
Ġan v
Ð°ÑĢ ÑĮ
à° ĸ
ĠUnter nehmen
Ġrikt ning
S el
Ð¾ÑĢ ÑĮ
Ġm ove
Ġfam ous
tag ne
ĠCon f
Ġcu á»Ļc
Ã¡l is
ĠU ne
ĠB is
uset ts
ĠÐ± ÐµÑĢÐµ
u erd
Ġk ier
g ers
Ġinv as
Ðµ ÑĦ
g round
ach usetts
ĠThe atre
ĠkÃ¶ vet
ãģĹ ãģ¾
ĠÙĪ Ùģ
Ø³Øª Ø±
ÃŃ g
ãĤ² ãĥ¼ãĥł
gr ad
he ast
Ø§Ø¹ Ø©
ĠÐ¿ÑĢÐ¾ Ð¸Ñģ
198 9
á»£ p
ĠG all
er ah
Ġfamil i
ĠN eben
ãģª ãģĮ
ĠV iá»ĩt
Ġsa il
Ġtá» ķ
ÑģÑĤÐ²ÐµÐ½ Ð½Ð¾
r ice
çĶŁ æ´»
ì§Ģ ë§Į
ĠK az
ÑģÐº Ð¾Ð¿
uten ant
Ã¨ mes
ĠÐ³Ð¾Ð´ Ð¾Ð²
éĥ½ å¸Ĥ
ĠÐ¿ Ð¾Ð³
ĠÐ» Ð¸ÑĪ
C amp
ĠSp e
Ġw rzeÅĽ
de utsch
v on
à¸Ļà¸ Ķ
ĠVict or
ĠÙħ Øµ
at ri
Ð°Ð»ÑĮ Ð½Ð¾
Ġn Ã¶rd
at eg
ĠÐ¿Ð¾Ð´ Ð´ÐµÑĢÐ¶
ĠCh a
fl ug
ÃŃ cul
Ð¾Ñģ Ð»ÐµÐ´
Ġà¤ī à¤¨
Ġe arlier
er er
S C
Ġco unty
ì ¤ĳ
Ġmit t
âĢ ĺ
èĩ £
¶ Į
Ġphilos oph
ĠÐ·Ð° Ð¼
Ġp Ã³Åºniej
ĠR oll
à°¿ ,
Ġob lig
ug no
bes ondere
Ġl ange
ãĥī ãĤ¤ãĥĦ
Ġin ici
pp en
Ġmaj d
la w
Ø¨ Ø§ÙĨ
æİ Ĵ
Ġtá» ±
á»į i
ĠAlf red
ĠSta ff
Ø§Ø¦ ÙĬØ©
A us
ĠM anuel
ĠØ¹ ÙĨØ¯
ec er
ĠZw eiten
ç´ į
ĠRuss ia
Ġn ale
ĠS um
Ġb á»Łi
Ã¼nst ler
äº ¦
ic ul
Ġiss ue
Ġr Ã´le
ĠNord en
Ġk Ã©t
Ġtr am
Ġtra vers
ir se
in ner
Ġal b
nah men
O b
rop h
Ġmanif est
r ÃŃa
ä¾ ¡
Ġass um
ĠCh r
ĠÐ²ÑģÐµ Ñħ
Ġh izo
ĠÐºÐ¾ÑĤÐ¾ÑĢ Ð¾Ð³Ð¾
ãĢģ ãĢİ
iá»ĩ p
ãĥ¼ãĥ ĩ
ĠV ater
ĠOr d
ĠT wo
æı Ľ
Ġnomm Ã©
Ġact or
ĠXV I
ig uel
éģ Ĭ
itt ed
Ġmond o
Ġkw am
b ek
åĽ ³
al itÃ©
ĠÙĪ Ø±
áĥĿáĥ Ĵ
ä¹ ¦
Ġqu attro
d ar
ĠE ll
Ġlib ro
Ġmemb res
get to
Ġb áº£n
ĠRep Ãºblica
ist ance
ĠÐ½Ð° Ð¹
æĺİ æ²»
ĠBr and
Ġsub ject
Ġìķ Ĭ
Ġjel ent
Ġme ist
ev ano
Ġte j
×¡ ×§
å¥³ æĢ§
ĠÐ¾Ð¿ ÐµÑĢÐ°
ĠØŃ Ø¯
eb o
ny mi
Ð¾Ð± Ð¾Ð´
ĠF all
ç¥ ĸ
à¦ ı
om or
ĠG irl
ter y
Ġimp lement
Ñĥ ÑĢÐ°
ĠB lo
ber ger
ĠFol ge
Ġso ut
Ġb lieb
Ġpla ys
ĠØ§ÙĦØ¹ Ø§ÙĦÙħ
st off
èģ ŀ
ĠAn fang
ĠEr st
ĠBarcel ona
ĠM ik
Ġal iment
ond s
Ġcon vir
Ġ186 0
Ġp ac
urs o
Ġprop rio
tain ing
Ġcompan ies
ĠK ra
Ġstud ied
Ġtem per
any ak
ĠØ³ ÙĥØ§ÙĨ
Ġpract ice
B y
á» «
Ð³ Ð¾ÑĤÐ¾Ð²
ĠToch ter
u ar
ĠMaj or
å¯ ¦
ĠW Ã¤hrend
Ġvo it
Ġing les
Ø®Ø± Ùī
l ij
Øª ÙĪØ§ÙĨ
ĠìĹ Ń
Ø¨ Ø§
æ´ Ľ
ol ia
æĿ Ĳ
Ġtem peratur
Ġmar ch
ĠÎ¼ Î¹Î±
k h
ĠNorth ern
ĠD un
ĠÐ¿ÑĢ Ð¾ÑģÑĤ
Ġbras ile
Ġl ud
ĠÐ° ÐºÑĤ
ĠG eg
C an
Ġdes en
èĢħ ãģ®
iá»ĥ n
ĠHamb urg
la ub
u ale
j ak
Ġl Ã¤h
áĥ ¨
Ġbas is
ìĥ Ŀ
å¾ ĵ
ãģ Ĳ
Ġc lear
Ã¤ f
í ħ
Ġb ang
ÅĤ ow
g em
se h
B ill
ĠP iet
Î½ÏĦ Î±Î¹
it zen
ĠCamp eonato
ĠT ak
ãģ Ń
all as
Ø§ÙĦ Ø©
ĠEins atz
ĠIn t
Ġmuss te
Ġd Ã¶n
Ġcz erw
Ġ189 5
ĠM r
ing e
ĠP ad
åĨ Ļ
Ġgel egen
Ġà¤¯ à¤¹
ĠÑĩÐ¸Ñģ Ð»Ðµ
al ie
Ġent ire
ÐµÐ· Ð´
S P
à¸¥ à¸ĩ
Ġpar c
Ġa antal
iz en
Ġne ed
ett es
ĠBl ue
Ġinst itu
Ġeurop Ã©
Ġ áģ
her r
æŁ ¥
ro st
ol as
Ã¶r der
à± Į
Ġ8 00
Ġf jÃ¤r
ĠCon c
ĠÐ¶ÐµÐ» ÐµÐ·
Ġbroad cast
Ġmed ic
ĠÐľ Ð¸Ñħ
Ġc et
ĠN ag
Ġpr Ã³
è¾ ²
Ġcommer ci
Ġproper ty
ĠÐ°Ðº ÑĤÐ¸Ð²
Ġm ad
reb be
Ã¢ ce
Ġs le
Ã¼l Ã©s
Ġtor neo
ãģĭãĤī ãģ®
ĠGu ard
ĠØ±ÙĪ Ø³Øª
ĠÐ» Ð¸
Ġsch lieÃŁlich
Ġh ospital
ab ility
Ġ ÑĢÐµÐ´
×ķ× ¥
ri f
ÑĢÐµ Ð»
ĠBev Ã¶lker
ik ai
ĠÎ± Î½ÏĦ
ĠH ard
as o
T er
ĠP ada
Ġcommun es
Ġcha que
ĠÐ¡ ÐµÐ²ÐµÑĢ
ÑĳÐ½ Ð½ÑĭÑħ
rom e
Ġel la
Ð¡ ÑĤ
ra ine
! "
ig ent
ÙĦ ÙĪ
Ġ à¸Ń
ĠØ¯ ÙĬ
Ġsur round
Ġp ok
Ġar qu
Ġmemb re
Ġhigh est
ĠC i
ÑģÐ¸ Ñı
ÑĥÐ½ Ðº
k ie
Î¹Îº Î¿
Ġal ready
Ġf unk
f ra
è¨ĺ éĮ²
ãģ¨ ãģĹãģŁ
ÅĤ os
Ġsp ot
×ª ×Ļ
Ø§ÙĤ Ø§Øª
Ġrun ning
Ġk ed
erd en
f ahren
ì ¢ħ
Ġa kan
Ġt Ãªn
ĠÐ½Ð° ÑĨÐ¸Ð¾Ð½Ð°Ð»ÑĮ
ĠÑĦ ÑĢÐ°Ð½
åħ °
Ġerreich te
Ġnumero us
Ġlaun ched
Ġcu enta
ÙĦÙĬ Ùħ
Ġcon na
Ġcin q
Ø¹ Ùĩ
ĠPro t
er as
Ġpol ic
ãģ¤ ãģ®
p la
åį Ĵ
ĠpaÃŃs es
ĠRail way
ĠÐ½Ðµ Ð³Ð¾
Ġc orn
Ġat te
Ġent ered
é ½
Ġto da
i Ã«
ĠV ic
ĠFl ug
ï ½
ÛĮ Ø³
Ġincre ased
Ġmilit ar
ĠMich el
ĠM ike
Ð° Ð¶
ÑĤ Ð¾Ð½
Ġà´ °
ë¥ ¸
M al
ĠWil son
Ã© ch
Ġdest ru
ĠW ater
Ġed it
Ġdecl ar
un ts
Ġph ÃŃa
Ġfr ente
ow anie
ons o
Ġpos te
×ķ×ľ ×ĵ
áĢ±áĢ¬ áĢº
ens es
Ġpres ente
ÐµÐ· Ð´Ð°
Ø¬ Ùĩ
Ġs ze
ÑģÑĤ ÑĢÐ¾
sk e
Ġë§ Į
Ġinter ior
Ġl áºŃp
Ġk op
Ġbet ter
æıĲ ä¾Ľ
n elle
çļĦä¸Ģ ä¸ª
ĠÐ²ÑĭÑģ Ð¾Ðº
Ġch iam
Ġin fer
Ġsitu ation
Ã¼ y
r t
Ġdec ision
ÑīÐµ Ð³Ð¾
ĠP u
Ġg old
ÐŁ Ð¾ÑģÐ»Ðµ
ĠAn h
J o
at ar
Ġv iele
Ġje u
los ter
Äħ d
ĠB ot
Ġman agement
is f
ìķ ĺ
in ie
ut os
Ġh omm
Ġloc ation
Ġgiá» Ľi
ï¼Ī ï¼īï¼Į
ĠDis ney
åĪĿ ãģ®
Ġgen re
ĠFor sch
Ġfer ro
áĥĶáĥļ áĥ¡
ÐµÐ½ Ð¾Ð²
ren g
Ġweit eren
Ø§Ø¹ Ø¨
us to
ĠØ¹ ÙħÙĦ
ĠQu Ã©bec
ilm ente
od i
to ire
Ïĥ ÏĦÎ±
ĠÃ¼ber nahm
Ġl icz
Ġun os
ĠÚ© ÙĨ
Ġdeutsch e
ĠKrie gs
Ġprodu cer
H ar
M P
Ġj oh
Ġa cht
å¹ ¿
ĠÃ¶ ff
ez a
Ġch á»§
ãĤī ãģ®
ad Ã©m
Ø®Øª ÙĦÙģ
ĠAr thur
v il
Ġintern ationale
Ġdon ne
Ġst ati
ord er
çĨ ±
ãĥĪ ãĥ«
å¸ °
Ġkans sa
Ġa inda
uf en
Ã§ on
Ã¤ng e
Ġter ra
T o
ĠAr n
Ġfin anci
ĠÐļ ÑĢÐ°Ñģ
ĠÐ·Ð°Ð½Ð¸ Ð¼
Ġch iesa
qu Ã©
le it
ĠMich igan
ĠÑģÐ²Ð¾ Ñİ
ĠK os
ver b
kn own
Ġsoci Ã©tÃ©
ĠFo x
Ġqu ed
ĠV II
w ort
è¡¨ ç¤º
ÑĪ Ð°Ñı
Ã¨ g
èĪª ç©º
iog raf
ĠV a
Ã¼ ll
ĠÐŁ ÐµÑĢÐ²
ar ian
ĠN icol
ĠÐ¿Ð¾ Ñį
éĸ¢ ä¿Ĥ
ĠG ame
×Ĵ ×ĵ
ĠÐ¼ Ð¾Ð½
Ġexper ien
ĠPro dukt
Ġo uv
ĠT an
eg os
ĠK rist
ëª ¨
Ġins ieme
Ġast ron
éł ħ
ĠÙĨ Ø´
Ð¹ ÑģÐºÐ¾Ð¹
he z
ut zt
ĠEmp ire
ic ional
à¦ ŀ
Ġg am
ag ing
Î» Î®
Ġimport antes
¸ Į
ÐŁ ÑĢÐ¸
ÐµÐ¼ Ñĥ
ÑĨÐ¸ ÐµÐ¹
and ro
ĠÑģ Ð¼ÐµÑĢ
ĠØ§ÙĦ Ø¨Ø±
or al
i ata
ĠÏĢ Î¿Î»
Ġtr á»Ł
ĠDo ug
Ġpremi ers
con o
Åº dz
Ġm ud
åĲĮ æĻĤ
b les
k ov
L u
d h
e en
ore ala
ãĥ³ ãĤ¯
ĠB i
Ġs end
Ġo w
d an
ci es
Ġvo y
Ġset tembre
ĠSant iago
Ġ×ķ ×ł
Ġzaw od
æīĢ å±ŀ
Ġklim atz
gr am
ĠLu ft
Ġcar ri
éģĭ åĭķ
éĽ Ħ
Ġklimatz onen
×¨ ×ĵ
Ġb on
D av
å¹ ķ
ĠÐ·Ð°Ð¿ Ð°Ð´
sk o
Ġtrab ajo
Ġad j
Ġeing es
Dur ante
Ġb Ã¢t
Ġh und
Ġg ive
Ġl ove
çĵ ¦
Ġel los
ay an
t il
áĥĲáĥ Ĵ
ĠÑģÐµÐ± Ñı
Ã¶ ll
Ġch arg
ãĥĥãĤ¯ ãĤ¹
èª ª
ĠH ospital
ueb lo
ĠíĨ µ
Ġfolg enden
Ġm ang
ĠÂ £
iz aciÃ³n
Ġcor ps
Ã¡r ia
à®µ à®¤
Ġd apat
ĠV is
ĠO ther
ĠWars za
Ġliv ed
uj ours
ĠK ilometer
åĤ ³
Ġlá»Ľ n
ĠØ§ÙĦÙħ ØŃ
Ġb edeut
Ð°ÑĤ Ð¾Ð²
Ġpou voir
à¥Īà¤Ĥ à¥¤
eh Ã¶r
Åĳ k
ĠPr ince
ĠA kt
ĠGr uppe
S ta
à¦¬ à¦°
ĠÎºÎ± ÏĦÎ¬
Ġc ensus
ĠCh ief
S O
ĠI a
Ġ×ĳ× Ķ
Ġnew sp
ĠÐ³ÑĢÐ° ÑĦ
ust us
Ġmet ros
Ġap Ã³s
áĥ£áĥł áĥĺ
Ġenviron ment
ĠÙħ ÙĪØ³
Ã¶d ra
ha ft
ĠAb d
×Ĳ ×Ķ
w ach
kre ich
iog raph
ĠT em
Ġz uten
ĠIt aly
Ġd á»±
Ġv ac
ĠÑģÐ»ÐµÐ´ ÑĥÑİÑī
ĠJ im
zeich nung
ĠMun icip
k il
Ġ×ĳ× ¦
nis se
Ġsz ere
áĥłáĥ Ĺ
Ġvel oc
ĠSouth ern
Ġse perti
ĠIn sel
ĠAd am
ir an
ìļ Ķ
Ġt Ã©c
ib a
ĠPr ess
Ġtre at
ãĥķãĥ© ãĥ³ãĤ¹
ĠjÃ¤l keen
at in
Ġc sak
ce ae
ol ta
ĠC ross
Ġr ing
ĠV el
Ġr ul
ud io
ĠÙĪØ¬ ÙĪØ¯
ap an
ĠÑįÑĤ Ð¾Ð¹
Ġh á»£p
Ġgel ang
à¦ Ļ
Ġë ĺĲ
ÅĽ c
çĶ ¢
ĠØ¯ ÙĪÙĦ
ari as
ny t
P al
×ľ ×ķ×ª
Ġ à¸ĭ
at ers
ĠZ we
çı Ń
ce an
íķĻ êµĲ
æ² ¡
ĠM eter
ãģ¨åĳ¼ ãģ°
H y
Ġreg iÃ£o
ĠÙħØŃ ÙħØ¯
ĠÐ´ Ð¾ÑģÑĤÐ¸
ĠT ol
Ġ×ľ ×¦
ĠC ruz
ĠGen er
Ġte x
Ġt un
Ġh arm
Ġto ujours
ĠperÃŃ odo
ĠÙħÙĨ Øª
ch estra
ĠÙĨ ÙĤ
bour ne
éŃ ļ
ĠamÃ©ric ain
ÙĨØ§Ùħ Ùĩ
Ø· ØŃ
w w
ag an
åĪ Ĭ
áĢŃáĢ¯ áĢ¸
æ² Ļ
Ð¸ÑĩÐµ ÑģÐºÐ¸Ñħ
ê¹Į ì§Ģ
ra ciÃ³n
F r
ÃŃ cio
m ot
Ġc ic
k g
ĠFound ation
ĠEnter tainment
Ø±Ø¨ Ø¹
ĠIll inois
it us
èį ī
es o
ĠMit te
å® ĩ
Ġqu ick
åį ł
Ġfo od
ãĥī ãĥ©
ĠÐ¶Ð¸Ð· Ð½Ð¸
à¸´ à¹Ī
Ġinv ece
áĥĿáĥ ¤
ĠS her
ung an
ok al
ber apa
ist ische
Ġjewe ils
çº ¦
ĠAm sterdam
ĠM ov
f ore
Ġar b
Ġkep ada
Ġa lap
ĠÐŀÐ´ Ð½Ð°ÐºÐ¾
Ġs od
Ð´ Ð¾
ĠT u
ÑģÐºÐ¸ Ñı
ÑĢÐ¾Ð¼ Ðµ
ning ar
ãĤ· ãĥªãĥ¼ãĤº
ĠÑĥ ÑĢÐ¾Ð²
er te
st wa
Ġrelig ios
ÑĢÐ° Ð¼
Ġgeb oren
ĠÐ³Ð¾ÑĢÐ¾Ð´ Ðµ
Ġw ide
á» ¹
ÙĦÙħ Ø§ÙĨ
Ø§Ø¨ ÙĤ
A lex
ä» ķ
íı ¬
Ġë° Ķ
áĥĽ áĥĲ
Ġsigui ente
c jÄĻ
Ġà´ ¬
ĠXV III
. âĢľ
Ġest Ã¡n
è² »
Ġst oria
Ð¾ÑĢ Ð¾Ð¼
Ġgr ud
ĠSch m
åħ¶ ä»ĸ
ĠE ducation
×ĳ ×ķ×¨
schn itt
ra che
qu elle
re p
iss ent
Ġcomp aÃ±
ĠÐĴ Ð¾
pl an
Ñĭ Ð²
Ð ¯
ĠÑĤ ÑĢÐ°Ð½
Ġgu ard
g ol
ic ient
a a
Ġap art
à¸ª à¸¡
åĶ ±
at em
Ġbre ak
Ġsport s
v ement
ĠÑĨ ÐµÐ»
ĠnhÆ° ng
ĠR em
ĠT ab
G B
Ġm anten
Ġprogram s
oczÄħ t
Ġnot ed
om Ã¡ny
Ġáĥ ª
ĠMal ays
or er
Ð°Ð½ ÑģÐºÐ¾Ð¹
à± ĥ
Ġkle ine
Ġkommun en
ĠOt to
ĠV ietnam
Ġp ati
ĠDe ze
çµĲ æŀľ
ãĤ¢ ãĤ¤
ÑİÑī Ð¸Ð¹
ÅĤÄħ cz
Ïĥ Î±Î½
ĠTay lor
j est
iment i
ym nas
Ġb os
ĠPar liament
ar ten
Ġpe uvent
Ð¶ Ð¸
Ã©gl ise
æ¸ Ī
Ġca o
Ġal to
ĠfÃ¼hr t
×Ķ× ¨
| |
×ł ×ĵ
Ġterm s
ĠFil ip
Ġthough t
Ġinflu ence
Ġm igli
ĠV ors
Ġz aj
ÑĤ ÐµÐ½
ĠÐ°ÑĢÐ¼Ð¸ Ð¸
S on
ĠCh ris
ĠÐ½Ð° Ð±
ĠÐ± Ð¾Ð»ÑĮ
Ġestado unidense
×¡ ×ĺ
Ġê ·
à¹Ģà¸Ĺ à¸¨
Ġb áº±ng
Ã¤r en
ãģ¨ãģª ãģ£ãģ¦ãģĦãĤĭ
ÅĽ cie
Ġcre ate
Ġrepresent ed
Ġer z
Ġclos ed
ĠZ ug
ĠÐ¿ÑĢ Ð¾Ð³ÑĢÐ°Ð¼
áĥĲáĥ Ļ
Ġex iste
ç§ Ģ
ta ble
ĠÑģÐ» ÑĥÑĩÐ°
à¹Ģ à¸Ļ
Åºdz ier
ãĥ³ãĥ Ķ
ĠL ind
Ġm ah
ĠAm Ã©rica
Ġcas i
Ġappar ten
Ä± ld
ĠÐ¸ÑģÐº ÑĥÑģ
end re
ay ah
Ġtut to
Ġe chter
éģ º
ĠEl izabeth
ĠÐ½Ð°Ð·Ð² Ð°Ð½Ð¸Ðµ
Ïĥ ÏĦÎ¿
ĠprÃ©s ente
éĩį è¦ģ
4 00
w ert
áĥĺ áĥĺáĥ¡
Ġ5 6
A prÃ¨s
ĠN ie
Ġdelst aten
Ġmag gio
ex p
ĠMass achusetts
åĵ Ī
Ġabit anti
heit en
ÑĢÑĥ Ð³Ð°
Ġp owie
Ġh am
Ġnorm al
Ġ×Ķ ×Ļ×ķ
Ġcan ciÃ³n
Ġpart ies
Î· Î½
èĩª å·±
Ġvo te
Ġd Ã¨s
Ø± Ø§Øª
ĠÑĥ Ð³
D an
ĠÐ¼Ð°ÑĤ ÐµÑĢÐ¸
Ġpap el
Ġë¬ ´
Ġv ain
a al
ĠL eben
um es
ĠR ap
Ġrel ated
Ø§Ø³ ÙĬ
Å ¾
Ġbec oming
ist ischen
ge ben
na io
ĠÑħ Ð°ÑĢÐ°ÐºÑĤ
he b
ĠÐ¡ Ð²
ĠâĢ Ŀ
on as
ãģ İ
Ġpubblic ato
ç¿ Ĵ
ĠHe il
ë² ķ
Ġst amm
ĠDire ctor
ĠczÄĻ ÅĽci
Ġdro it
Ġsyst Ã¨me
ĠÙĪØ§ÙĦ Ùħ
ĠëĤ ´
ĠN u
Ġport ug
ĠÑĤ Ð¾ÑĢ
Ø§Ø¨ Ø¹
à¹Ģ à¸Ń
ow ana
rol lo
ãģķãĤī ãģ«
ìĹĲ ê²Į
istersch aften
ÑĢÑĥ ÑĪ
ent er
Ġurspr Ã¼ng
Ġdec id
Ġprincip ales
adel ph
Ġcamp ionato
s ite
Ġ ÑħÐ¾Ð´
ĠÐ¿ÑĢ Ð¾Ð¼
Ø® Ø¯Ùħ
Ġgeb ied
ë° Ķ
Ġw al
w irtschaft
ÑģÐ¸ Ð¾Ð½
ĠIr ish
are a
Ġreg istr
áº ¹
éŁ³ æ¥½
ãĤ· ãĥ¼ãĤº
pro f
Ġal ta
Ġmai or
íĭ °
as tr
å¾ Ī
ĠÎºÎ± ÏĦÎ±
Ð¼Ð¸ ÑĢÐ°
ĠÑĢ ÑıÐ´
×Ĺ ×Ķ
is her
ĠÄĳ iá»ĥm
Ġí Ĭ
at ra
ãģĦ ãģªãģĦ
ä¸» ç¾©
Ġpod czas
è¼ ĥ
ĠJan eiro
S R
Ġa present
ĠNov a
Ġp esso
Ġm ale
Ġpl ans
Î ł
B ei
cks Ã¥
y ka
ĠP ier
ĠÎµÏĢ Î¯
G er
ĠSt ati
Ġ×© ×Ĳ
ĠÐ±Ñĭ ÑĤÑĮ
ÃŃt ott
ĠW eb
Ġfor ced
ĠSt at
ĠTor onto
Ġtro isiÃ¨me
ĠA ff
Ġun ique
Ã¼ gel
ĠÐ° ÑĤ
ĠE P
at if
int on
vol v
ĠÑģÑĤ ÐµÐ¿
Ġ×ĳ×ŀ× §
Ð¾Ð³Ð»Ð°Ñģ Ð½Ð¾
on os
og a
Ġcaus ed
Ġcomplet e
ge ord
Ð¶ ÐµÐ½
Ġêµ Ĳ
ĠLat in
ĠP C
ĠG em
Ġv asta
ĠÐ¿ Ð¾Ð»ÑĮ
ĠÙĪÙĩ ÙĪ
f ab
ans ion
ĠÐĹ Ð°
Ġgi ugno
Ïģ ÎŃ
ĠK ommun
ĠJ a
åĨ ł
íĨ µ
iv Ã¤t
um ber
ĠÏħ ÏĢ
D a
Ð¾Ð» Ð¾ÑĤ
ĠÑĢÐµ Ð¶
Ġf oss
ĠÑģÐ¾ Ð¾Ð±
Ġgo als
Ġdig ital
ĠÐº ÑĥÐ»ÑĮÑĤ
Ġ×ĳ ×Ļ
Ġens immÃ¤
áĥ ¥
Ġbe ho
re ment
ed or
ĠÐº Ð°Ð½
Ġgr ad
ä¼ ¼
Ġser ve
éĸĭ åĤ¬
ÐµÐ» Ð°
Ġmajor ity
Ġgiá» ¯
Ġbel ow
Ġk Ã¼l
à®¯ à®²
Ġvict ory
ĠBe ach
ub bl
ĠÙĦ Øª
St and
ë ĶĶ
ag na
Ġhabit ants
fÃ¼hr ung
Ġeconom ic
Ð¾ÑĢ ÑĥÐ¶
ĠÑģÐ¾ÑģÑĤÐ°Ð²Ð»Ñı ÐµÑĤ
Ġgew Ã¤hlt
ĠChampionship s
Ġzitu zten
ul us
oc ks
Ġ5 4
Ġìŀ ¥
Ġhus band
Ġe ks
ĠJ ord
ĠF our
ct ive
Ġo cksÃ¥
Ġ5 3
ĠA h
. ),
Ġr áº±ng
×§ ×¨
ãĥ³ ãĤ¿
ol en
ÑĢÐ¾ÑģÑĤ ÑĢÐ°Ð½
C N
Ġconc ert
ĠÐ²ÑĢÐµÐ¼ ÐµÐ½Ð¸
ÏĮ Î½
ĠÏĥ Ïį
ĠÙĪØ§ÙĦ Ø£
y te
Ġsp esies
Ð°Ð»ÑĮ Ð½ÑĭÐ¹
ria ge
m ore
Ġwel che
èĪ ī
ar de
åĽ½ éļĽ
b ros
ĠM ak
ĠØ¨ ØŃ
Ġáĥ ©
Î¬ Ïģ
Ġestabl ish
am os
Ġqu arter
ul an
æĩ ī
å¥ ĩ
ĠCh arl
Ġv ai
Ġbr and
Ġne ut
. -
ĠS itz
Ġ188 9
æ¸ ¬
Ġdr ama
et ten
Ø§Ø¦ ÙĦ
Will iam
Ġde al
Ã¤n s
Ġv inc
Åĵ ur
Ġch á»©c
ach er
ĠÐ¼ Ð°
fl uss
Ġd raw
j Ã¶
Ġv Ã¹ng
Ġ à¸ģ
Ġpa Åºdzier
ĠS ain
Ġz og
åĨ Ĩ
Ġf ic
ÐĲ Ð½
Ġkur z
ren ce
ĠØ§ÙĦØ£ Ø³
Ġart icle
Ġarr ang
ĠG abri
ĠØ¬ Ùħ
Ġfam ÃŃlia
ĠCor ps
ĠØ§ÙĦÙħ Ø±
stit ution
Ġh eraus
ĠBere ich
y h
à´ķ àµ¾
ĠDav is
ĠGeorg ia
ĠJac ques
ug o
Ġe euw
Ã¡ b
è¡ Ģ
ĠFr ont
Ġin gen
on ce
ç °
ĠÐ² ÐµÐ´
Ġgen naio
Ġtr ade
Ð² Ð¸Ð½
k ÄĻ
å¸ ¯
ĠF ach
ĠR ena
ÙĪØ± ÙĬØ©
èµ ¤
Ġ×ł ×ķ×¡
au ch
ĠAn th
ĠC osta
ac ters
ĠëĤ ¨
m und
ÅĤ od
Ġê° Ļ
à®ķ à®®
ĠRah men
ÅĤu Å¼
Ġtec n
ĠÑĩ ÐµÑĤÑĭ
ĠÏĥÏĦÎ¿ Î½
Ġtourn ament
ĠÑį Ð»ÐµÐºÑĤ
Ġd Ã¶d
Ġdim ens
Î½ Ïī
Ġà° Ī
ud ian
ĠÄĳ áº¡i
Ġz ar
m ine
ÃŃ vel
ç¿ Į
at on
×ķ×¨ ×Ļ
Ġth re
Ġper ts
ÑĦÐ¾ÑĢ Ð¼Ð°
Ġ189 3
Ġactiv ities
res o
gr ess
b us
Ġplat form
ĠL auf
ĠÑģÐ²Ð¾Ðµ Ð³Ð¾
ĠÑģÑĤ ÑĢÐ°Ð½
ãĤ¢ãĥ« ãĥĲ
ĠP our
Ġsing er
Øµ ÙĪÙĦ
å± ¤
ë¦ ½
Ġann ual
Ġlim ited
ed on
ĠDie go
Ġ×ŀ× Ĵ
imm t
ĠÐĲ Ð»
Ġappear ance
Ġfolg ender
Ar t
æ¨ ª
Ġtyp es
Ð¾Ðº Ð°
ÙĦ Ø·
åı ¦
Ġro s
Ġh inter
Ġqu a
p ass
éĤ Ħ
198 8
ĠÏĢ ÏģÏİ
Ġaddition al
áĥĺáĥ ķ
i in
ÑĢÐ¸ ÑģÑĤ
ĠP ow
ĠW ohn
Ġ×Ĳ ×©×¨
Ã¤t te
sch utz
Ð¸Ñģ Ð¸Ð¼
Ġf Ã¸r
oc al
st one
eh l
ĠI mp
es ar
à°² à°²
Ġnec es
ĠÑĤÑĥÑĢ Ð½Ð¸
åĬ ¡
Ġë¬ ¸
O ne
Ġë Ķ
Ġcor re
ĠâĢ Ļ
l ijk
ĠL ive
uck y
ĠV as
Ġre ad
Ġpar ish
å¡ ŀ
p ers
Ġassoci ated
ĠMos c
ce j
ĠSver ige
Ġê ¸
Ġj azz
ĠÃ ĩ
Ġparticular ly
çĽ£ çĿ£
h us
Ġph áº§n
æľĢ é«ĺ
Ġverschied enen
ĠPr Ã¤sident
Ø§Ø±ÙĬ Ø®
ĠBro ok
ãĢ Ģ
Î» ÎŃ
it ten
Ġro om
ĠÏĮ ÏĦÎ¹
" '
P or
ëħ ¸
Ġverw endet
C ette
Ġpe int
Ġmiejsc owo
ĠCon ference
w ater
Ġk si
Ã¡t ico
Ġpop ol
Ġfun ction
Ġnombre uses
ĠØ¹ÙĨ ÙĪØ§ÙĨ
s Ã¥
ĠÐ°Ð² ÑĤÐ¾Ð¼
Ġhe avy
Ġpass ed
se en
à¸¢ à¸ĩ
p ad
ab ad
Ġwrit er
Ġáĥ ķ
po ol
Ġse at
Ã¢ tre
el et
Ġsed an
g end
à¹Ģà¸ Ħ
ro om
å·¥ ä½ľ
ĠÐ¼ Ð°Ð»
our ces
à¸§ à¸¡
Ġ189 4
ãĤĩ ãģĨ
w agen
ac yj
Ġel len
Ġa er
áĥĲáĥ ¥
ĠÐ³ Ð°Ð·
cl es
Ġg Ã¶re
Ġkle in
à¸± à¹Ī
Ä Ĳ
ĠÐ½Ð°ÑĩÐ°Ð» Ðµ
Ø¦ Ø©
Ġesp Ã¨ce
ak at
Ġv Ã¤r
Ġlug lio
åĭ Ĵ
ĠØ¹ Ùħ
ãģį ãģŁ
ro z
Ġj ours
Ġíĺ Ħ
èĻ ķ
Ġpra kt
Ð½ ÑĮ
Ġqu esti
inn es
ĠReg ional
ĠÄĳá»Ļ i
m Ã©ny
Ġl ista
iá»ĩ m
Ġto en
Ġch ief
Ã¼ f
ãģ¾ ãĤĮ
äºĭ æ¥Ń
Ġconqu ist
Ġv ig
ÏĢÎ¿ Î¹
ĠÑģÑĤ Ð°Ð»Ð°
áĥ£áĥ ľ
od er
Ġrelig ious
D P
å¤ ľ
Ð»Ð¸ Ð²
ĠÐ»Ð¸ÑĤ ÐµÑĢÐ°
Ġ×Ļ ×¦
ill as
ãĥªãĥ¼ ãĤ°
ĠSom mer
Ġart ists
Ġzd oby
Ġfil me
Ġm uerte
ĠHÃ¶ he
ĠSte ve
Ġcar rera
an cy
ĠS ince
Ġla ck
ĠÐ¿ÑĢÐ¾Ð¸Ð· Ð²ÐµÐ´
Ġj am
ĠSÃ¼ den
Ġb Ã¶r
ĠS au
Ã© tr
ĠRe i
Ġw oman
Ã³ ng
ÃŃt Ã¡s
×Ļ×Ķ× Ŀ
Ġt arg
×¨×Ĳ ×©
sel ves
Ġh á»Ļi
Ġins gesamt
Ġ188 5
h av
Ø§Ø¦ ÙĬ
à¦¤ à¦°
Ġoffic er
Ġwoj ew
Ã¤h l
ĠØ¬ÙħØ¹ ÛĮØª
ĠPol and
ĠÐ» ÑĥÑĩ
áĢ¾ áĢŃ
ĠK lass
ĠÑģÐ¾ Ð¾ÑĤÐ²ÐµÑĤ
ĠN ob
Ġ×ĸ ×ķ
åĸ ®
Ġ×§ ×¨
st rij
ĠC irc
Ġf ul
Ġconvir ti
Ġì¶ ľ
Ġd ow
Ġin oltre
Ġmeet ing
Ġt ale
Ġnh áºŃn
à¹ĥ à¸Ĭ
ĠstÃ¶r sta
Ġnie uwe
le ug
Ø§ Ù¾
hem at
ĠÎ± ÏĢ
Ġast ero
Ġest ilo
à¸£ à¸²à¸Ĭ
áĥĶáĥĳ áĥ¡
Ø¥ ÙĨ
ÑĤÐ¸ Ð¹
Ġs ierp
ÑĢÐµ Ñģ
ĠI f
Ã» t
ast ic
íĮ Į
ĠÙģÛĮ ÙĦÙħ
Ġk Ã©p
ÅĦsk iej
amp a
s weise
Ġsupport ed
P art
ĠPet ers
ĠW eg
Ð¾Ð³ Ð¾Ð²
Ġd azu
Ġv est
Ġrep rezent
k ur
é Ķ
áĢ ĺ
Ã¼ st
Ġgo ing
Ðº Ð¾Ð³Ð¾
à¥ ¦
Ġmar c
ĠÐµ ÑģÑĤÑĮ
Ġag ua
ĠP ont
ĠÐ¿ÑĢÐµÐ´ÑģÑĤÐ°Ð² Ð»Ñı
end i
ÑģÑĤÐ²Ð¾Ð² Ð°Ð»
Ð» Ð¾Ð½
Ġc ub
Ġem presa
ãģł ãģĳ
u ciÃ³n
ĠR aj
êµŃ ìĿĺ
ĠQ ual
à®¯ à®°
Ġl Æ°á»£ng
p et
V on
Ġso ftware
Ð°Ñģ ÐµÐ»
ĠW all
ĠÐļ Ð¾Ð¼
M ac
itu al
re k
ĠAlex and
Ġchang es
ÙĪ Ø§ÙĦ
éĥ¨ ãģ®
Ġauf grund
ãĥĸ ãĥ©
g or
ei ra
Ġill ustr
Ġtro va
à¹Ģà¸ Ĭ
ap ar
B M
Ø± ÙĤ
ìłģ ìĿ¸
Ġê ±°
Ġpre fer
( )
Ġcontro vers
Ø³Ùħ Ø©
ĠÑģÐ² Ð¾Ð¹
ol id
ĠGre ek
Ġ189 2
Ø§ ÙĬØ©
Ġtod ay
h re
Ġ×Ĳ ×ĳ
ÙĬ Ø¨
Ġto utes
Ġconoc ido
ĠÏĢ Î±ÏģÎ±
æķĻ æİĪ
í ĳľ
Ġmat ches
ĠA uÃŁ
ĠB ag
A ug
Ġaus ge
åħ¨ åĽ½
áĢ¼ áĢ®áĢ¸
ĠC el
ys is
ÑģÑĤÐ² Ð¸Ð¸
ĠÐ½ÐµÐ¼ ÐµÑĨ
od n
gr uppe
Ġprogram me
d on
k Äħ
Î¤ Î¿
ĠØ¹ Ø¨Ø¯
ĠS em
Ġnew s
g abe
ĠAir port
ĠRev olution
Ġr ond
Ġb atal
Ġthem selves
Ġiniti ally
Ġerfolg reich
ĠÑģ Ð¾ÑĤ
ĠC lar
Ġb ata
Ġsuper ior
Ð°ÑĤ Ð¾
Ġnota ble
ol ah
ãĤ° ãĥ«
ãģĵ ãģĨ
Ġcon ven
H o
å» £
Ġterrit oire
W hen
S ec
our i
ĠR el
An t
p ail
Ķ× ľ
Ġ×ĳ×ŀ× ©
ĠÑģÐ¾Ð² ÑĢÐµÐ¼ÐµÐ½
Ġin ten
Ġdefin it
ĠÐ¿ÑĢ Ð¾Ð±
ĠEng ine
ĠQue ens
R h
Ġcan al
Ġà®Ĩ à®ķ
Ð½ Ð°ÑĢ
ĠBrit ain
ĠM aster
ĠÑĢÐ°Ð· ÑĢÐ°Ð±Ð¾ÑĤ
L ac
ien ie
por te
Ġvari as
r ir
Ġ×ĳ× ĳ
ç £
ĠÎº Î¿
ĠÐ¿ Ð°Ð¼
la z
f ar
ĠSte f
v id
Ðŀ Ð±
ĠNue va
S er
ĠÐº Ð¾ÑĢÐ°
Ġpr is
Ï Ĭ
ĠL et
æĪ ¿
ç» ´
ic ations
ĠÐĴ Ð»Ð°Ð´Ð¸
ĠStra ÃŁe
ĠØ¯ Ùĩ
ĠÐ¿ ÑĥÑĤ
ĠÑĢ Ð¾ÑģÑģÐ¸Ð¹
Ġh ang
Ġt unn
ĠR ub
Ùħ ÙĥÙĨ
Ġchar acters
Ġ×ŀ× ŀ×
ÑĦÐ¸ ÑĨÐ¸Ð°Ð»ÑĮ
ran k
Ð¾Ñģ Ð»Ð°Ð²
åī ²
ĠC in
å® ŀ
Ġzw iÄħz
ÃŃst ica
Î ķ
Ġv as
ĠS ak
194 5
Ġb id
à¦ľ à¦¨
Ġattra vers
ìĿ´ ëĿ¼
ĠØ£ ÙĪÙĦ
Ġcon vers
Ġcer tains
ĠA qu
Ð°Ð» Ð¾Ð²
Ġges lacht
Ġc uy
Ġform at
v os
Ġc li
Ġte Å¼
ust in
ÙħØ±ÛĮÚ© Ø§
Ð° Ð´Ð°
Ġtrava il
amil ton
ia u
Ġg ilt
ĠØ§ÙĦØ ¢
Ī ¬
emb l
al ar
gr Ã©
cont re
å¿ħ è¦ģ
Ġbl ock
á»ĵ m
æ¯ Ľ
Ġcomp uter
ras tr
ch io
à°¬ à°¡
ĠÐ´ Ð²Ð¸Ð¶
Ġr ate
kir che
Ġc att
Ġtr Æ°á»Ŀng
ĠÑĩÐµÐ»Ð¾Ð² ÐµÐºÐ°
ri ften
ir ty
èĩª çĶ±
ÏĦ Î¹ÎºÏĮ
Ġk áº¿t
ub lique
ĠÐ» Ð¸Ð½Ð¸
ĠÐ½Ð° Ð¿Ð¸Ñģ
Ġd op
Ġrefer red
ĠÐ¼ Ð¾Ð¼
Ð¾Ð»Ð¾Ð³ Ð¸Ð¸
Ġincre ase
Ġm Ã©g
ĠM ari
ia h
ĠÐ´ Ð¾ÑĢÐ¾Ð³
w ij
ĠMar gar
ãĥĲ ãĤ¹
ĠOx ford
Ġê² °
Ġeng l
ĠGuer re
ĠO tt
ar ra
Ġcr imin
Ġcomb in
ĠÐ²ÑģÐµ Ð³Ð¾
Ġindividual s
ĠáĥĲáĥ Ľ
c ja
Ã² a
à¸« à¸¡
Ġ×ĳ ×ķ
re f
Ġbo x
Ġunter schied
ĠÎ¼Îµ ÏĦÎ±
ĠC E
ãģ« ãģ¦
åº ķ
Ġphot ograph
ĠØ¬ Ø§Ùħ
Ð± ÑĥÑĢÐ³
Ġdoc tor
Ġol imp
akt adÄ±r
ĠHar ry
ãĥ¼ãĥ ģ
Ġmiesz kaÅĦ
A P
air man
ĠÎ´ Î¹
ĠColomb ia
ĠÐĲÐ½ Ð´
Ġh ours
ĠÐ°Ð² ÑĤ
Ġener gy
Ġm uito
sta at
ĠgÃ©n ero
m ission
Ġoper ated
å¥ ı
ĠÐ¾ Ð³
or ges
ÃŃ mp
en cy
Ġ189 1
l ater
C al
è« ¸
ÐµÑĢÐ² ÑĭÐµ
Ġer g
Ġl ines
Ġm useum
Ġre un
ĠLew is
Î¹Îº ÏİÎ½
éħ ¸
ĠMann schaft
Ġtr Æ°á»Ľc
è® ®
Ġconta ins
ĠFran kreich
Ø§Ø¯ Ø±
Ġvo et
×¤ ×Ļ
Ġph áº£i
ator io
ĠT ime
Ġ( âĢŀ
ig os
ĠÑįÐº Ð¾Ð½Ð¾Ð¼
ä¾ Ŀ
×ł ×ķ
Ġhel ped
ĠL ittle
Ġz elf
Ð¼ Ð¸Ð½
Øª ÙĩØ§
Ġhousehold s
ie ke
ĠSch auspiel
ÑĢÐ¸ Ð½
Ġmost ly
ĠÑĢÐ°Ð±Ð¾ÑĤ Ñĭ
ãĤĴ åĭĻ
J oh
æī į
ĠMar sh
b ie
Ġz ab
Ġsel ected
Ġgi áº£i
Ġint it
Ġ à¸Ī
Ġjord br
Ð» Ð°Ð½Ð´
Ø§Ø³ ÛĮ
ĠØ¹ Ø´Ø±
ler a
Ġ5 7
ĠØ¨ Ø®Ø´
áĥĶáĥĳ áĥ£áĥļáĥĺ
ĠUn iti
æķ £
ĠH uman
Ġtr Ãªs
Ġoffer ed
Ġ×Ļ×© ×¨×Ĳ×ľ
ãĤª ãĥ³
ĠR at
Ġrep ubl
Ġadministrat ive
ĠÐ¾ Ð·
Ġ×Ķ× Ŀ
ĠÑĦ Ð¸Ð»
D S
ĠE he
196 0
ìłģ ìľ¼ë¡ľ
ÑģÐº Ð°Ð·
ä¹ ī
Ġclaim ed
Ġsh ot
ĠW iel
Ġre cht
Ġver st
im an
ĠS und
æ¸ ©
Ġsucc Ã¨s
Ġ184 8
ĠHo a
Ð» Ñĭ
ì ½Ķ
Ġlar ger
ap h
ĠÙĪ ÙħÙĨ
ĠÑģÐ¿ Ð¾ÑģÐ¾Ð±
å² ©
ĠØ« Ùħ
áĥĶáĥĿ áĥĳ
Ġíı ¬
ĠpÃºbl ico
O d
Ġcaract Ã©r
ĠC hem
Ùĥ Ùħ
ard i
ib ile
è£ ģ
Ð¾Ð¿ Ð¾Ð»
Îµ Ïħ
ĠespaÃ± ol
ian e
ĠÐĺ Ð²
al ten
yn ch
Ġbe ide
Ġpre f
ĠÑģ Ð¾Ð´
Ġpo ÅĤoÅ¼
rit er
it ts
Ġp ÅĤ
Ġf elt
ĠÐºÐ¾Ð½ ÑĨÐµ
Ġev idence
D ep
Ġmilit aire
all i
ute bol
ĠF erd
Ġth Æ°á»Ŀng
ĠS ac
Ġc orso
ĠN ick
ĠáĢ ľ
ĠP ot
ĠR on
Äħ pi
Ġer ed
Ġsour ces
S m
ĠL am
Ġexemp le
c in
Ġmus ique
ier ungs
Ġdire kt
Ġs ott
km al
szy st
Ġà¤Ĺ à¤¯
Ġel a
Ġcom and
ivi Ã¨re
ä»ĸ ãģ®
Ġde port
Ġde te
Ġpat r
ĠÑĤ Ð°Ð½
éł ĥ
L iste
ĠMar ine
Ġà¦ı à¦ĩ
ĠU s
la ch
Ġam p
Ġ à¸ķ
Ġ18 00
198 7
pos ition
Ġsex ual
il an
Ġt ari
×¨ ×¥
198 6
Ġeff et
stell er
ĠKir chen
Ġre vol
akar ta
Ġtro ops
ĠS ied
ĠÐ¡ ÑĢÐµÐ´
Ġph Ã¢n
Ġdic embre
Ġord in
ĠK orea
éŁ ĵ
Ġtr Ã¬nh
ĠÐ¿ÑĢÐ°Ð² Ð¸ÑĤÐµÐ»ÑĮ
ĠD ra
ev o
l on
Ġre in
Ã¤t ze
ĠKrie g
Ġà§§à§ ¯à§
ĠI ra
à®³ à®¤
198 5
ĠØ¨ ÙĬ
Ä± na
Ġpre vent
Ġkom t
od or
éľ Ģ
P s
Ġa ur
Ã³ a
n Ä±n
Ġter r
Ġm istrzost
ĠD abei
Ġl id
Ġ188 8
×Ĳ ×ľ
Ġp ose
ÑĨ ÑĥÐ·
Ġunivers ity
Ø§ÙĨ ÙĪÙĨ
l ingen
zi ale
Ġzo als
çĽ® ãģ®
Ġtwe ede
Ġc ycl
Ġpersonn es
ĠÑĪ ÑĤ
pol it
ĠS anto
Ġla ut
ĠÐļ Ð¾ÑĢ
Ġe con
Ġst ore
ĠÐ¸Ð¼ ÐµÐ½Ð¸
ĠÐĵÐµÑĢ Ð¼
D r
Ġf Ã¶re
Ú© Ùĩ
Ġbah wa
; /
ëŀ Ģ
Ġsepar ate
Ð¸Ð» Ð¾ÑģÑĮ
ĠCo ast
Ġ×Ķ×© ×ł×Ļ
à¸²à¸ Ķ
Ġbel ang
ĠWeltkrie g
Ġcas es
ĠÐ¸ÑģÑĤÐ¾ÑĢÐ¸ Ð¸
ÑĢÐ° Ð±
Ġprim i
Ġthe ory
Ġ×© ×¢
Ġjun ior
Ġsc ene
ĠK y
ĠÙĨ Ø³ÙħØ©
Ġplats er
Ġ×Ķ×ŀ× Ĳ
Ġgro te
Ġlib re
ect ive
ãĥĻ ãĥ«
Ġlong er
iz on
ater ial
çİ ī
O l
ÐµÐ½ ÐºÐ¾
Ġgebru ik
Ġ1 10
Ġfil osof
à¤¾ ,
ĠAn ne
ĠÐ± ÐµÐ»
eg as
ĠÑĤ Ñĭ
áĥķ áĥĶáĥļ
Æ°á»Ľ ng
Ġis ol
Ġf it
zen iu
d ec
am atan
ĠE th
ë² Ħ
ear s
lio te
Ð¸ÑĤ Ð¾
ben e
or ation
m Ä±ÅŁtÄ±r
Ø¸ Ùħ
ul ier
Ġg á»ĵm
Ð° Ñĥ
iss ant
Ġremain s
å¢ ŀ
ĠØ§ÙĦØ¹ Ø§Ùħ
Ġpresent a
ÐµÑģÑĤ ÑĮ
ĠTel ev
Ġnum er
Ġà°ħ à°¨
Ġbelie ved
Ġacc ident
Ġr ival
ĠE p
om me
ĠÄĳ iá»ģu
Ġerricht et
ÏĮ ÏĦÎµÏģ
ãĤ« ãĥ«
ĠspÃ© ci
ĠUn a
å¤§ éĺª
éģ ł
Ġb rief
ĠW in
ĠÐ° ÐºÐ°Ð´ÐµÐ¼
ar ak
ĠÑĢÐ°Ð±Ð¾ÑĤ Ð°Ð»
ĠK á»³
ĠProvin z
Ġstycz nia
Ø§Ø¨ ÙĦ
ä¸Ń åľĭ
ĠÙ¾ Ø³
Ġl itt
Øª ÙĦ
Ġin tr
Ġ5 8
Ġë ©
ãģ¨ãĤĤ ãģ«
Ú© ÙĨØ¯
ĠØª Ø¬
o od
áĥĺáĥ łáĥ
áĥ ¦
qu et
Ġtem a
b ec
arm Ã©e
ĠLe ip
æ¸ Ľ
×Ĳ ×Ļ×Ŀ
Ã« l
Ġdist ance
ĠÑį ÑĤÐ°
è¼ ¸
ind re
Ġstrat eg
ĠÐ¼Ñĥ Ð·
ĠR olle
C omp
Ġch Ã¢teau
ut il
ĠÐ° Ð»
ĠØ¨ÙĪØ¯ Ùĩ
olog i
Ġho áº·c
ãĢį ãĢĤ
Ġra ces
ĠFran Ã§ois
Ġper f
æľĢ å¤§
ĠÑģ Ð´ÐµÐ»
Ġra ised
×¤ ×Ķ
Ð¾Ð» ÐµÐ²
Ġho og
Ġins ect
ĠB ran
Ġà®Ĩ à®£
Î¼ ÏĨ
è¨Ń ç½®
ĠÐºÐ¾Ð» Ð¸ÑĩÐµ
ĠKre uz
Ġm ise
ĠÑģÑĤ Ð¾Ð»
ÐµÑĢ Ñĭ
Ġik ke
E L
è ĵ
Ġtiáº¿ p
ÙĨ Ø§ÙĨ
ãĤ¤ ãĤ®
Ġpol icy
I P
×© ×ª
Ġver z
ĠÑĢÐ° Ð´Ð¸
ud ni
åĽł æŃ¤
Ġs ess
Ġáĥ¡ áĥĲáĥĽ
Ð¸Ð½ ÑģÐºÐ¾Ð³Ð¾
ĠF ield
×¨ ×ķ×ª
sche in
ĠE arth
M el
Ġë¶ Ī
zy sk
ĠÐ´Ðµ Ð¿
ĠS ummer
ine a
I r
lem agne
à¸Ľ à¸£
Ð¾Ð½ Ð´
Ġal ter
íĺ ķ
ĠN on
m ans
Ġmo y
ic er
stant in
Ġpri x
ific aciÃ³n
Ġ à¹Ĥà¸Ķà¸¢
à¸¶ à¹ī
ĠM iguel
Ñı Ñģ
rest ling
Ġ18 50
Ġ. ..
è¨Ń è¨Ī
æŃ£ å¼ı
zy ma
à¸¸ à¹Ī
éĵ ģ
ĠÐ¼Ð¾Ð» Ð¾Ð´
ãĤ ¥
op tera
amm lung
å¤ļãģı ãģ®
×Ļ×ł ×ķ
ĠØ¹ ÙĦ
èª Į
Ùĥ ÙĬØ©
ĠT ony
Ú¯ ÛĮØ±
ĠØ¨Ø§Ø² ÛĮ
à´° à´¤
Ġm ouv
é«ĺ çŃī
198 4
Ġinter pre
à¸ļ à¸ļ
ĠMan chester
Ġth á»§
to k
Ġìĥ Ŀ
op ort
aj n
Ġmell an
neh m
ĠPhil adelph
Ġka up
z ed
ãĥ¼ãĥ Ń
ĠPol sce
ÏģÎ¿ ÏĤ
ĠS M
Ðł Ð¾Ð´
Ġmuch os
èĩ º
ÐµÑģÐ¿ ÑĥÐ±Ð»Ð¸
im as
J ac
Ġo v
Ġmed ical
j ahr
Ġnue va
vÃ¤ stra
Ġvol ume
Ġm ia
P ierre
d am
Ġweek s
Ġsqu are
ib r
Ø² Ø¨
ĠF eld
ĠSch loss
Ġalbum s
ĠO sten
ĠGo od
Ġkonn ten
Ġmin im
Ġà¤Ĩ à¤¹
ĠMo untain
in ya
Ġw eg
Ġdem i
L and
Ġprod uk
Ġal ways
ÐµÐ» Ñı
èĬ ¸
Ġh ace
Ġse Ã±
ĠÐº Ð°Ð·
Ð¾ÑĢ Ð¾Ð¶
Ġerne ut
Ã© o
Ð½Ð¸ÑĨÐ¸ Ð¿
lac ement
Ġp emb
Ġdi oc
ÐµÐ½ Ð½ÑĭÐµ
ÐµÐº ÑĤÐ°
ĠSing ap
ĠGol den
æĪĲ åĬŁ
ass in
ci er
ãĥĭ ãĥ¥
Ġgener ale
irtsch afts
h Ã¶r
è¿ Ķ
Ġfab ric
und ed
ann es
Ġest as
Øª Øµ
Ã³r ia
ĠÐºÐ° Ð¶Ð´
Ġped ig
è© ŀ
is u
ĠÙ¾ ÛĮØ´
Ġp ad
ĠEnt wicklung
Ġt ul
un te
Ġfinan cial
b ell
k ins
ĠE U
Ġmis ma
Ġsk ulle
èĲ ¬
w ide
M ic
ÑİÑī Ð¸Ðµ
ĠU EFA
Ġgr Ã¼nd
ãĥ³ãĥ Ĺ
Ġcer em
Ð¸ÑĤÑĮ ÑģÑı
ĠáĢ Ķ
ĠT rib
ĠÐ¿ Ð¾Ð½
Ġt Ãªte
Ġent sp
ãĤ Ĩ
ĠWest en
Ã©t ica
Ġpartic olare
Ġà° İ
b are
Ġvari ety
Ø± Ø³
Ġfail ed
×Ļ×ŀ× Ķ
Ñĳ Ð²
áĥĶáĥĳ áĥĺáĥĹ
ĠB C
d iv
Ø« ÙĬØ±
ri en
ed ing
à¸Ĺ à¸³
×Ļ×ķ×ª ×¨
Ġ5 9
ĠPo int
Ġtras fer
ãĤ¤ãĤ® ãĥªãĤ¹
Ġu cc
ĠU ng
N ational
ĠÐ² ÑģÑĤÑĢÐµ
Ġdel eg
Ġleav ing
ac ia
ĠC O
atr ice
ãĥĵ ãĥ¥ãĥ¼
r inning
ed o
ĠL eit
ĠW eit
ĠÎº Ïħ
Ġlist op
×ĳ ×ķ
he its
ĠÙĥ Ø±Ø©
ĠJ ak
Ġh Ã¤uf
Ġprov ides
ĠÐľ Ð°ÑĢÐ¸
ad an
Ġsubsequ ently
ern er
Ġje une
Ġn ine
B as
ĠÐ¼ÐµÐ¶Ð´ ÑĥÐ½Ð°ÑĢÐ¾Ð´
U N
Ġfor eign
rinning som
ĠCar lo
ran ce
Ġa ument
ĠE en
ĠZ iel
Ġap pr
. âĢĿ
Ġ×ľ ×ł
Ġco de
t own
im ar
id ers
Ġs áº£n
Ġserv ing
Ġkul lan
Ġj Ã¤r
z te
ĠHot el
ĠÙĪ ØŃ
opp a
Ïĥ Î¯Î±
z ett
Ġdis cipl
Ġìŀ ĳ
Ġzitu en
ĠÑģÐ¾ Ñħ
ĠHol lywood
×ĳ ×ķ×ĵ
Ġacc ount
é Ĩ
Ġse izo
n ot
Ã¼r t
Ġfrances e
ur ies
à°° à°¤
Ġhab er
ĠÐ¸Ð¼Ðµ ÐµÑĤ
Ġperten ec
I M
Ġon line
ç¾İ åĽ½
Ġb Ã¶l
ä¸Ģ åĢĭ
ë° ľ
Ġor ig
Ġ188 6
ien za
ĠAr ten
Ã¤ gt
ĠB esch
ĠOr der
ä¸Ģ æĸ¹
ul as
Ġvil ket
Æ° a
æł ª
stand ing
ĠÐºÐ¾Ð¼ Ð¼Ñĥ
ĠBra zil
esse ur
av ia
Ġg at
Ġv ul
il de
Ã¥ t
ãģĭ ãģ¤
ĠMalays ia
ik el
ĠÑģÐµÐ¼ ÐµÐ¹
Ġot ra
A ustr
Î ļ
ĠCent ro
ens Ã¤
ak h
Ġst arb
×¢ ×Ķ
é» ŀ
æ±º å®ļ
í Ĺ
Ġkw iet
Ġg un
sch ap
ĠProgr am
ĠÐ·Ð°Ñī Ð¸ÑĤ
led ge
ĠÐº Ð½Ñı
à¸ĩ à¸ª
ult ure
Ġl ink
u u
Ġch ev
ĠØ§ ÙĪÙĦ
Ġa w
ord on
ä¸Ģ ä¸ª
at um
Ã© poque
ĠÐ¿Ð»Ð¾ ÑīÐ°Ð´
ĠÑĤ ÑĢÑĥÐ´
Ġìļ °
Ġqu asi
Ġbiz tan
ÐµÐ½ Ð½Ð¾Ð¹
Ġalc une
è¤ ĩ
ĠF air
ĠAustr ia
ional i
s et
Ġz al
Åĳ bb
M ad
ÑĥÑģ Ð°
Ġbr ing
it ori
Ġlie ÃŁ
ĠKais er
é ¹
Ġetx ek
Ġth á»ĳng
Ġâ ĶĤ
à¤° à¤®
éĢļ å¸¸
ar zy
R C
Ġ *
ĠÙĪ Ø§ØŃ
Ġwe er
re al
ĠSch iff
ĠM ore
Ġco al
Ġgr Ã¢ce
f ried
ĠBern ard
Ġident if
éĢ ±
we hr
Ġtak es
Ġtal Ã¡l
èŃ ĺ
f att
Ð½ Ñİ
ib il
Ġc Æ¡
Ã¡nd ose
ĠIntern acional
as zt
ici ans
åį ķ
Ġcar ried
ÅĤ ÄĻ
ĠSe a
zeit ig
ion y
ĠÑģÐ¿ Ð¾ÑĢ
ĠAth let
ama an
Ġud aler
S o
Ġlist ed
à¸Ļà¸ Ħ
organ isation
Ġà° Ĵ
A A
Î´ Î¹Î±
á»ĵ i
Ġturn ed
Ġ ~
op ol
Ġconn u
ĠÐ¿Ð¾Ð· Ð²Ð¾Ð»
k omm
ĠìĽ Ĳ
ĠÐ½Ðµ Ð±
is esti
ich i
Îµ Ïį
Ùģ Ø©
im er
ä» ½
Ã´ ne
p an
ch ia
ĠN Ã¤
ĠBo y
ĠÐ¿ÑĢÐ¾Ð² Ð¾Ð´
Ġf res
Ġsta bil
ie v
Øº ÙĬØ±
Ġg mina
ib e
ev in
Ġenf ants
ĠM any
ter o
av i
Ġlo áº¡i
Ġrequ ire
Ġchampion nat
ĠP el
Ġus es
ub b
Ġant igu
u esto
Ġch iáº¿
uy á»ģn
å¸ ¶
re v
ann er
Ġhij o
Ġmayor ÃŃa
åĦª åĭĿ
ks en
à® ĩ
è¿ ĺ
Ġimmed iat
Ġsc reen
ik ka
ros oft
" "
j ets
ĠJew ish
is et
ion o
ĠBe ispiel
est ellt
stell ing
Ġil k
in ale
Ġì§ Ħ
ãĤ» ãĥ³
Ġmais on
ic on
ald o
Ġm art
Ø´ ÙĨ
Ġvir t
u Ã©
ĠJap on
est Ã¤
è² ¡
ĠSe e
ak k
ĠÐ± Ð°Ð·
ãĥ¼ ãģ¯
Ġexper ience
à¤° à¤£
çĽ Ľ
Ġf inden
ĠÐŁ Ð¾Ð»
er ade
å» ĥ
Ġà¦ Ł
or ta
Ø¬ Ø§Ùħ
Ġins besondere
ç´ ¢
ol an
ãĤĬ ãģ®
æ¹ ¾
Ġsett lement
Ġear ned
qu ar
Ġ Úĺ
Ġs vol
ĠLand kreis
Ġz us
Ġsu it
ĠPr ime
ĠØ³ Ø·ØŃ
Ġf ais
Ġlocal idad
ĠA venue
ÑĩÐµ ÑģÐºÐ¾Ð¹
à¥Ģ à¤Ĥ
ĠÐ´ ÐµÐ½ÑĮ
ÛĮ ÙĪ
è·¯ ç·ļ
Ġeinges etzt
ĠD in
l ow
ĠNederland se
Î¹ Î»
ĠL ou
w and
Ùĥ ÙĪÙħ
Ġpierws zy
ĠØ³ Ø§Ø®
Ġla c
im ir
Ã©ri que
Ġter ror
×ĸ ×ķ×¨
Ġl y
ĠNe u
amm ad
ĠB alt
ĠAn s
ĠA G
ra h
geb aut
ĠÑįÑĤ Ð¾ÑĤ
Ġpresent ed
F rom
ĠÙħ ØªØ±
ÏĮ ÏĦÎ·
Ð°ÑĢ Ð´
æį ķ
Ġbir th
ëĤ ´
ĠB red
Ġtr ung
Ø¹ Ø±
ĠfjÃ¤r ils
Ġgrup os
Ġl is
Ġo ur
St ar
Ġtijd ens
v ard
Ã¡r m
Ð°Ð¿ Ð°Ð´
ĠÐ¼Ð¾Ð¶ Ð½Ð¾
Ġe as
p ark
Ġal leg
Ġsp os
ĠV inc
Ġform s
ÑĤÐ¸ Ñı
Ġsec ara
Ø§Ùģ Ø¸
Ġà®ħ à®¤
le i
ĠÐ¼ Ð¸Ð½
ĠÐł ÐµÑģÐ¿ÑĥÐ±Ð»Ð¸
pr ia
ĠStad ium
à¹ĥà¸Ļà¸ Ľ
gl ise
ãģ ¥
Ġhac er
g as
lÃ¤ ng
èĥ Į
Ġrecord ing
Ð¸ Ð³ÑĢÐ°
ĠÐº Ð°Ð¿
E M
Ġ ug
x i
Ġw alk
ang o
ĠB att
Ġh uyá»ĩn
oc z
Ġital iana
ĠM ul
Ġjap on
Ġsc onf
ĠÑĢ Ñĭ
ĠMos k
Ø§Ø ¤
ĠÎ± ÏģÏĩ
ĠÎ Ī
icht et
u ft
Ïģ Î®
Ã¥r d
ĠR eb
ãĤ¹ ãĥļ
ust on
or um
Ġdesar roll
Ġìĸ ´
att ung
Ð¾Ð² Ð¸Ñĩ
ç§ ĭ
ĠS et
Ġo ss
Ġcult ura
F orm
çĪ Ĩ
ĠOff ice
ĠJ azz
Ġn ames
á»ĵ ng
ÐµÐ½ Ð´
ãĥĬ ãĥ«
ĠÐļ Ð°Ð·
av am
äº¤ éĢļ
ul en
Ġ×Ķ×Ĺ ×ľ
ie c
ell igen
å¤ļ ãģĦ
ĠTur k
Ġsh own
j aw
Ġk ab
cl ass
Ġpu ol
Ġto im
ÐµÐ½ Ðµ
ant ry
to ut
Ġ188 7
Ġcomenz Ã³
èĢĥ ãģĪ
Ġho ofd
ï¼ Ŀ
Ñħ Ð°
r us
ĠE astern
æ² ¿
ro f
è² ¬
ĠÐ·Ð° Ð±
ag it
ĠÑģÑĤÑĢÐ¾ Ð¸ÑĤÐµÐ»ÑĮ
Ġoper ation
ÑĨ Ð¾Ð²
ĠwrzeÅĽ nia
ĠÙĪ ÙĦ
Ġam pl
Ġd one
ĠÐ½Ð° Ð³ÑĢÐ°
Ã¤ k
Ġakt iv
z eg
Ø§ Ø©
Ġì µľ
ãĤ¯ ãĥŃ
ĠÐ¿ÐµÑĢÐ² ÑĭÐ¹
ãģĵãĤĮ ãģ¯
à¸« à¸§
Ġsc ulpt
ĠÎº Î¬
ĠÙĪ Ùĥ
áºŃ u
Ġf eb
ë¦ °
ãĤ· ãĥ³ãĤ°
inc oln
ĠD Ã©
ĠL abor
Ã©rie ure
åħ±åĴĮ åĽ½
é Ĵ
Ġ×Ķ×ŀ× §
Ïĥ Î¼
ì ¼
Ġg Ã©
e u
Ġpor que
Ġrec ent
Ø¨ ÙĬØ©
Ġsk ÅĤad
çµĦ ç¹Ķ
St ation
i ant
Ġpos ta
ĠÙħØ± Ú©
ãĥ³ãĥ ģ
Ð¼Ð¸ ÑĢ
æ¼ ¢
Ġt áº¿
ãĤ¤ ãĤ¹
ĠAl ter
ĠÑģ Ð¸Ð¼
ØªØ± ÛĮÙĨ
ĠNet work
Ã© tique
ann y
Ġmil es
Ġk is
In tern
Î³ÏģÎ± ÏĨ
ãĥĪ ãĥ©
Ġm ight
ĠÐºÐ¾ÑĢ Ð¿
æīĢ æľī
ê° ģ
Ġ×Ķ×¨×Ĳ×© ×ķ×Ł
ĠdÃ©velopp ement
ament i
Ġen se
Ġra ison
Î³ Î³
g reg
Ġk eh
ĠÐľÐ¾ÑģÐº Ð¾Ð²
Ġver te
ÑĤÑĥ ÑĢÐ°
æľĢ çµĤ
Ã©ro Ã¯
Ð¾Ð± ÑĢÐ°Ð¶
Ġen pres
ec ta
ĠP ower
d ienst
Ïģ Î¿Ïħ
Ġter re
sch en
ru it
Ġgr ado
eng ono
ÃŃst icas
Ġnaz ionale
ä¸Ĭ ãģĴ
v ik
Ã¡ f
ch em
a Ã§Ãµes
ĠÚ©Ø´ ÙĪØ±
M od
Ġ15 00
Ġpr on
ĠÐ° Ð²Ð¸
Ġjordbr uks
uy á»ĥn
Ġc ÃŃm
à¤ Ĩ
ĠÑģÐ²ÑıÐ· Ð¸
Ġbiztan le
Ġres ults
g han
ĠD ienst
Ð³ Ð¾Ð´Ð°
Ġc ut
Ġla quelle
Ġremp orte
be eld
ese hen
ĠÐ± ÑĢÐ°ÑĤ
w Ã¤r
Ġs ites
gesch ichte
ĠÙĤ Ø¯Ùħ
Ġ188 4
Ð²Ð¸ Ð³
Ð¸ÑĩÐµ ÑģÐºÐ¾Ð³Ð¾
at Ã¡s
Ġd y
Ġnu ova
U ne
å¼ķ ãģį
Ġg Ã¶
Ġder iv
Ġ×© ×Ľ
Ð½Ñı Ñı
ãģĹãģ¦ ãģĬãĤĬ
Ġfig lio
an es
ĠÐ¾ÑĤ Ð¿ÑĢÐ°Ð²
at as
éĿ¢ ç©į
Ġa chter
åŁ ·
ĠrÃ©s z
ĠR y
ĠBeg inn
l ist
æ¤ ľ
éĢ ī
Ġtechn ology
ĠÐ¿ÑĢÐµÐ´ Ð¿ÑĢÐ¸
Ðµ ÑģÑı
op her
à®¯ à®®
Øª Ø¯
Ġexp ed
Europ e
rit ann
Ġte h
la us
Ġfin ally
ãĥ¼ãĥ Ĩ
els on
Ã¤ll en
Ġsi ed
uv or
un j
ue en
Ġe astern
inc ie
ĠM ond
Ġm ostr
ĠMar s
innes ota
se x
n ell
th a
Ġs is
Ð²Ð¾Ð» Ñİ
Ġk ay
å¤ Ħ
ĠÐ²Ñĭ Ð¿Ð¾Ð»
åĽ ¾
Ġ×¢ ×¦
ĠF ur
hat Ã³
×¨×Ľ ×ĸ
ĠG un
à°² à°¨
ãĥª ãĥ³
ber ts
Ġfur ent
Ġ×Ļ ×Ķ
Ġdav on
ĠdÃ© l
Ġf osse
Ñĥ Ð²
Ġt as
ĠOr igin
Ġmed iante
ĠØ¨ Ùħ
yc le
an an
ÙĬÙĨ ÙĬ
Ġse is
á»ĳ n
en as
ëĲĺ ìĸ´
Ġproblem s
U m
Øª ÙĪ
ĠÑĤ Ð¾Ñĩ
ĠL og
ĠT enn
Ġg are
ver kehr
ä¼ ´
ĠScot land
å° ģ
Ġf ert
ĠHels ing
ĠSt one
ĠPak istan
eg gi
Ġ9 5
æĽ ¿
Ġvil Ã¡g
S eit
ang kan
j ourd
Ã Ĺ
ĠÐ²Ð¾Ð· ÑĢÐ°
c ell
èĹ ©
Ġen qu
ĠfjÃ¤rils art
ĠÐ¾Ð± Ñĭ
ãĥŀ ãĥ³
Ġer m
hr te
ĠÐ¾ Ñħ
ĠZ o
æ³ °
ì ¸
ĠGon z
Ã¶rt Ã©n
è¨Ń ç«ĭ
/ /
ĠÎ´ ÎµÎ½
ĠPart ido
ĠSta at
Ġf ille
à¸¢ à¸§
ãģªãģĮ ãĤī
Ġch art
Ġsoci ety
ĠpÃ³ÅĤ noc
ab ile
ĠN ev
Ġrecord s
Ġáĥ¨ áĥĶáĥĽ
w ich
å° Ī
Ġba ÄŁ
ĠA C
ĠR hein
lin es
ĠReich s
ĠD utch
ĠØ¬ÙĨ ÙĪØ¨
Ġinner halb
ĠK han
ĠV ere
ĠEr ic
ĠÐ½ Ð¾Ð¼
D i
ĠÙħØ¬Ùħ ÙĪØ¹
l Ã³
M in
Ġmet ri
Ġmat r
Ġcor po
ĠW ass
erd er
Ġman era
ĠReg ierung
Ã¤s ent
ĠÐĴ Ð°Ñģ
A L
it ek
Ġëħ ¸
éĢ Ķ
Ġcar re
Ġs ant
Ġ187 1
Ø¨ ÙĬØ±
Ġdu as
R O
ĠÏħ ÏĢÎ¿
198 2
ĠN ations
Ġm iddle
Ġwsp Ã³ÅĤ
æ¸ ¸
ij f
Ġreti red
Ġmas ter
z in
j Ã¤n
Î¼ÎŃ Î½
ĠS C
il ing
ĠD aar
ĠG las
c ional
áĥķ áĥĺáĥ¡
ĠG egen
ĠM es
per or
ĠM utter
Ġr ugby
Ġed ition
ĠSta aten
ĠT am
Ġz ag
×§ ×ĵ
ĠInde pend
qu i
Ġpat ron
Ùĥ Ø³
ass o
Ġ187 8
Ġt av
áĥĺáĥĵ áĥĲáĥľ
Ġdel iver
ĠD ig
iv ia
ĠÐ¿Ð¾Ð» Ð¾Ð¶
ĠØ§ÙĦÙħ Ø¬
Ø§Ø±ÛĮ Ø®
ĠØ£Ùĥ Ø«Ø±
ĠÐ½Ð° ÑģÑĤÐ¾Ñı
Ġg ut
inter no
Ġfem me
Ð°Ð»ÑĮ Ð½ÑĭÐµ
ĠÑĩ ÐµÑĤ
ĠØ§ÙĦÙħ Ø³Øª
zy ÅĤ
Ġfin ales
iw ers
Ġinv ent
ĠG Ã¼
198 3
Ġëĭ ¹
P ada
Ġs ino
Ġmain ly
Ġlat ter
ĠÛĮÚ© ÛĮ
f red
Ġ8 5
åįĴ æ¥Ń
ãģª ãĤī
p ur
ĠDev elop
Ã¡r s
ĠØ ¸
iz in
Ġ186 4
ĠÃ©t udes
ĠE du
Ð¸Ð´ ÐµÐ½ÑĤ
ĠZ ur
Ġs and
Ġnear ly
C ap
ĠMot or
ec a
åħ ¼
ĠTrans port
ĠP uerto
ÏĦ Î¹ÎºÎ®
Ã¼hr t
ĠBo ok
Ġparticip e
Ä© a
Ġdi o
Ġpra w
Ġconf ir
Ã© vel
Ġdiff eren
N GC
Ġcor por
Ġprote ction
Ġsc rit
Ġê° ķ
Ġr ig
Ġh vor
R T
ĠL ight
b ru
ĠÑģÑĤ Ð°ÑĤ
ĠÙĩ Ø±
éĹ ¨
ĠBevÃ¶lker ung
ĠIn n
Ã§ u
ÑģÐº Ðµ
Ġar ts
ak en
Ġnam n
å¹´ éĸĵ
åº «
Ġs ector
Ú© Ø±
Ġc res
pro wad
Ġszer int
à¦ĵ à¦¯
Ã© on
Ġa lem
Ġal lo
Ġo or
Ġ6 6
×Ĳ ×ķ
Ġgio v
Ġok res
Ġwie ÅĽ
Ñĥ Ð¼Ð°
qu ia
is ia
Ġass im
ĠB our
ĠSch rift
à®Ł à®©
c ole
ĠÄĳ i
ãĥ¬ ãĤ¹
æģ ©
ĠÃºlt ima
ĠM orr
Ġ188 1
æĮ ¯
Ġsa at
à´Ļ àµ¾
o j
Ġg j
Ġr esto
Ġà¦ı à¦°
à®ķ à®¤
Ġliv re
ĠFern ando
Ġdi ret
×¤×§ ×Ļ×ĵ
ĠÑĦ ÑĢÐ¾Ð½
us u
Ð¼ Ð¸ÑĤ
ĠFin al
ĠMus lim
ĠKir ch
áĥ£áĥ łáĥ
ĠO ok
é» ¨
é» Ħ
ib ility
é¤ Ĭ
ĠÃ© x
ĠrÃ© fÃ©r
M L
Ġbr ig
Ġgradu ated
ta ciÃ³n
è² ©
ĠáĢ ħ
ĠK Ã¶l
ê² ©
un u
Ã Ī
ya ume
Ġter Ã¼let
Ñģ ÐµÐ»
ĠB edeut
Ġb erk
Ġpla ces
ar in
Ġc ient
Ġh ere
è£½ ä½ľ
Ġexp lo
Ġs áº½
Ġgegen Ã¼ber
en is
ÙĨ Ø´
Ġa ik
oc ke
ĠÐ½Ðµ Ð·
Ġremain ing
ãĤ¢ãĥ«ãĥĲ ãĥł
Ġ×ĳ ×Ļ×ª
ban k
Ġl Ã½
ĠOl imp
ĠÐ½ ÐµÐ¹
Ð°Ð½ ÑĮ
æĪĲ çĤº
ĠÐ¾Ð¿ Ð¸Ñģ
ĠHit ler
ĠdÃ© fin
Ġu cz
Ġarr ived
cl am
Ġà¤ Ł
ĠÃ© conom
Ġjordbruks mark
Ġ×ľ ×ĳ
Ã¤ ger
ĠMill ionen
ĠE z
Ġà´Ĵ à´°
ĠD ok
Ph il
Ðº Ð²Ð¸
Ð¿ Ð¾
Ġv Ã¦
ĠD io
Ġtra ff
Ġent Ã£o
Ġet h
ĠØ´ÙĩØ± Ø³ØªØ§ÙĨ
Ġa ura
ĠL ady
Ġhe cho
Ġcamp us
ĠG uy
ĠÑģ Ð¾Ð»
ĠSport s
ĠRe ino
ĠCast le
enn t
Ġdesc end
Å Ļ
ĠT on
é ²
Ġf Ã¥
çı¾åľ¨ ãģ®
åĩº çīĪ
ĠAng el
æĬĢ è¡ĵ
Ġk aw
ĠG ia
Ro bert
o id
×¨ ×§
ĠÐ¼ Ð¸ÑĢÐ¾Ð²
íĺ Ħ
Ð¸Ð½ ÑģÐºÐ¸Ð¹
F re
b aut
ĠCh ild
ĠÐł Ð°
K on
Ġre y
Ã©s zet
ç§ ģ
à´¯ à´¤
Ġv ista
ienn ent
Ġl uch
Ġm uz
ang g
Ġenpres ak
ĠSch war
bo x
ãģĮ ãģĤãĤĬ
Ġw ir
Ġn ivel
Ġt old
ç½ ª
ĠPe ople
Ġlung o
Ïģ Î¹Î±
Ġl Ãªn
Ġincre asing
ĠL ux
ĠÃ© po
Ð³ Ð¾ÑĢÐ¾Ð´
ÑĦÐ¸ ÐºÐ°
ãģ«å¯¾ ãģĹãģ¦
ist ica
Ġy et
f s
Ġr ural
ĠØª Ø¹Ø¯Ø§Ø¯
un ion
Ġmes es
teri ores
ĠØ§Ø³Øª Ùģ
ĠPar tei
sche id
Ð½Ð¸ÑĤ ÐµÐ»ÑĮ
Ġde partement
ĠmieszkaÅĦ cÃ³w
Ð± Ðµ
æĵ Ĭ
ĠD own
Ġcons ists
èŃ° åĵ¡
ry st
ÏĦ Ïħ
Ġas ked
ĠIt alien
ĠAl c
Ġr as
h il
ãģ ŀ
Ñĩ Ð¸Ñģ
Ġh op
Ġsucc esso
Ġby ÅĤo
ĠT ai
Ð´ Ð°ÑĤ
ÑģÑĤÐ²Ñĥ ÐµÑĤ
ÙĪ Ø¹Ø©
Ġpo or
198 1
Ġinc ome
Ġbe berapa
Ġst ars
ĠÐ¼ÑĥÐ·Ñĭ Ðº
åĽ ¢
ÙħÙĦ ÙĥØ©
Ġtiáº¿ ng
é ®
k lar
se y
ÐµÑĤ Ð¾Ð²
Ġen ough
ĠrÃ©s ult
Ð¸ ÑĦ
ĠN S
à´¿ .
éł Ĩ
Ġinf atti
ĠÛģ ÛĮÚº
mann schaft
Ġeigen en
eng ah
æł ¸
ĠC os
oph ie
á» Ĺ
ĠTown ship
ato ire
Ġë¶ Ħ
ĠW W
Ð»ÐµÐ½ Ð°
ÙĨ ÛĮÙĨ
ØŃ ÙħØ¯
Ġpre cis
Ġk it
áĥ ĸáĥĶ
Ġph á»ĳ
ĠInd ustri
ĠH amilton
ĠR um
ĠÑģÐ¾Ð² ÐµÑĢÑĪ
Ġfl ow
Ġzw eite
Ã©t ico
r upt
ic ÃŃp
íķ ©
un y
Ġv Ã¡ros
ĠÐ°Ð´ Ð¼Ð¸Ð½Ð¸ÑģÑĤÑĢÐ°ÑĤÐ¸Ð²
l om
Ġs ale
alis m
Ġopp ortun
åı ĺ
ãģĨ ãģ¡
og ne
ĠG as
z s
Ġg ir
Ġk erk
Ġch ron
Ġver lie
Ġby ÅĤy
Ġpro wad
ly ing
Ġseg Ãºn
åħ Ħ
ĠÐ² Ð¾Ð¿
ĠÏĢÎµÏģ Î¹
Ã©r al
Ġprim eros
ĠÙħÛĮ ÙĦ
Ġmov ie
ĠRo y
ĠÑĦÑĥÑĤ Ð±Ð¾Ð»
ĠSp ain
ÄĻ Å¼
Ġmaj a
Î¯ ÎµÏĤ
Ġt ud
Ġcommen ce
Ġj ard
ÏģÎ¿ Ïį
n ame
j Ãł
vo y
Ġpropos ed
ĠR oute
Ġmean ing
ĠG ard
ĠSup re
W ith
ise en
æ¬ §
Ġgrud nia
Ð°Ðº Ð¾Ð²
197 2
L ouis
Ġer f
er ia
Ġt ÃŃch
åº Ķ
è¯ ´
×ķ ×Ļ×ķ×ª
ĠÄĳ á»ĳi
ats te
Ġ188 2
ì¦ Ī
Ġapro xim
ĠH amp
en y
Ġges am
E mp
ĠD opo
ãĥ¼ãĥ Ĳ
Ġë° ĺ
Ġkun nen
Ġro ll
C I
Ġcoup le
Ġ186 1
po int
éĹ ĺ
bere ich
ĠÐ²Ð¸Ð´ Ðµ
cc ess
Ġczas ie
ĠE conom
Ġgra ph
Ġgeb ouw
ĠÐº ÑĥÑĢ
re ven
éļ Ĩ
ÑĢÐµ Ð¿
bra io
ĠP S
allen ge
Ġla p
Ġde ep
à¸Ń à¸Ķ
Ġ×ĳ ×Ļ×ķ×ª×¨
ĠÐ´ÐµÑĢÐµÐ² Ð½Ñı
å»º è¨Ń
A D
Ðµ ÑĩÐµ
ĠFI FA
Ġpil ot
á ¸
ta an
åĸ Ħ
Ġposit ive
Ġr ub
Ġme x
ãĤ¨ ãĥ«
ĠáĥĲáĥ ł
à®¯ à®¤
è® Ĭ
M ed
¤ Ģ
Ġho uses
Ġacqu ired
Ġìķ Į
Ġm uit
id t
ĠTr in
Ġp ueblo
ÙĨ Ø§Ø¡
pt ion
ĠÐºÐ¾ÑĢÐ° Ð±
ĠR Ã©p
Ġse asons
ÑģÑĤÐ²ÐµÐ½ Ð½ÑĭÐ¹
Ø¹ ÙħØ§ÙĦ
ĠM uh
ç» ĵ
197 9
g gio
Ġcons ult
Ġkomm t
Ġcomun ic
Ġhab e
æ² ¹
ĠCom o
ĠÐ½ Ð¾Ñģ
ãģ¾ ãĤĬ
ĠAss embly
Dav id
Ð²Ð° Ñı
ide a
ĠÐĽ ÐµÐ½Ð¸
Ġmeth od
Ġud ziaÅĤ
ĠÑģ Ð¾Ð¿
Ã¼ck en
ĠcrÃ© ation
ĠN iem
Ġwojew Ã³dzt
Ã¶r per
Ġfo ot
ĠÐ´Ð² Ðµ
ĠBr idge
ta a
ÑģÑı ÑĤ
Ġr ius
ĠtvÃ¥ ving
por ter
Ġt ir
op ter
Ġtot ale
ĠÐ²Ð¾Ñģ ÑģÑĤ
ãĥĥ ãĥģ
y y
æĪ¦ äºī
ÑĢ Ð¾Ð»
Ġprz ec
à¸Ļ à¸¡
ial i
Ġcont est
Ð¾Ñģ Ð¿
Ġ186 2
ĠÙħ Ø¤
if fe
ymnas ium
D al
ag og
Ø¶ Ø¹
ĠÐŃ ÑĤÐ¾
Ġ186 3
Ġprob able
ont ro
Ġheut igen
Ġt ÃŃnh
Ġáĥ ļ
Ð¾Ð¶Ð´ ÐµÐ½Ð¸Ñı
ĠH ind
Ġg á»įi
ku uta
ĠÐ¼ Ð¾Ð½Ð°
ĠÎ´ Î¹Î¬
ens emble
Ø±Ùģ Øª
ĠØ¨ ÙĪ
kl imat
ä¹ Ĳ
ĠØ¨ ÛĮÙĨ
Ġren contre
Ġen fr
ĠM ans
Ġindivid u
Ġv eget
ie ve
bour g
Ø® Ø§Ø¨
ãĤ¯ ãĥĪ
ç¸ ¾
ä½ µ
ĠPro v
id Ã©
ĠpaÅºdzier nika
Ð¸ÑĢ Ð¾Ðº
ÑģÑĤ Ð¾
Ġpass e
al ainen
aut re
Ġehemal igen
Ġgra b
Ġê³ Ħ
éİ ®
ØŃ Øµ
ĠP rom
æį ®
Ġmultip le
ĠØ³ ÙĪ
ep pe
Ð°ÑĤÐµÐ» Ñı
ĠSo und
minist rat
Ġrespons ible
Ġ×Ķ×ĳ×¨ ×Ļ×ª
Ġact u
Ġà¤® à¤¹
Ġod d
ãģĪ ãģ¦
e o
Ùģ Ø¶
ĠÐ¿ÑĢÐµ Ð²
ĠÃ© ch
Äģ n
ĠCamb ridge
Ġcant ante
Ġh os
Ġglob al
ç¥ Ń
ĠØ¬ Ø²
ĠL t
åĪ ĳ
Ġen k
ä½į äºİ
ä¸Ń çļĦ
Ø³Ø¨ Ø¨
ie ch
Ġv Ã¤l
Ġdec ide
Ġ×Ĵ ×¨
s burg
Ġeff orts
Ġcompos ed
Ġr in
ĠpolÃŃt ico
Ġtelep Ã¼lÃ©s
ed om
vÃ¤ xter
um as
Ġs tem
Ġ187 9
Ð¿Ð¸ ÑģÐºÐ¾Ð¿
å¥ ĳ
Ġs ister
ä¼ ĳ
ĠN ow
éĲ µ
Ġd ÃŃas
ĠC y
et ri
stru ction
Ġà´ ²
ĠBr ad
iel ten
Ġp ath
Ġproduct s
ĠÐ³ÑĢÐ° Ð¶Ð´
ĠS ig
Ġdah a
ĠtÃ©r min
Ġo sp
Ġs ÃŃ
Ġover all
ĠáĢ ģ
ati ques
ĠR ic
ĠO scar
ks am
Ð¸ÑĤÐµÐ» ÐµÐ¼
Ġs Ã¶dra
Ġ7 2
Ġà®µ à®°
ĠSchwe iz
os ition
ĠÐ²ÑĤÐ¾ÑĢ Ð¾Ð¹
é¢ Ĩ
ÐµÐ¹ Ð½
Ġdo ch
Ġstart ing
Û ³
Ġes k
æ¼ «
Ġz ehn
richt ung
Ġre co
ĠAr men
el Åĳ
à±į âĢĮ
ess es
ri kt
Ġc Ã¡nh
vÃ¤ xtart
qu ir
ĠB Ã¼
197 5
ĠThe ir
×ķ×ŀ ×Ļ
ĠÐ» Ð¸Ñĩ
Ġdi á»ħn
Ġge Ã§
ĠÎ¼Îµ Î³
z Ã©s
w issenschaft
Ar ch
r ale
Ð¿ Ð°Ð´
Ġwz gl
ê ¶Į
unkt ion
Ġm Ã¶glich
th ing
è¡ĮãĤıãĤĮ ãģŁ
×ĳ ×ķ×ª
ãĥ¼ãĥ Ħ
Ġllam ado
Ġconj unto
od io
Ġsch ed
Ġag gi
Ġfeb braio
ĠAnd rew
Ġczerw ca
el in
ĠÅĽw iat
ĠÐ¡ Ð°Ð¼
Ã¼ ler
up po
áĢ Ĵ
ĠC ra
rop ri
ubl in
Ġapar ec
E P
Ġant al
ĠSal v
ĠëĶ °
ĠÐ¾ ÐºÐ°Ð·
Ġf Ã©
åº Ń
Ġw szyst
ild ing
Ġf as
ĠP ur
Ġcamp e
Ġro d
ĠÐ¾ÑĤ Ð»Ð¸Ñĩ
univers itÃ©
Ġbr idge
Ġn ello
Ġint ent
ĠB il
èĭ ı
Ġann at
Ã¤ng er
Ġk evers
Ġar as
ĠÐ¾Ð±ÑĢÐ°Ð· Ð¾Ð¼
N S
Ġresp onse
ĠStra ÃŁen
èĩª èº«
ĠDies er
ĠCh ampion
Ġl ect
Ġse ul
ì§ ģ
áĥĲáĥ ¬
Ġáĥ¬ áĥĶáĥļáĥ¡
ç§ĳ åŃ¦
ĠÐ½Ð° Ð·ÑĭÐ²Ð°
Ġin ne
åį ĩ
oll en
Ġspec ie
ĠHe ad
áĥ £
Ġdis par
è¨Ī çĶ»
Î¯ Î¶
v iÃ³
he w
áĥĶáĥ ¥
Un ion
Ġestud ios
p lay
æĶ¯ æĮģ
à¦¾ à¦Ĥ
ĠRog er
Ġn ative
yn ie
G ro
B en
Ġdiv ent
ĠM eg
×Ļ ×Ļ×Ł
iz ado
Ġpopula Ã§Ã£o
Ġt ing
Ùĥ Ø±Ø©
um ul
Î»Î¿ ÏĤ
ĠGovern or
Ġun ion
It alia
Ðº Ð¾ÑĢ
m ist
ul aire
el v
Ø® Ø¯Ø§Ùħ
ĠÐ²Ñĭ Ð±
it aire
Ġc ities
å®Į æĪĲ
Ð² Ð°Ð»Ð¸
ĠØ¹ ÙĦÙħ
ĠS ic
ra kt
ĠN y
ĠT un
Ġsierp nia
Ġaz on
ÏĨ Î¿
B re
×Ļ ×ķ×Ŀ
ĠktÃ³ ra
ĠÚ© Ùħ
west en
Ġam i
Ġre produ
Ñı Ð²Ð°
ial es
Ġminist re
Ð¼ Ð¾Ð²
ĠStud io
f al
Ġan terior
M o
Ġc ens
ot us
×ľ ×Ľ
Ø§Ùģ Øª
Ġt Ã¡c
Ġ×ĳ× ĺ
Ġabsol v
ĠJ ur
Ġcar ry
Ġ6 8
Ð½ Ð¾ÑĤÐ¾
Î¸ ÎµÎ¯
ĠØ¨ Ú¾
elle m
erg ie
Ġrel acion
sch er
Ġlig t
ĠAd olf
ĠPhiladelph ia
Ġatt end
ĠB rian
ãģ» ãģĭ
ĠlÃŃ nea
Ġalc anz
v ano
æľŁ éĸĵ
ades h
Ġemplo y
èĩª åĭķ
d in
å¾ Ĵ
Ġnor ra
Ø§Ø± Ø¬
Ġvá» ¥
Ġpass age
Ø§Ø² ÛĮ
Ġdepart amento
Ġindustri al
å¾ ħ
Ġkat eg
c omp
Ġl Ã¡
ä¹ ¡
à¹Ģà¸ ķ
ĠHe alth
Ġbel ong
à®© à®¤
j os
Ġd or
ĠX III
Ñĥ ÑĢÐ¸
Ġman aged
Ġ187 6
ĠBel gi
Ġla vor
s or
ĠH end
Ġkem udian
ent lichen
im mer
Ġex cept
j Ã¡k
Ġl ute
ĠRa um
Ġbes ar
ta ÅĤ
Ġamb os
Ñĥ ÑĤÐ°
à°° à°ķ
ĠK loster
Ġà´ ¶
ens tein
ĠØ´ Ø®Øµ
Ð¸ ÑĩÐ°
Ġà¦ ¡
×ĵ ×ķ×ľ
å¯ ¼
Ïĩ Î®
Ġcamb io
Ġà¤ ¡
ìĭ ¤
çļ ®
ĠAmerika anse
ĠÑģÐ¾Ð´ ÐµÑĢÐ¶
é» ĳ
ĠÙĪÙĩ ÙĬ
Ġí İ
Ġ à¹ģ
ĠØ§Ø³ØªÙģ Ø§Ø¯Ùĩ
Ġ×Ķ×ŀ× ĵ
ĠìĹ Ĩ
im ientos
à¸²à¸ «
Ġdesp ite
l us
à¹ Ĩ
Ġconstru cted
Ġlas ci
Ġpowie cie
w end
Ġba o
ĠM iddle
a ÅĤ
Ġter me
Ġmol ti
ĠÐ¿ÑĢÐ¸ Ð²
Ġáĥ¬ áĥļáĥĺáĥ¡
j us
Ġte atro
à§ ¨
ĠVert rag
ĠN i
Ġpel os
Ġf ell
ä»ĸ çļĦ
çĽ ¤
Ġmill ions
Ġot tobre
19 50
æ³ ģ
Ġfund ament
ãĢį ãĢĮ
ill ende
ĠF en
ck er
iel lement
ĠÐ¿ÑĢ Ð¾Ð¶
197 8
ag ens
lar Ä±n
ĠÑģÐ²Ð¾ Ð¸Ñħ
ĠP ir
ag in
ve is
d ing
åĪ¶ ä½ľ
Ġcompr end
ic ans
Ñģ Ð¸Ð¼
ĠÐ·Ð°Ð¿ Ð¸Ñģ
éħ Ĵ
Ġav v
Ġna he
æİ §
Ġcome Ã§
è· Ŀ
O C
ĠC ass
ts z
à¦ª à¦°
Ġ186 5
el ve
ĠR us
Ġem pres
Ġt erd
Ġë° Ľ
uliÃ¨re ment
al us
Ġst reng
Ġlip ca
stell en
ĠI b
Û ±
Ġjed n
Ġfinal mente
ĠÐĽ Ñİ
Ġclass es
Ð»Ð° ÑĪ
ĠØ£ÙĨ Ùĩ
à¸ģ à¸§
owa Äĩ
Ġw anted
ĠM az
ä¹ĭ ä¸Ģ
Ġru olo
Ġ188 3
Ġjoue ur
om on
Ġn ieder
un al
Ġ186 7
e art
Ġqu ot
ĠØ§ÙĦØ£ ÙħØ±ÙĬ
Ġderni Ã¨re
Ġappear s
G l
Ġo il
u esta
Ġs emb
r Ã©s
à° ł
ĠC ond
P ort
ĠSpr ing
Ġm Ã¬nh
Ġej emplo
i Äĩ
all ed
ou x
å¤ī æĽ´
Ġ6 3
ĠB ischof
ĠÑĢÐ° ÑģÑĤ
Ġë Ħ
og le
çĻ Ĥ
lass en
Ġe konom
Ġ×Ľ ×ª
Ġb áº¯t
Ġmias ta
ĠP in
Ú© ÙĦ
Ġog sÃ¥
Ġcor te
Ġsi Ã¨
Ġdist ing
Ġ6 2
ĠÑħ Ð¾ÑĤ
ä¼ ł
ĠÐ²Ñĭ ÑħÐ¾Ð´
ĠÐļ Ð¾Ð»
Ġmo Å¼
çľ ĭ
Ġval ue
or ter
Ġdistrib ution
Ġhomm es
av es
åħ¬ éĸĭ
Ð»Ð¸ Ð¼Ð¿
ĠVenez uela
Ġsar eb
is ko
amb a
Ð¼ÐµÐ½ ÑĤÐ°
Ġpart ner
ĠÐ¿ÑĢÐ¾Ð² Ð¸Ð½
ci os
ĠÐ³ Ð¾Ð²
Ġquick ly
ĠP ict
ĠÑħÑĥÐ´ Ð¾Ð¶
Ġbest and
Ġh Ãłng
wo ord
ha upt
ĠWo j
Ġnaz w
è Ĩ
Ġtra cks
ar ie
ĠS ev
å¦ »
Ġsá»ĳ ng
ar Ã¡
à¸· à¹ī
ãĤ¢ ãĥ³
ÑĬÑĢ Ð²
ĠÎļ Î±
el as
sk Äħ
à¸Ļ à¸Ń
Ú¯ Ø§ÙĨ
qu a
Ã¡ vel
Ġwh ole
Ġconf irm
í Ĵ
Ġh ub
×Ļ×§ ×¨
Ġfolg te
Ġpi ÅĤ
Ġsup erv
z ip
Ġ Ã³r
ubl ik
ci u
Ġig ual
ĠM iller
Ġdirec teur
ë©´ ìĦľ
×ķ×ĳ× Ķ
y ard
ãģĹ ãģı
eit s
ys te
Ġprim arily
Ġl á»±c
ĠS eite
oem d
ĠAn im
ĠMex iko
æī ĺ
Ġcond ition
ĠComm on
j er
op old
Ġmar riage
r and
enn ero
Ġprop ag
ou vert
Ġper chÃ©
r att
Ġpart n
geb racht
Ġalgun as
ĠØ® Ø·
Ġk v
æĹ ł
ĠXV II
Ġdi ra
st ed
Ġom giv
ĠÐ·Ð° ÑıÐ²
ĠØ¯ Ø§ÙĨØ´
Ġb od
Ġvl inder
ib en
ĠErn st
ore an
ĠÑĢ Ð¾Ð¼
Ġkre eg
è ŀ
ud ing
ult imo
Ġ1 01
Ġ Ã¡r
Ġlev els
ĠDemocrat ic
ĠSeg unda
ĠÐ°Ð² ÑĤÐ¾ÑĢ
unta ins
ĠíĮ Į
´ ĳ
ĠÐ Ļ
oh ol
Ġval or
ĠÃ¼ b
ut ti
ĠG y
Ġcomp ut
ãĥ¼ãĥ ķ
ek in
ĠÐ´Ð°Ð½ Ð½ÑĭÐ¼
Ġo le
Ġë§ Ĳ
Ġv ale
áº± m
Ð»ÐµÐ½ Ñĭ
S z
ãĥ¼ ãĤ¿
od os
is in
el or
Ùĥ Ø²
tÃ© k
Ð¿Ð¸Ñģ Ð¸
Ġel ect
ĠV III
ĠÙĬ Øª
åħ± ãģ«
Ø§ÛĮ Ø´
Ġdirect ly
ĠÐ² ÑĢÐ°
Ð°Ð½ Ð½ÑĭÑħ
ëĵ¤ ìĿ´
Ġdam als
Ð°Ð½ Ð½ÑĭÐ¹
ĠtvÃ¥ving eart
Ġpromot ed
ĠM innesota
ĠK ansas
Ġst ron
Ġenc our
ĠN as
l al
ãģ® å¤§
Ġfol k
Ġpr int
igh ter
Char les
Ġprov incie
èİ ·
Ġth Ã´ng
Ġsz Ã¡z
Æ° u
ÑĥÐ½ ÐºÑĤ
Ġcon ce
Ã´ m
Ã¼n de
ĠL incoln
æŀ ¶
ç¶ ²
ĠcÃ´ tÃ©
tr ans
Ġ×¨ ×Ĳ×©
ul p
âĢľ )
Ġhav de
ĠN iger
ĠÐĲ Ð·
ãĥķ ãĥĪ
Ġl Ã¥ng
Ġle ave
Ãº l
ĠJ am
Ġmain ten
ãĤ³ ãĥ³
Ġm ano
Ġsh ips
Ġ×ŀ×¡ ×¤×¨
Ġfot ograf
ĠG ast
Ġb ab
Ġ187 5
Ġel ements
ĠÐ¿ ÑĥÐ±Ð»Ð¸
Ġco ordin
æ³ ī
E ng
Ġur te
ĠLi bert
Ġcon clus
g ia
en c
Ġt ienen
Ġaut o
Ġmunicipal ity
p ont
ÅŁt ur
ch os
Ġce ux
Ġ×ľ ×ķ
ĠÐ»Ð¸ÑĪ ÑĮ
k as
Ġnear by
ĠA S
ÐŁ ÐµÑĤ
Ã©m et
×Ļ×ĵ ×Ķ
Ġ×ł ×©
ĠFrank furt
ff e
Ġ186 6
æº Ģ
Ð¸Ð» Ð¸Ñı
ĠÙĪ ÙĦÙĥ
å¿ «
ĠAs ian
ent in
ĠÑĢÐ° Ð²
ri be
Ġsuc ce
Ġj at
id io
odo x
Ġr ess
ĠU rs
ĠÃ¶ stra
Ġfran ch
Ġh ockey
Ã± as
Ġneg ara
p ow
Ġmus ik
ĠG rab
ol et
ÑĦ ÐµÑĢ
ys s
ĠPf arr
ãĥ¼ãĥ ĸ
ett ing
ĠEn ts
ÙĬ Ùĩ
æ¢ Ŀ
Ġmil ieu
Ġein zel
áĥĺáĥ¡ áĥ¢
ĠStud ios
ĠìĤ¬ ìļ©
ani i
Ġ×ŀ ×Ļ
ĠO g
×Ļ×¢ ×Ķ
iz ens
ĠPre mi
ĠÑĢÐµÐ·ÑĥÐ»ÑĮÑĤ Ð°ÑĤÐµ
ĠAd d
Ġcapit ale
b s
ãĥ© ãĤ¯
ĠFor est
C or
lich keit
Ġam ount
ç± »
ĠR ose
au teur
re h
ĠD res
à¸Ļ à¸Ļ
éģ ķ
it ze
R S
ather ine
et Åĳ
ĠT ib
ber ta
Ġsl ut
Ġcl as
ĠØ¯ÛĮ Ú¯Ø±
Ġsoci etÃł
Ġmaggi ore
ver band
M C
åĥ į
= "
ì ħ
Ġ ign
ãģ« ç§»
Ð¸ÑĤÐµÐ» Ñı
ĠÐ¿ ÑĢÐ°
is Ã©e
Ġqu ad
ãĥ¼ãĥ ĵ
Ã¡ri as
ons in
R ec
av ano
Ġmak es
Ð¸Ð½ ÑģÐºÐ¾Ð¹
Ġop in
ãĤ¢ ãĥĭ
ĠA B
Ġcer c
ĠBedeut ung
j Äħc
Ġpl ate
ÃŃf ico
ĠJes us
Ġkar ena
Ġcual es
éĢ² è¡Į
ra zione
ĠØ§ÙĦØ³ ÙĬ
ni ÄĻ
ĠÙħØ¯ ÙĬÙĨØ©
end orf
ĠPal est
ÑĥÐ»Ñı ÑĢ
Ķ×ľ ×ļ
ĠD C
Ġau c
ĠSam uel
ult ura
Ar m
Ð» Ð¾ÑģÑĮ
Ġpet it
Ġlo i
uerd o
ÐµÑĢ ÑĮ
æ°ĳ ä¸»
Ġdar unter
å® Ŀ
ä»¥ å¤ĸ
ĠÐ¼Ñĥ Ð½Ð¸ÑĨÐ¸Ð¿
ĠH um
Ġut wor
Ġn Ã©c
eit a
ie ur
Ïİ ÏĤ
Ġvec es
Ġd raft
lt al
ÐµÑĢÐ¸ Ð¸
Ġl anc
Ġz b
ar lo
Ġtrav aux
åĩº æ¼Ķ
Ġg la
Ã¡ ss
ĠÐ½Ð°Ñĩ Ð°Ð»ÑĮ
ĠR ichtung
ar ta
En tre
Ø±ÙĬ Ø·
ãĤĴ è¦ĭ
Ġë° °
ĠdÃ© jÃł
ÃŃt ett
Î ľ
Ð»Ñı ÐµÑĤÑģÑı
ĠAm ts
ĠDevelop ment
ĠÑĥÑģ Ð»Ð¾Ð²
Ã¡n t
ÑĩÐµ ÑģÐºÐ¸Ñħ
Ġspe ed
up o
ĠBud ap
ĠÚ© Ûģ
neh mer
od u
ĠGr amm
or us
ih in
Ġoccas ion
çķ «
ĠÑį Ð¿
k iem
as is
Ġim pl
Î´ Î¹
Ġcal cul
Ã¼h l
ĠØª Ø§Ø±ÛĮØ®
ĠW es
Ġl Ã¶
ent uk
Ġmill ones
i ad
ĠT her
v u
M er
ÑĩÐ° ÐµÑĤ
à¸Ń à¸¥
ãģ® ãģŁãĤģ
ĠÐ¿ ÑĢÐ°Ðº
h istor
n ant
Ġwhe ther
ÐµÐ½ÑĤ Ð¾Ð²
ĠØ§ÙĦ Ø§Ø³Øª
ĠÎ± Î³
Ġ à¸Ļ
Ġzahlreich e
æĥħ åł±
ĠT rop
Ġt áº¡o
ĠStud ium
ãģ® åĲį
ĠDiv isiÃ³n
Ð°ÑĤÐµÐ» ÐµÐ¹
çĽ® çļĦ
ne z
Ùĩ Ø§Ø±
ĠÑģÑĤ Ð°Ð»Ð¸
197 6
Ġiss ued
Ġs os
Ġ×ŀ× ĳ×
ĠPatr ick
ĠÑģÐ¾Ð± Ð¾Ð¹
ĠØ´ ÙħØ§ÙĦ
ĠÑĦÑĢÐ°Ð½ ÑĨÑĥÐ·
Ġb ast
ĠÙĨ Ø³Ø¨Ø©
Ġprz ew
ĠauÃŁ er
z an
p u
Ñį Ð¹
Ñı ÑĤÐ°
ĠÐ¾Ð´ Ð½Ð¾Ð¹
Ð³Ð¾Ð´ Ñĥ
Ġd ru
w elt
ĠXI V
ĠÎ¼ Î±
ãģĦ ãģı
ĠDoug las
Ġrec omm
tr at
áĥĲáĥ ļáĥĺ
ĠÙĦ Ø£
ign er
Ġcons ig
Ã¤ mp
çī Ļ
Øµ Ø¯
Ġdivers i
ĠEgy pt
è¨ ¼
ĠFo i
Ġwil ayah
Ġh ina
Ġprodu cciÃ³n
i ate
y Ã³
Ġha ut
Î¼ ÎµÏģ
m Ãªme
Ġre ason
Ã¤n ner
ç§ ¯
S k
çł ²
R ich
ĠJourn al
p in
Ġn asc
Øº Ø±
æİ¡ çĶ¨
Ġs ogen
le ur
Ġdev ant
m ag
Ù Ĵ
j ana
ic ion
ÏģÎ¹ Î¿
or et
p ose
ĠBe at
ĠPol ski
Ġfem ales
Ġbron ze
Ġvu os
ĠCol orado
åĽ º
Ø¨ Ø§Ø¯
ĠAnd re
æĭħ å½ĵ
Ð¾Ð» Ð¾Ð²
lig het
ĠNap ole
Ġ187 4
ĠT it
áĥĲáĥ ĸ
Ġsow ohl
Ġáĥĺáĥ §
ost ante
×ĵ ×©
Ġquy á»ģn
ba ar
Ø§Ùħ ÛĮ
ãģ¨ãģĹãģ¦ ãģ¯
ĠA ch
Ġreg ione
ãĤ¸ ãĤª
Ġhigh ly
Ġp seud
ĠCh annel
Ø¯ ÙĪ
Ġdom est
Ġcarri era
è« ĭ
Ġnum bers
Ġf ung
ë¥ ĺ
Ġt yl
Ġr ies
ãĤĮ ãģ¦
Ġbis her
ig ua
aj es
Ġz eit
ĠÐºÐ¾ÑĤÐ¾ÑĢ Ð¾Ð¼
Ġv Ã¬
ep en
ãĤĴ çµĮ
O t
az ionale
ĠÙĬ ÙħÙĥÙĨ
ÎŃ Î½
ĠÃº nico
Ġ7 00
Ø§Ø¦ ÛĮ
ett bew
Ġdir ige
str Ã¶m
Ġm ine
Ġjon ka
ĠÙĨ ÛĮ
Ã¡t Ã©k
ĠH ockey
In ter
à®² à®¤
ĠH ome
åı° çģ£
æķ ĳ
Ú ĳ
b is
Ġext ended
Ġl ut
Ġgi Ã¡o
z h
æ¿ Ģ
Ġgre w
ĠØª ÙĦ
è¾ º
l ige
Ġ ÑĨÐ¸
ot ing
æĵ ļ
Ġkevers oort
Ġfrances a
Ġnh iÃªn
Ġ187 7
i ut
ien de
ĠKle in
×ł ×§
Ġs ull
ĠÐ²Ð¾Ð· Ð²
Ġy hd
ĠáĥĴ áĥĲáĥľ
Ġ×ľ ×ŀ
åİ Ĩ
Ð°Ñģ Ñģ
ÙĩØ§ÛĮ ÛĮ
Ġbord er
Ġcontro ll
Ġmun icÃŃp
Acc ording
B I
Ġ186 8
Ġdi x
Ġìĭ ¤
Ġpat ri
ĠÐº Ð¸Ð½
×ĵ ×Ŀ
( "
Ġsay ing
ĠÐ¸Ð· Ð¼ÐµÐ½
Ġtut te
spiel er
ĠkÃ¤ yt
ä¸ ¹
ament os
Ġdiff us
ĠÅ »
Ġmuk aan
Ġcol oc
ì² ľ
Ġt Ã¶r
Ġl ingu
ĠA gr
h let
Ġ×© ×Ŀ
Ġren ov
Ġest o
ĠÎ± Ïħ
à¯ģ ,
ad ed
Ġc le
Ġph ase
à§ĩ ,
Ġclass ific
alt ungs
bur ger
lo yd
u at
Ġinter net
Ġ×Ľ ×©
ĠÐ² Ð½ÑĥÑĤ
Ġwe il
Ġ ÅĤ
Ġà®ķ à®Ł
ĠD uke
Ġdisco vered
Ġmaggi or
ekt edir
ĠÑĨÐµÐ½ÑĤ ÑĢÐ°
Ġbo y
Ġmas a
Ġl ies
ĠN BA
Ã¤ÃŁ ig
ĠR ing
Ð¾Ð¼ ÐµÑĤ
ĠX II
ĠR iv
ĠF ire
ëĵ ±
ĠSteph en
Ġhot el
Ġpo chod
ĠS old
à¤¾ à¤ģ
è½ ī
ÙĦ ÙĬØ©
Ġà¥ §à¥
ÑıÑĤ ÑģÑı
æŃ ¥
Ð ®
ĠÐŀ ÑĢ
unn an
ĠÐ´Ð¸ ÑĢÐµ
Ġentre pr
Ġpes ar
Ð¾Ñı Ð½
ik or
éģĵ è·¯
×ĳ×¨ ×Ķ
ãģ ¼
ĠSp ecial
à®° à®®
Ġris ult
ĠD DR
Ġdan ce
ĠÏĢ ÏĮ
Ġn ut
Ð°ÑĤ Ð¸Ð²
Ġsie ben
ĠÙĪ Ø²
Ġt Ã¡
ash i
ĠÐ¾Ð´ Ð½Ð¸Ð¼
ĠØ§ÙĦ ÙģØ±
ãĤ¤ ãĥĪ
Ġest re
å¯ Ħ
Ġsh are
w ing
Ġde j
ler in
Ġmur der
æ¬ Ĭ
Ġpar lament
Ġperform ances
Ġgra zie
Ġprofes ional
Ġadd ress
åĤ ·
Ġpromin ent
à®¤ à®¤
Ġcomp Ã©t
m ek
ĠK ont
Ġ187 3
ĠR ol
ĠØ± ÛĮ
ãĤ¦ ãĤ¹
Ġad a
ers p
Îº ÏĦ
ius eppe
Ġgebru ikt
ĠF rei
ĠKar riere
Î» Î¬
tem berg
Ġsing les
Ġconvirti Ã³
Ġtechni que
ÐµÑĢ ÑĤÐ°
ed ÅĤug
Ġant ara
Ġvers ions
Ġli bert
Ġstan ow
el ten
ĠÎ ¶
à°ª à°¤
ĠØª ÙĪØ³Ø·
Ġë ĳĲ
Ġà´ Ĺ
ç· ´
Ã©s Åĳbb
ĠÑĦ Ð¸Ð·
Ġpolit ician
Ġapr ile
ĠScott ish
197 3
ĠPhil os
ĠÃ© vol
ĠÑģÐ¿Ðµ ÑĨÐ¸Ð°Ð»ÑĮ
Ð² Ð¸Ð´
æĦı åĳ³
Ġ187 2
Ã® le
r ug
olog ne
iv an
Ġcons eg
Ġes a
ëĵ¤ ìĿĢ
Ġ18 30
Ġe cc
ĠÐ´ÑĢÑĥÐ³ Ð¸Ðµ
Ġy ay
Ġlong ue
Ġdia gn
ĠLeip zig
Ġwoj ny
ĠCo upe
ier to
ĠØ§Ø³Øª Ø§ÙĨ
×¢ ×ª
B O
Ð¸ Ñī
ĠV it
ĠÐ¿ÑĢÐ¸Ð· Ð½
ĠÐ¸Ð¼Ð¿ ÐµÑĢÐ°
Ġhom me
Ġconfl ict
ĠC z
D opo
ÙĤ Ø¨
Î Ħ
×ķ×ŀ× Ķ
os lav
éĻ Ħ
Ġprop io
ìĬ ¹
ic it
ĠB onn
Ġle i
Ġim pos
Ġma akte
ĠØ® Ø§ÙĨ
am at
ìĹĲìĦľ ëĬĶ
ĠÐļ ÑĥÐ±
ay o
af ter
ãĤĴåıĹ ãģĳ
V al
ab at
Ġdam al
Ġl op
ãĤı ãģĽ
Ġr ule
Ġad ministration
Ġan h
ĠÐ¿ ÑĥÐ½ÐºÑĤ
ãĤĭ ãģ¨
Ġ×¡ ×¤×¨
Ġcant on
ĠÑĤÐµÑĩ ÐµÐ½Ð¸Ðµ
Ġver g
ĠEn s
oc r
Ġvu oden
à¦ ģ
Ðº Ð¸Ð½
Ġs alah
ĠM itt
ĠLe ist
éģ ©
ĠFrances co
Ð³ Ð»Ð°Ð²
ĠH orn
Ø´ Ùħ
ãģĿ ãģĹãģ¦
ĠZw ischen
Ġresident s
Ġ×©×ľ ×ķ
Ġspe elde
i ÃŁ
se ite
ul is
àµį âĢĮ
å¥ Ī
ãĤĭ ãģĵãģ¨
ĠÐ¿ÑĢÐ¾Ð² ÐµÐ´
Ġf eder
ĠÃ ¸
ĠPh ys
Ã« n
act iv
ist ics
Ġ7 6
ĠB ass
Ġverschied ene
Ġpap er
hab it
fr ica
Ġ×Ĳ ×Ĺ×ĵ
et atik
ÙĪÙĨ Ùĩ
Ġpart idos
æ² Ĵ
Ġm emp
ĠB eng
197 4
j at
ĠRÃ©p ublique
Ġfl u
Ġvis ual
Ñİ Ð·
ĠØ³ Øª
åĩº åł´
Ġhina us
ĠØ§ÙĦØ£ Ùħ
v leug
ist ers
ĠØŃ Ø³Ø¨
izz azione
ĠØ£ Ùħ
orm al
Ġdisp lay
ĠMel bourne
Ġseizo en
à¸ ®
ĠAf rika
ç¬¬ ä¸ī
Ĥ à¸Ńà¸ĩ
Ġsup eri
ail and
Åĳ d
Î¼ Î±Î½
ĠáĥĽ áĥĿáĥ
ĠB uck
d uk
le z
un ft
Ġfriend s
ou ch
Ġpres iden
unk te
áº© m
Ġf indet
ĠÃ© quipe
Ġs f
æļ ´
ĠI st
Ġhistor ical
Ġfif th
Ġëª ħ
ª ½
Ġpow sta
Ġà¤µ à¤°
C e
r zy
ĠB oth
è¼ ª
Ã¼ ks
av ier
Ġjourn alist
ãĤ·ãĥ¼ãĤº ãĥ³
ĠÐ¿Ð¾Ñģ ÑĳÐ»
Ð¸ÑĩÐµ ÑģÐºÐ¸Ð¹
ispiel sweise
Ġc enso
ĠØ¯ Ø§Ø¯
ĠSecret ary
áĢ± áĢ«
Ġë ¡
Ġapp ara
Ġdesar rollo
Ġtr á»ĭ
ĠÐ·Ð°Ð² Ð¾Ð´
Ġt ub
Ġword s
het Åĳ
Ġwzgl ÄĻ
Û ¹
H ist
ĠÐ» ÐµÑģ
ãģĵ ãĤį
j t
Ġp oczÄħt
à¸Ĺ à¸²à¸ĩ
Ġy Ã¶n
ĠÄĳá»ĭ a
ĠBahn hof
Ġ6 7
Ġprov oc
ĠÐºÐ¾Ð¼ Ð°Ð½Ð´Ð¸
ë ĳĲ
ĠØ§ Ùģ
åĪĹ è»Ĭ
ãĤ¹ ãĤ¯
ĠTechn ology
Ġrecon oc
Ġextre m
ä¸į åĲĮ
og el
ĠÐ£ÐºÑĢÐ° Ð¸Ð½Ñĭ
Ġzes po
ĠÑģÐ¾Ð± ÑģÑĤÐ²ÐµÐ½
Ð¾ÑģÑĤ Ð°Ð²
Ġedific io
Ġsi Ã¨ge
Ġag ent
ĠR ot
ãĤ½ ãĥ³
Ġd opp
ĠG est
ĠfrÃ¼ her
ĠIn form
erb a
Ġkwiet nia
Ġh á»ĩ
Ġbo und
Ð¸Ð± Ð¾Ð»ÐµÐµ
ĠÐ´ ÐµÐ²
×Ļ×ł ×Ļ
×ķ×ĵ ×Ļ×Ŀ
à§ Ī
ÙģØ± Ø§Ø¯
è§ Ĩ
ĠB ureau
ĠBay ern
ëł ¹
ĠTok yo
ĠÐ¾Ñĩ ÐµÐ½ÑĮ
ìł Ĳ
Ġinc ident
Ġf usion
ãĥĩ ãĥ«
Ġnewsp aper
Ġcontr at
Ġwer eld
U na
ag on
Ġmod erne
ĠGes ellschaft
å¥ §
J ames
Ġcom una
Ġmod ific
×Ļ×¨ ×Ļ×Ŀ
×ķ×ĵ ×Ļ
Ġpromot ion
Ġsmall er
Ð°ÑģÐµÐ» ÐµÐ½Ð¸Ðµ
Ġcover ed
Ġvro uw
ĠØ¨Ø´ ÙĥÙĦ
rit e
ä¹ ±
Ġrel ev
Ġdepart ment
ĠÐ¿ÑĢÐ¾ ÑħÐ¾Ð´
ĠBus iness
ill ed
ort en
å· ¡
Ġdan ach
Ġlik ely
æ· ·
Ġgo bern
esse e
Ġa Ã§
à¹Ģà¸ ĭ
Ġtechni ques
Ð°Ð½ Ð³
Ġvá» ±c
Ġcond ado
ab ord
Ġstr utt
ĠÐ´Ðµ Ð±
ĠL iste
ĠRepubl ik
Ð°Ð½ Ð´Ð°
geme inde
og s
Ġweb site
ĠB ek
ĠØ§ÙĦØ¬ ÙĨ
Ïħ Î½
str ukt
ren o
ĠÐ½Ð°Ð·Ð½Ð°Ñĩ ÐµÐ½
ir am
é» Ĵ
ĠAuÃŁ erdem
Ġor n
ess el
Ġsa f
W il
ĠD yn
ka an
Ġvers iÃ³n
Ð¸Ð¼ Ð¾
z iel
ĠJust ice
ra el
ĠS yn
å¤§ åŃ¸
Ġpos itions
Ġp ict
Ø² Ø¯
åĵ ¥
ä» į
au ft
ta b
Ġ" Â«
Ġmon aster
Ġb ain
Ġ6 1
Ġinn ov
Ġb io
Ġho using
Ġcons egu
Ġf ej
Ġbland skog
in th
Ġt edes
Ġf ellow
ĠEr w
S am
Ð»Ðµ Ð¶
Ġsitu ato
M I
Ġk ultur
Ġle arn
Ä± lan
Ġl iste
Ġdi á»ĩn
æľ ¯
Ġniem ieck
ens i
ìĦ ¤
Ġatt ention
æĻĤ æľŁ
ÑĥÐ½ Ð´
æ¢ ħ
íķĺ ê¸°
ĠAl le
Ġ×ľ×Ķ× ª
ab hÃ¤ng
ĠMar io
ro ck
. &
Ġr ende
Ġgrow th
c za
ĠO cc
Ġ×© ×ĳ×
×ķ×ľ ×ķ×Ĵ
Ġyh te
Ġr Ã³Å¼
Ġwy k
usal em
Ġch anson
imm y
Ġcons ac
Ġoc as
ë¦ Ħ
Øª Ø§
Ġbet re
ĠHow ard
j Ã¶n
à¤° à¤¸
Ġsold iers
Ġver h
ĠAr k
ÃŃ da
Ġz udem
Û° Û°
Ġm os
ÙĬ Ø§ÙĨ
Ġv engono
Ġvilla ges
ĠÄĳ Æ°á»Ŀng
ĠÙ¾ Ø§ÛĮ
Ġoffic ers
Ð»Ð¸Ð¼Ð¿ Ð¸Ð¹
Ġtransfer red
ĠÐ¾Ð±Ð»Ð° ÑģÑĤÑĮ
Ġer r
Ġpublic ation
ĠverÃ¶ffentlich t
M en
à°µ à°°
Ġg raf
Ġk ort
å¥³ åŃĲ
Ã¡ ba
ÑģÑĤ Ð°Ð½
Ġp oll
æĵ į
ĠÐ¾Ñģ Ð²
Ġneigh bor
Ã¼y Ã¼k
iz ada
ic iel
Ãº a
×¤ ×Ļ×Ŀ
ĠLeg isl
og os
Ð° Ñĩ
Ġegy ik
ç³» çµ±
197 7
æ° £
Ġstell te
w ohl
Î¼ Î®
ĠBes itz
éģ¸ æĮĻ
Ġre ger
ãĤµ ãĥ¼
uv res
Ġrisp etto
w ith
ãĤ¸ ãĤ¢
ÑĬ Ð½
ĠAnd erson
Â» )
ĠÑģÐ¾ÑĤ ÑĢÑĥÐ´
Ġà°Ĵ à°ķ
å§ Ĩ
ĠÄĳ Ã¡nh
Ġf an
å¹´ åº¦
ĠCh am
ĠÐ± Ð¾ÐµÐ²
Ðŀ Ñģ
Ġb Ã¥
B el
ĠhÃ¶ ch
ĠÙĦ ÙĪ
ç¦ ģ
geme in
ĠÐ±Ñĭ Ð²
ëŀ ĳ
riz ona
áº »
ari us
i ada
Ġev angel
Ġinter ess
è® ¤
he irat
Ġmiem bros
ĠV il
Ã¸ l
×ķ×¨ ×Ĵ
Ġ×Ľ ×ŀ×ķ
Ġconstru cciÃ³n
Ð± Ð¾
Ġtin ha
äºº ãģĮ
ĠMic rosoft
P a
èĴ Ļ
áĥĲáĥ ¨
ĠÑģÑĤÑĢÐ° Ð½Ñĭ
ĠÐ¿ÑĢÐ¾ ÑĪ
è· ¡
E E
Ġk end
ĠT urn
op a
Ġíķ ¨
ĠÐ¤ ÐµÐ´ÐµÑĢÐ°
Ø¹ Ùħ
ĠÑĢÐ° ÑģÑģ
ĠÙĦ Ø§Ø¹Ø¨
Ġod by
ĠÙĩÙħ ÚĨ
ĠDeutsch e
ÏĮ Î¼
Ġb eteil
åŁº æľ¬
is is
à¤¯ à¤ķ
×Ļ×ł ×ķ×ª
Ġinst al
Ġfem mes
Ġy outh
Ġh yp
äº Ĵ
Ġë ¦¬
ÄĻ zy
he den
ĠP rop
âĢ ¢
ĠEr d
in Ã¤
Ġhab ÃŃan
è¬ Ľ
Ġ18 40
Ġsy nd
×Ļ×© ×Ķ
F ilm
ÑĢ Ð¾Ð±
icial mente
Ïĥ ÎºÎµ
Ø´ ÛĮ
Ð»Ð° Ð³Ð¾Ð´
er ca
st ieg
æŀ ļ
ÅĦsk im
ĠÐĽ Ñĥ
ÑĢÑĥ Ð·
Ġis e
æĹ Ĺ
oc ol
Ġenfr ent
rit z
Ġch eg
ĠhÃ¤uf ig
æ©Ł éĸ¢
ĠHe imat
è Ľ
ia p
ĠV e
ëĤ ¨
áĥĺáĥ ĸ
S uper
west ern
il us
Ġdens ity
æ± ł
Bill board
Ġsoci ale
ĠAl len
8 00
ĠG ot
ÃŃ do
Ġanci ent
æ§ĭ æĪĲ
ĠÐ¡Ð¾Ð² ÐµÑĤ
ĠØ§ÙĦÙħ ÙĪ
ÏĦÎ¿ Ïį
ÐµÐ» Ð¾
Ġdu a
ĠÐ½Ð°Ñĩ Ð°Ð»Ð°
ĠÚ©Ø± Ø¯Ùĩ
re ck
Ġr il
Ġp ick
Ġh ir
av el
ãģŁ ãģł
Ġoppos ition
Ùħ Ø¨Ø±
å¸ Ī
æµ· è»į
ĠG or
Ġacc ord
m s
Ã¤ Ã¤r
ĠSch ule
r Ã¡s
ĠAf ghan
Ġà¤ī à¤¸
Ġa up
Ġtari h
Ġt eve
ĠL en
Ġkom un
Ġpro bl
G A
íĥ ľ
Ġat rav
ĠÂ« "
ĠÄĳ Ãªm
Ġk yr
Ġà°ľ à°¨
E p
Ð¿ÑĢÐ¸ Ð¼ÐµÑĢ
ein ander
Ð¾ÑĢ Ð³
ĠPh Ã¡p
ĠÐ¿ÑĢÐ¸ Ð¼ÐµÐ½
Ġesemp io
Ġass ociation
6 00
ÑĪ Ð°
Ġposs ono
Ġl áº§n
els er
zi ÄĻ
Ġ1 15
ep s
an ha
Ġvol te
åĶ Ĳ
ĠfranzÃ¶s ischen
ien cia
à´° à´®
Ġev ol
196 8
å½¢ æĪĲ
g od
Ġe uro
ĠReg iment
íķ ¨
Ġost at
ac i
un akan
Ġpers one
Ġp ien
ĠD ub
Ġsup pl
Ġn á»¯
ÑĨÐ¸ Ð°Ð»Ð¸
ĠF Ã¼hr
c ons
Ġlistop ada
ag ner
ine k
Ġbes uchte
Ïĥ Ïī
ĠÐłÐ¾ÑģÑģÐ¸ Ð¹ÑģÐºÐ¾Ð¹
Ð°Ð½ ÑĤÐ°
ĠÙħ Ø®ØªÙĦÙģ
ä½ Ļ
Tra kten
Ġko ta
Ġn ab
Ġ×Ķ×¡ ×¤×¨
à¸ ¤
ĠÐº ÑĢÐ°Ñģ
w ind
Ġf lag
ken al
Ð· Ð´
è£½ éĢł
ĠÐĺÐ² Ð°Ð½Ð¾Ð²
x is
Ġvers ione
op era
ĠG Ã¶
ĠØ§ÙĨ Ú¯
ÏĦ ÎµÏĤ
ĠÐ½Ðµ Ð¾Ð±
Ġland s
ĠáĢ ĸ
ita ine
Ġc uer
×ľ ×Ĵ
à¸²à¸ ¨
ĠØ² ÛĮ
Ġbeau coup
ak in
×Ļ×ł ×Ļ×Ŀ
: //
ĠK ons
ĠÐĺ ÑĤ
ĠØ² ÛĮØ±
Ã¤ch lich
ĠAd emÃ¡s
Ġecon Ã³m
for mer
d ag
ict ed
ĠF ig
ild i
ãĢį ï¼Į
Ġagr ic
ĠH in
Ġch annel
Ġlav oro
oc ra
Ġtra ins
æĸ¹ éĿ¢
Ġbes onders
ÑĥÑīÐµ ÑģÑĤÐ²
P eter
æĸ¹ å¼ı
Ġimmediat ely
Ġac ab
be i
Ġint ended
ĠÃ©ta bl
ĠÐĴ ÐµÑĢÑħ
Ġsort i
Ġg ang
Ġw Ã¼r
for me
Ã´ me
ro gen
ĠHigh way
r ica
çĭ¬ ç«ĭ
Ġau jourd
Ã¤f ts
Ø³ ÙĪÙĨ
ĠP ic
Ġcon front
Ġth r
Ġpro jects
Ð¸ Ð´Ð°
ie ÃŁ
ĠMar kt
×ķ×ľ ×Ļ
Ġ ),
Ġo ber
áº¡ ch
Ñĥ ÐµÑĤ
Ġfin ish
st elle
Ġn ied
Ø§ÙĦ Ø¨
n on
Ġk uiten
Ġtemp le
ĠI X
olog ique
ĠÐ·Ð° Ñħ
l ight
Ã© ma
ĠÐ¾Ðº ÑĢÑĥÐ³
Ġëĭ ¨
æµ ľ
Ġpol ity
ĠÛ²Û° Û±Û
g aben
çº ³
if en
ãĥ¼ãĥ ĭ
elligen ce
at ica
æĽ ¼
Ġtri p
ĠÑĥ Ð·
çµĮ æ¸Ī
×ķ×¡ ×ĺ
kk or
ĠTer rit
ik ut
Ġsp ez
isc onsin
é ¬
Ġex ecut
Ġkun st
Ã¤tz lich
Ġt on
s o
Ġê ¹
c us
à¸²à¸Ħ à¸¡
Ġn ama
in ci
aw n
ç¾ ½
ek i
im ed
Ġpos teriormente
ĠG ed
ĠK Ã¶
Ġ ãĢĬ
C arl
ar ca
Ð°Ð½ Ð½ÑĭÐµ
red edor
Ġde ad
atur ik
ĠHist ory
alt et
ãĤĤãģ® ãģ®
me z
au v
çī¹ åĪ¥
ĠMiss ouri
Ġs Ã¤
D em
atu ur
ĠØ¢ ÙħØ±ÛĮÚ©Ø§
ĠR af
ĠØ¨ ÛĮØ´
ĠÑĥÑĤ Ð²ÐµÑĢ
Ġord ered
çº ª
Ġste hen
Ġpartic ulier
197 1
ac jÄĻ
ĠÑĩÐµ Ð³Ð¾
ĠnÃ©c ess
ij st
Ġp urs
Ġer Ã¶ff
Ø¬ Ø¯
k Ã©nt
R es
Ġb amb
à¸Ļà¸ «
Ġkon k
Ġ186 9
id or
ĠÙ¾ ÛĮ
Ġpres erv
E le
å¿ ł
Ġeng ag
ĠL oren
Ġìŀ ¬
åĸ ľ
ëħĦ ìĹĲ
ĠCom un
n ungen
Ġelectr ic
Ġk ant
Ġprodu zione
ĠÑĤÑĭ ÑģÑı
Ġsl ow
åŁ ĥ
ĠczÅĤ onk
ar ik
ĠLig ue
ĠÐ¸Ð³ ÑĢÐ¾Ðº
t z
çĪ µ
Ġya ÅŁ
ĠBen ed
ÅĤo ÅĽci
ĠWh it
r ico
Ġpe ÅĤ
Ġseule ment
ar ina
ÛĮÙĨ ÛĮ
arb ij
ach en
ĠN AS
Ð½Ðµ ÑĪ
ĠNach dem
D ist
V ol
Ã©rica ine
Ġmas cul
el um
Ġmov ing
Ġw or
an ut
Ġanv Ã¤nd
Ġst essa
à¸ĩ à¸ģ
lan ta
ĠL ors
ĠÃ¶ pp
Ġur b
à§ Į
ograph ie
Ġprodu it
ãĢ ľ
Ã³ i
ãĥª ãĤ¹ãĥĪ
ĠÐ·Ð° Ð´
zy n
ØªÙħ Ø§Ø¹
Ġi alah
red it
Ġla atste
Ġtr y
kow o
Ġd ock
Ġdig unakan
ativ as
ĠPs ych
Ġoffici ally
åĬ ¹
ĠØ² ÙħØ§ÙĨ
ä½ Ľ
quar ters
Ġaff ili
Ġro yal
Ġdet ta
ĠÐ³ÑĥÐ± ÐµÑĢ
it ie
Ðº Ñģ
K o
Ġestud io
Ġph im
áĢ¯áĢ¶ áĢ¸
Ã³ f
ĠÐ± Ð»Ð¸Ð·
Ġbas en
c al
t Ã³r
ĠÑħ Ð¾Ð·ÑıÐ¹
tem ps
ver a
it led
ĠÑĢÐ°Ð· Ð´ÐµÐ»
áº¯ ng
Ġwe ap
ĠMilit Ã¤r
ĠPro zent
Ġíķľ ëĭ¤
×Ļ× ¥
Ġimp act
ĠÐ²Ð¾Ð¿ ÑĢÐ¾Ñģ
B a
Ð» ÐµÐ½Ð¸Ð¸
´ Ŀ
Ġg au
end ete
Ġch er
Ġco uncil
ĠÑĨÐµÑĢ ÐºÐ¾Ð²
ar et
ĠK Ã¼
ÐµÑĤ ÑĮ
Ġappear ances
Ġdiv enne
Ã¨ nes
g h
Ġgemeins am
ÏĥÏĦÎ· ÎºÎµ
ĠJ akarta
ĠÐĲ Ð´
ita ires
Ġo x
stan bul
mitt ed
ĠÎºÎ± Î¸
Ġa plic
à¦¬ à¦¸
Ð´Ð¸ Ð¹
oc y
ĠM ong
áĥĲáĥķ áĥļ
Ġw ant
Ġmach ine
áº¿ u
M ag
Ġà¤ħ à¤§
Ã§o it
Ġprz ek
Ġp in
ĠA D
ĠCh i
éŃ Ķ
Ġlleg Ã³
ĠìĿ´ íĽĦ
Ġdag li
Ġrev ista
v ier
Ġìĺ Ī
ĠÐ¿ Ð°ÑĢÐ°
Ð¾ÑĢ Ñĭ
Ġsp esso
ĠL iv
Ð¾ÑģÑĤ Ð¾
Ð» Ð°ÑĤ
Ġg ard
ãĤ¹ ãĤ¿ãĥ¼
Ġten er
urs os
d as
ors hip
ĠHal b
Ġk ali
íķĺ ê²Į
ÙĤ Ø§
áĥĺáĥ ¨
Ġing lÃ©s
T O
Ġf ans
Ġpu esto
è® °
Ġ×Ĺ ×ľ×§
Ġsul le
Ġ Ã¤hn
Ø§Ø³ Ø©
Ġs Ä©
ĠÙĩ Ø³Øª
Ø¬ Ø§ÙĨ
Ġact ions
Ġ à¸£
ĠS at
Îµ ÏĢ
ropolit an
Ġbas ketball
ĠA ur
Ð¸ ÐµÐ²
Ġs ust
Ð½ Ð¾Ð´
Ġon ge
Ä °
ĠÐ´ ÑĢÐµÐ²
gr amm
ter min
Ġpre c
ĠÑģÐµÐ»ÑĮ ÑģÐ¾Ð²
Ġà° ¹
196 9
ÐµÐ½ Ð½Ð¾Ð³Ð¾
à¸¢ à¸Ļ
Ġk rÃ³
Ġline a
M ont
Ġf Ãºtbol
Ġin om
Ġar c
ĠÙħØª ØŃ
le ÅŁ
Ġsec urity
Ġ×Ķ×ŀ× Ĺ
ÏĮ Î³
Ġne eded
éĿŀ å¸¸
pr im
åĽ ²
S ie
v io
Ġm erk
ep er
l is
ord nung
aut or
ĠÑİ Ð¶
ĠÐ¢Ð°Ðº Ð¶Ðµ
Ġs etzte
ĠC zech
c ap
ÅĦ c
Ġà¤ħ à¤¸
ĠØ£ Øº
Ġà§¨ à§¦
ãĥī ãĥ«
ÙĬÙĦ Ø©
ĠÄĳá» ķ
ĠÙĦ ÛĮ
áĢ Ł
èĩª æ²»
ÑĢÐµ Ð¶Ð´
ĠÙĪ Ø¥
Ġproc esso
z ew
×Ļ×¨ ×ª
ĠJ ed
ĠCl ark
æĳ ©
Ġ×Ķ ×ķ×¤
Ġsc Ã¨ne
eth ing
Ġ×ľ ×Ĵ
Ġl le
ĠSt Ã¤d
ÐµÑĢÐ± ÑĥÑĢÐ³
od ik
m is
æĭ ł
J ul
ĠR Ã©
ĠÃł s
ipp i
ec o
ĠÃ§ al
ãĥŀ ãĤ¤
æĬ ¥
un ia
Ġmo de
åĮĹ äº¬
m ier
æİ ¢
ille urs
çĳ ŀ
Ġla ws
ĠBar on
ĠÙħ Ùħ
Ġhistor ic
le ist
Ġpot ential
ãĥ¼ ãĤ¹ãĥĪ
Ġre pe
Ġpro por
l ast
Ġtrop ical
ĠIs lands
ĠL iver
ĠÑģ Ð¸Ð»ÑĮ
Ġme isten
Ġw all
met ros
çĹ ĩ
áº¯ n
Ġe c
Ġk Ã©sz
gel egt
ĠAl ban
P od
ÑĢ Ñİ
Ġkho áº£ng
ĠS ri
ä» ģ
Ġke in
åĨħ ãģ®
æı ®
ican os
á»ĩ nh
Ġáĥ ĸ
ç³» åĪĹ
Ġversch illende
Ġ185 9
ĠÑģÐ¼ÐµÑĢ ÑĤÐ¸
n an
Ġr Ã¨g
Ð² ÑĢÐ¸
å¾ ³
al Ã¡d
æķ Ī
Ã ľ
ĠB eh
y ne
çī¹ ãģ«
ĠÑģÐµÐ²ÐµÑĢ Ð¾
ĠHer zog
Ġob tient
ĠIn st
Ġà¦ §
Ġassist ant
ff er
ym i
Ġn go
ĠN ich
Ġal ten
Ġhem ib
me isterschaft
ÐµÑģÐ¿ ÐµÑĩ
ĠìĦ ¤
Ġwork ers
ĠB ij
ĠV id
è¿ ª
Ġresult ado
ad ron
Ġrecher che
ĠÃ¶ster reich
Ñģ Ð»ÑĥÐ¶
Ġì° ¨
ĠS oc
Ġeb be
ĠÐķ Ð³Ð¾
åħ į
amp s
Ġmuj eres
ãĤ°ãĥ« ãĥ¼ãĥĹ
Ġco unter
y el
ĠfÃ¶r s
Ġb anyak
de k
ÑģÐº Ð¸ÑĤÐµ
Ð¾ÑĢÐ¸ Ñı
áĥ® áĥķ
Ð¸Ð± Ð»Ð¸
Ġking dom
à®ķ à®µ
Ġ" âĢŀ
Ġhemib oreala
Ġo ll
Ġit alian
Ø±ÙĪ Ùģ
Ġstor ies
Ġdyn ast
ĠÐ¾Ðº ÑĢÑĥÐ³Ð°
g os
ĠP ul
Ġth ink
ĠMan agement
iz ing
N C
e ur
Ġel ections
Ġimm igr
áĥĲáĥ ĳ
æĬ Ĭ
åģ ¥
ĠH aut
at is
Ġmusic ale
Ġscient if
ĠF inn
at ies
ĠAut or
Ġsec onde
ohn ern
Ġcondu cted
Ġab ility
ĠÄĲ áº¡i
Ú¯ Ø±Ø¯
A pp
Ġfem in
fol ger
Jos eph
æ² ¢
Ð½ Ð¾Ðº
Ġz ako
ØªØ± Ø©
ĠAtlant ic
Ġ×Ľ×Ĳ ×©×¨
am ing
ĠB od
Ġc áº¥p
ĠC av
im men
Ã¼ss en
ĠFr anse
Ú© Ø§Ø±
Ø§Ø± Ùĥ
Ġcommon ly
kt Ã³
Ġwid ely
et es
ãĥ¼ãĥ« ãĥī
£áĥ ļ
Ġc ore
ill ing
Ġcre w
st Ã¼tz
Ġby g
enden cia
aller y
Ã¡ gi
icz nych
ĠSt art
è³ Ģ
ãĤĴ ãĤĤ
ĠV ien
ĠGeme inden
ì¡ ±
åıĬ ãģ³
ĠÃ©x ito
Ġpar mi
to u
Ġjo int
Ġb az
Ġhund red
ĠÐ°ÑĢÑħ Ð¸ÑĤ
æĸ¹ æ³ķ
Ġdivers os
Ġubic ado
Ġz uvor
Ġj ossa
Î½Î¿ ÏĤ
Ġbe ispielsweise
ÙĬÙħ Ø©
ĠJ ung
ĠÐºÑĢÐ° Ð¹
Ġeff ects
ip h
Ġcual quier
×ķ×ĳ ×¨
Ġgi orno
Ġtand is
T ur
åĬł åħ¥
Ã¤ ischen
Ñĭ Ð»
Ġc adre
Ġo este
æ¦ Ĥ
F Ã¼r
Ġc osta
ĠÐŁ Ð¾Ð´
Ġze igt
ĠRepubl ican
Ð¾ Ñĥ
Ġpar fois
å® ħ
ĠÑį Ð½
ouver neur
ÅĽ nie
ĠhÃ¤n en
Ġrem oved
ĠØ¨ Øª
å®Į åħ¨
ok er
ile y
ĠÐ¿ÑĢÐ¾ÑĦ ÐµÑģÑģ
Ġg ig
Ñģ Ð¾Ð½Ð°
ä»¥ä¸ĭ ãģ®
Ġt ennis
Ġl assen
Ñĩ ÐµÐ¹
Ð°Ð² Ð°Ð»
Ġh ur
ĠÎµÎ¯ ÏĩÎµ
Î¹ ÏĦ
à°ł à°¶
ãģĭ ãģĳãģ¦
ĠktÃ³ry m
im ens
iz ar
Ġad ult
Ġutil isÃ©
C r
Ġznajdu je
ĠD ick
Ġfut bol
Ġrelig ion
Tr ans
ta kt
Ð¿ Ð¿
Ġaut onom
Ġid Åĳ
ĠH ugh
als o
ĠÑĤ Ð¸ÑĤ
Ġins ide
ĠÑĪ Ð¸ÑĢÐ¾Ðº
rÃ¥ de
y ers
Ġlead ers
Ġt ol
ĠkÃ¼l Ã¶n
la ger
ĠH arb
Ġcon os
Ġo ud
Ġw ei
ãģł ãģĮ
et on
Ġphys ical
ud ed
H is
ë ¸Į
Ø§Ø¨ Ø©
×Ļ×© ×¨×Ĳ×ľ
E ine
ĠÙĨ ÙĪ
ĠÐ´Ð° Ð¶Ðµ
ie z
Ġdiv ided
Ġm ales
ØŃ ÙĪ
k iej
Ġform al
ĠÃŃ gy
ĠS ign
Ġor b
ĠÐ´ Ð°Ð»ÑĮ
é£ İ
Ġd ark
i ados
éļ ľ
Ġas es
Æ°á» Ľi
Ġà¤ķà¤° à¤¨
Ġp us
åĩ ¦
Ġtarg et
Ġl ider
ĠPart i
Ġ Ã¡g
Ġrec ently
Ġgeh t
ĠB aden
Ðµ Ñı
ãĥģ ãĤ§
Ġsij ait
ĠØ§ÙĦ ÙĦÙĩ
Ġ ).
×ĳ ×Ļ×¢
Ġaut ob
Ġident ific
ĠÑĤ Ð¾Ð²Ð°
Ġos Ã³b
ĠPrem io
ĠD j
ĠY our
Ġfoc us
Ø® Ø¨
éĸĵ ãģ®
ratt utto
ra i
ed ig
ĠÙģ Ø¹
ĠC Ã¡c
ÑĢÐ¸ ÑģÑĤÐ¸
ill i
Ġjed en
oc ated
k ommen
ord re
åľ ĸ
Ġk ult
Ġesc rib
Ġanci en
ist ik
ar ren
Ġy ak
Ġliv es
re tt
Ð» Ð¸Ð½Ð°
Ġst y
ĠMag azine
ĠD NA
ãĤ¹ ãĤ³
uit se
it ore
l op
Ġst ock
Ġmá» Ľi
ĠAustr alien
Ġv org
I L
Ġal one
Ġpers ona
Ġb akar
æ® ¿
Ġstreng th
ry pt
an al
al om
Ġuit ge
tag lia
ÃŃ os
alt y
ê ±´
ob en
Ġ×ł ×§
Ġcandid ate
ĠH inter
ĠL yon
Ġoff ers
Ġprom ov
ograph y
m un
Ġcommun autÃ©
er land
f il
å¾ ´
ĠÑĢ Ð¾Ð»ÑĮ
Ġallem and
Ġp ec
Ïģ Ïħ
Ġcont ent
Ø¯ Ùģ
ap rÃ¨s
il and
ĠÙĦ ÙĬ
×Ļ×ĳ× Ķ
M or
Ġ6 9
ĠÐ¾Ð±Ð»Ð° ÑģÑĤ
Ġ9 9
Ġmod elo
ve er
Ġgrand s
éĻ ³
Ġloc ale
Ġsch rieb
Ġb ard
ĠÑĦ ÑĥÐ½Ðº
ëŀ Į
Ġomgiv ande
I ng
ĠL ok
âĢĿ ãĢĤ
ãģ¨ ãģį
Ġpurch ased
ĠCh ampions
ĠV all
ost ol
zy st
Ġde pos
Ġfl or
Mar ie
j amin
ĠRe form
Ġpunt os
ĠSch utz
Ø§Ø °
An ton
Ø² Ø©
Ġjo in
à¸£ à¸ģ
Ã °
Ġ7 7
ĠEin zel
ĠAle ks
áº¡ nh
ver te
onn ement
Ð°Ð´ Ñĭ
w eit
ÑĢÐ° Ñħ
Ġteil weise
Ġd ice
Ġt ort
åľ §
ritann ien
åĺ ī
i Ã§Ãµes
Ġsub st
h ai
Ø´ ÙĬ
ĠAl an
æķ° ãģ®
ri as
å¾ ģ
g art
nik Ã³w
Ġv ielen
up aten
Ġgain ed
ĠVer kehr
lich es
up ts
ĠFran co
Î¼Î± ÏĦÎ¿ÏĤ
Î´ Î·
Ġ×ķ ×Ĺ
ãĥĲ ãĥ¼
ĠÄĳo Ãłn
ĠgehÃ¶r en
g on
ĠIr land
àµ¼ à´¤
Ãł u
amb re
Ġcol abor
ÑģÑĤÐ² Ð¸Ðµ
Ġincl uso
Ġdist int
Ġgr Ã¤s
Ġbata ille
ÙĪ Ø©
áĥ ¤
ĠÙĬ ØªÙħ
ĠÃ¡ ltal
ãģĵãģ¨ ãģĭãĤī
Ġp ia
ab et
ĠZ ar
Ġref lect
g ere
ãĤĴ åĲ«
ĠInstit uto
Ġà´ ¦
à®¯ à®©
Ġpro xim
Ġ9 8
Ã¤t ten
è²© å£²
Ġ7 4
ele y
Ġs ok
ĠBeg riff
ÐµÐ½Ð¸ ÐµÑĤÐ¾
Ġplann ed
Ã¼ ge
à¸£ à¸¡
b at
ĠØ£ÙħØ±ÙĬ ÙĥÙĬ
ĠSal z
ì ´Ī
Ġà´ Ń
Ġb innen
Ġcom es
à°° à°®
èª ²
áĢ Ĥ
ĠÐ® Ð¶
ä¼ģ æ¥Ń
Ġb ow
Ġpo zy
Ġrec uper
ip er
Ġdesc ub
ç½ ²
Ġdemon str
B lack
Ø± Ø§
Ġbe vor
ãĤĴæĮģ ãģ¤
Ġom dat
Ġtet api
a o
ÃŃ gen
ÑĭÑĪ Ð»ÐµÐ½
Ġs ir
ĠvÃ¤ stra
Ġ9 6
Ġih nen
Ġde ve
ĠS ix
áĥĶáĥľ áĥ¢
h es
Ġim age
Ġart icles
Ġreve aled
196 7
Ġsigui entes
ãģ® ãģ§
ÙĪØ¬ ÙĪØ¯
ÑĦ Ð°
ĠMo ore
Ġparticip ated
Ġbef inden
ĠCh or
c ome
Ġup per
èĸ ¬
Ġstre et
ĠReg el
Ġric ev
ĠtÃ©l Ã©
V an
ĠK il
Ġspr ing
Ġmach te
h op
è½ Ħ
Ġanim al
b ah
Ġop ere
u in
Ġtelev isiÃ³n
Ġr icht
ĠÃ¥ ter
on ial
ÄŁ er
Ġgar ant
Ġpe ak
Ġch Ãºng
ĠOlymp ics
Ġthá»© c
Ġli qu
w ier
ok en
ch ing
Ð» ÐµÑĢ
ĠÐ½Ð° ÑĥÐº
Ġc á»©
Ġfac ilities
Ġlute go
Ġs osten
ĠÑĢÐ°ÑģÐ¿ ÑĢÐ¾ÑģÑĤÑĢÐ°Ð½
ÙĨ ÛĴ
ĠMil an
ig keiten
ut ako
Ġest ate
ij o
ze uge
Ġho ch
. :
Â Ń
ast ro
éĥ¨ éļĬ
mb H
h ely
Ġout ras
ĠÐ¾ ÑĦÐ¸ÑĨÐ¸Ð°Ð»ÑĮ
ekt or
Ġproy ecto
u fer
ĠÐ¿ÑĢÐµÐ´ ÑģÐµÐ´
Ġh Ã³a
Ġder e
Ġpod em
Ø² Ùĩ
åĲĪ è¡Ĩ
Ġotr zyma
ĠdiffÃ©r ents
Ùĥ ÙĪ
ÙĨØ¯ ÛĮ
ÐµÐ¼ Ð°ÑĤ
r ont
Ġsp raw
Ġdestro yed
og rap
Ġwo od
ĠprÃ©c Ã©d
Ġr ib
R I
Ġà° ¡
à¸ł à¸²à¸ŀ
Ġth er
ãĤ¸ ãĥ¥
ak ers
æ¯ İ
ĠN aj
Ġactiv ity
str ument
isten cia
æĲ Ń
Ġsat ell
al at
Ð½ ÑĥÐ»
unt os
mi ÅŁtir
ran ken
Ġorgan isation
qu in
Ġterr Ã¤ngen
ĠV ier
ig are
ri Ã³
ë© Ķ
åĲ Ľ
eg ung
é ¼
? "
ĠS atur
ä¸Ń èı¯
éľ ĩ
ë¡ ł
Ġmed ian
us ter
ĠUn iwers
Ġpublic ado
ĠMag n
ĠLib rary
åľ° åįĢ
Ġfor est
z iej
ĠHer mann
Ð½Ð¸ ÑĨÑĭ
sz Ã¡g
I tal
Ġ×Ľ ×ĵ×Ļ
ĠrÃ©alis Ã©
ģ áģ
Ġren amed
éĢ ĥ
ĠSpiel er
ĠL it
Ġqual ity
ĠÄĳ áº¥u
Ġs ovi
ĠÏĢÎµÏģ Î¹Î¿
Ġattravers o
ĠìĹ Ĳ
Ġw ing
E A
ĠÑĥ ÐºÑĢÐ°
åĲĮ æ§ĺ
Ã¤us er
Î± ÏĦ
æĿ Ł
ĠÐ´ ÐµÐ¼
ĠPol ish
ĠÐ²Ð¾Ð· Ð´
ÑĢÐ¸ Ð´
if fer
ip t
Ġagre ed
à®Ł à®°
Ġsp read
Th omas
ĠÐºÐ¾ Ð¸ÑĤÐ¾
D F
å¼ ¾
Ø± Øª
ĠrÃ© seau
h Ã¶
ãĤ· ãĤ¹ãĥĨ
Ġà¤ħ à¤ªà¤¨
ĠMi ami
Ġcin qu
ri os
ĠÙĬ ÙĨ
Ġìķ Ī
Ġw es
Ġil m
g gi
ĠG ordon
v erein
ÑĢÐ°Ð· Ð´
id ay
Ġel f
Ġ×ł ×¢
ĠÏĥ Ïĩ
ĠÑİ Ð³Ð¾
Ñı Ð±ÑĢÐµ
Ġb ott
g ot
×ł ×ķ×¢
ĠAnd ers
Ġcapt ured
Ġexpl os
U r
ĠÐ¸Ð½ ÑĦÐ¾ÑĢÐ¼Ð°
Ġd imin
itÃ¤ ten
en st
ĠRac ing
Ġkon st
Ġkez d
Øº Ø©
issensch aften
ĠáĥĲáĥ ¦
Ġpopol azione
ä¿ Ħ
ugu ay
Ġdi retto
Ð°ÑĤÐµÐ» ÐµÐ¼
Ä±s Ä±
Äħ g
×ª ×¨
å° ļ
Ġcon cep
ĠBred den
ĠÑĤ Ð°Ð¼
ĠÑģÐ±Ð¾ÑĢ Ð½Ð¾Ð¹
ĠW el
Ġfac ult
Î¹Î¿ ÏĤ
á»į ng
æŃ´ åı²
s ze
×Ļ×ł ×Ĵ
um er
Ġfeatur ing
Ġadopt ed
l Ã¼
åįĹ éĥ¨
Ġc áº§u
el em
Ð¾ÑĤ Ñĭ
oma ine
E t
Ġre vel
Ġk athol
ĠwiÄĻ ks
ic ola
è¾ ĸ
à¸ĵ à¸°
Ð¸ÑĩÐµ ÑģÐºÐ¸Ðµ
Mich ael
Ġk amen
æŃ ·
Ġoper ating
k ich
Ġhomb res
G re
or ient
Ġum f
Ġfor n
å»º ç¯ī
Ġju ego
Ġparti re
Ġcapac ity
ut u
Ġfor ward
à¤ ĵ
Ġmu zy
w orks
Ã¡n ico
å°± ä»»
Ġequ ival
Ġfunc ion
p at
Ġrius c
à´° à´£
bl ad
ĠF M
Ġloc omot
um lah
ĠÐ¾Ð± ÐµÑģÐ¿ÐµÑĩ
ĠÐ¼Ð¾Ð¼ ÐµÐ½ÑĤ
Ġz ie
Ġdefe at
ä¸ ĵ
Ø· Ùģ
Ġcomb att
Ġ185 7
Ñĩ Ð¸ÑĤ
Ġm ik
ut ing
) ",
Ġdire tt
ĠÐ¿ÐµÑĢÐµ Ð¿Ð¸ÑģÐ¸
ok uv
Ġelec tron
li othe
ĠS of
ĠAl ger
Ġà®ħ à®°
Ġm Ã©r
ĠÎ Ĩ
Ġor igen
ĠSt rat
H S
w ik
ĠProvin ce
k land
ub ro
Ø¹ Ø§Øª
Ġlarg ely
Ġb iá»ĥn
ĠSci ences
eter re
P seud
å· »
Ġt Ã©
ĠBer uf
è² ¨
Ã¤t igkeit
ãģĭãĤī ãģ¯
ÐĶ Ð¶
ç¯ Ħ
Ð´Ð¸ Ñı
Ġg iving
tr Ã©
Ġok rÄĻ
Ġb ak
ÃŃst ico
ĠØ¬ Ø§ÙĨ
ĠW a
ç´ Ļ
ut or
aj i
s Ã¡g
ĠØ§ÙĦØ¯ ÙĪÙĦ
éĺ ³
Î¿Ïį Î½
d Ä±r
it age
ĠT Ã¢y
Ġ×Ľ ×ļ
×ĸ ×Ķ
R ed
j Ã¶r
Ġgrand i
ĠPl us
Ġdes emp
ird s
ĠvÃ¤ xt
ytu ÅĤ
Ġtreat ment
åº ı
ĠìĿ¼ ë³¸
Ġkir Ã¡ly
à¸Ļà¸ Ī
zon ych
Ġz ul
stre cke
Ã³ z
ÑĢÑĥ ÐºÑĤ
S ur
×ķ×¨ ×ļ
ĠC asa
×ķ×¨ ×ĺ
ĠÑĥÐ½Ð¸Ð²ÐµÑĢÑģÐ¸ÑĤ ÐµÑĤÐ°
Ġper ust
ÙĦ Ø¹
Ġmatr imonio
Ġg ara
ĠCan al
Ġvoy age
ĠWal ker
Ġaccept ed
ï½ ŀ
Ġun s
ÙĬÙĨ ÙĬØ©
Ġse arch
Ġdi k
Ġ7 8
Ġsur tout
Un ter
Å¼ Äħ
Ġk az
w ed
Ġro les
Ġdedic ated
à°µ à°¸
ĠSen ate
ĠÃ§ ok
C he
éª ¨
M as
C S
Gen eral
ur ning
Ġsol id
Ġr Ã¶m
Ġl yr
Ġtr anh
Ġp Ã©n
Ġkar ier
ĠÐ¼Ð¾Ð³ ÑĥÑĤ
Ġ×ķ ×ĳ
Ġhe art
Ø¹ÙĦ Ø§ÙĤØ§Øª
Ġfrequ ent
Ø§Øµ Ø©
åĲ ¦
ĠÐ¿ÑĢÐµÐ´ Ð»Ð¾Ð¶
Ð°Ð¹ Ð½
ĠÑģÐ²Ð¾ Ð¸
ãĤ·ãĤ¹ãĥĨ ãĥł
ĠJord an
Ġa lak
Î¿Ïį ÏĤ
196 5
ìĦ Ŀ
Ġsign ifica
ab lo
Ġquart ier
c ore
ãĤıãĤĮ ãĤĭ
ĠE arl
à±į ,
å¹ ħ
ous ly
Ġm ie
ĠÑģ Ð¸Ð½
Ġpress ure
ĠAt l
re ten
ann ing
Ġmar que
Ġhas zn
à¹Ĥ à¸¥
ĠÎµÎ½ Ïİ
éĢļ ãĤĬ
it is
×ķ×ł ×Ļ×ª
Ġc ependant
ĠK un
Ġ8 8
ĠÐ·Ð°Ðº Ð»ÑİÑĩ
Ġaut our
z os
ĠÑĤÑĢÐ° Ð´Ð¸
p op
ĠPro ject
Ġáĥ «
à¤ľ à¤¨
é® ®
Ġt endo
el ho
ãģ¾ãģ§ ãģ®
ĠEv angel
ĠInd iana
çº Į
ĠØ§ ÙĨØ¯
Ġsv ens
P e
Ġáĥ¡áĥĲáĥ ®
Ġcod ice
Ðº ÑĥÑĢ
ĠÐĳ ÐµÑĢ
t ies
196 4
Ġf antas
Ġst orm
ĠcrÃ© Ã©
Ġ×¨ ×§
st wo
Ġter c
Ġà¤ ĺ
amb i
åŃ¦ éĻ¢
ap ed
ĠÐŀ ÑĤÐµ
Ġprob ably
èĺ ĩ
os is
Ġreg elm
ĠnastÄĻp nie
rol le
ĠSo zial
Ġrif er
Ġthere fore
aly se
ĠH erb
ĠÑĤ ÑĢÑĳÑħ
×§ ×Ļ
ĠAr b
n u
Ã©p end
ag d
Ġr iviÃ¨re
èµ· ãģĵ
ĠÐ¿Ð¾Ð» Ð¾Ð²
Ġí Ĺ
ĠH ir
ãĤ¹ ãĥĿ
ÙĦ Ø§Ø«
arb eiter
ìĭ ¬
Ġac uerdo
ĠL ip
ko ÅĤo
196 6
×ķ×¨ ×ķ×ª
Ġespecial mente
èĶ µ
Ġob sz
ĠdÃ© ro
b t
af en
Ġcar s
Ġlead ership
Ġport ra
ĠFerd inand
Ø§Ø± Ø§Øª
à¸Ń à¸ª
Ġmiem bro
ÅĽ rÃ³d
ĠÐ½ Ð¸Ðº
kt ion
ĠN ad
Ðº Ð°ÑĤÐ°
ãģ¨ ãģ¨ãĤĤãģ«
Ø§Ø³ ÙĬØ©
z ak
Ø· ÙĪØ±
Ġs id
ÑģÐº Ð¾Ð²
Ø§Ø± Øª
Ġju Å¼
ess ed
Ġtyp ically
W elt
ĠÐ¿Ð¾Ð» Ñĥ
S il
Ġt ierra
ĠØ§ÙĦÙħ ÙħÙĦÙĥØ©
áĥĲáĥ ¦
Ġmouv ement
Ġfe u
ĠÐ¿ÑĢÐ¾Ð± Ð»ÐµÐ¼
ĠØ¨ Ø²Ø±
ĠÎ ¾
ĠÑģ Ð¾Ð·
ÙĬ ÙĬÙĨ
ĠR ÃŃo
ĠkÃ¤ ytt
Ð¸Ð» Ð»Ð¸
Ġ ãģ¯
Ġent fern
reg on
Ġb á»į
Ġbas eball
ĠPrim era
ìķĺ ëĭ¤
f ert
Ġg Ã¼
Ġ×ŀ× Ķ
ĠD J
æ¨ ¹
up art
Ġass igned
Ġproblem as
Ġlangu ages
Ġà¤ķ à¤°à¤¤
ĠÐ» Ð¸ÑĨ
Ġis la
Ġle ar
Ġ×¤ ×Ļ
Ġb ou
Ġal an
Ġm Ã¥
è¿ İ
Ġà¤° à¤¹
Ġorganiz ed
ĠÐºÐ¾Ð¼Ð°Ð½Ð´ Ñĭ
Ġde ur
è¨ ª
Î¿Ïħ Ïĥ
ĠÙģ ÙĪØª
ĠÐ¾ÑĤÐ´ ÐµÐ»ÑĮ
ĠTenn essee
Ġest ar
wh ich
ĠÑĥÑĩ Ð¸Ð»Ð¸
Ġcomp ort
oss en
ĠÐĿ Ð¾
Ġenc ontra
Ġl Ã¤s
æħ ¶
Ã¤ ksi
Ð°Ð½ ÐµÑĤÐ¾
Ġbritann ique
Ġwith d
ĠíĬ ¹
ens en
Ð¾Ð½Ð° Ñĩ
Ġdah er
ir ono
ĠÐ¿Ð¾ÑģÑĤ ÑĥÐ¿
ãĥĭ ãĥ¼
ant wort
Ġmaxim um
ĠLt d
ĠPort o
ĠØ± ÙĪØ²
ĠB ert
Ġat as
ĠS ed
Ġgen utzt
ĠáĥĶ áĥłáĥĹ
geh end
ĠÙħ Ø±Ø¯
Ã¥ d
Ġmater ia
è§ Ģ
ĠsÃ© lection
in u
×¨ ×¤×ª
olog ies
Ġà´ Ī
Ġdiff ic
Ġacadem ic
ĠÑĥ Ð¼ÐµÑĢ
s ar
ÑĢÐ° Ð¹
Ġà¤ §
å¼ ł
ĠÎ± Î»Î»Î¬
Ġdok ument
P ara
Ã©c ie
Ġsem if
ì »
Ġw ÅĤad
er ta
ch ant
ĠÐ¶ÐµÐ½Ñī Ð¸Ð½
Ġr igu
ë¦¬ ìķĦ
Ġal ue
ÐµÐº ÑĤÐ¸Ð²
Ġg ere
ĠT ras
Ġpoz osta
un un
ĠÑħ Ð¾ÑĢ
it sch
Ġw ild
åł´ æīĢ
ĠQueens land
ãĤĴè¡Į ãģĨ
ich a
Ġfig ura
ĠÐ¿Ð¾ÑģÑĤ Ð°Ð²
ĠÅĽw iata
ĠÐºÑĬ Ð¼
ç« ¹
ĠW isconsin
ĠBr uder
ĠØ· ÙĪÙĦ
ĠI z
ang i
ĠÐŁ Ð°Ð²
ĠÑģÐ°Ð¼ Ð¾Ð»
ĠFern seh
Ġapar ece
ar to
de an
Ġ7 3
ÅĦst wa
Ġk ah
ĠÙĪÙĦÙĥ ÙĨ
ĠMag yar
N g
Ġsu ic
ĠÑĤ Ð¾Ð¹
ĠEl is
ãĤĴ å¾Ĺ
Ġequip ment
Ġazon ban
ĠOlymp ic
A ct
ĠFamil ien
v lak
h ur
l Ã¶s
ĠR et
Ø´ Ø¯
ĠN ied
Ġespec ies
Ġentstand en
ari um
ĠÑģÑĤÐ¾ÑĢÐ¾Ð½ Ñĭ
Ġman usc
ĠCo oper
ä¸Ĭ æµ·
Ġfu era
ĠBow l
ãģ» ãģ©
ÑĢÐ¸ÑĤ Ð°Ð½
ouv re
ver w
Îµ Îº
v ision
Mart in
Ġre ven
Fran ce
ĠÐ¿ÑĢÐ¸ Ð½Ð°Ð´
å½¢ å¼ı
Ġs ales
ĠÐ¦ ÐµÐ½ÑĤ
Ġg dy
Ġstat unit
ĠB und
ist iques
la u
Ġch im
ĠAls o
å¥ĳ ç´Ħ
Ġ×Ķ× Ķ
ĠÐ¿ÑĢÐµ Ð¼Ð¸
æĤ ª
ãģ µ
tr Ã¤
Ð°ÑĢ ÑĤÐ°
Ġgre en
à¸Ľà¸£à¸° à¹Ģà¸Ĺà¸¨
ĠÐĿÐ¸Ðº Ð¾Ð»Ð°
Ð°Ð² Ð¸ÑģÐ¸Ð¼
oll ar
ãģĻãĤĭ ãģĵãģ¨ãģĮ
Ġacqu is
Ġmemb ro
Ġg anz
Ġenk ele
ìľ¼ ëĤĺ
Ġarg ument
Ġw od
wh ere
ĠÃ Ĺ
Æ°á»Ľ m
Ġg ibi
ÑĢÐµ ÑĪ
Ø¶ Ùħ
ĠPol en
Ġcin emat
ĠØŃ Ø§ÙĦ
×ĳ×© ×ł×ª
ĠJ ay
ĠØ§ Ø¹
å· ¨
Ġ×ł ×¤
ĠÐ°Ð½ Ð³Ð»Ð¸
Ã ģ
f ors
ĠI de
Ġ×Ķ×¢ ×Ļ×¨
æĶ» æĴĥ
Ġb ert
ĠHol z
ÙĪ Ùī
Ġsop rattutto
Ġpl upart
ĠHo uston
Ġsuiv ante
Ġdecl ared
Ø§Ø± Ùĩ
ÐĹ Ð°
çĬ ¯
M ark
Ġdes a
ĠDes ign
Ġw ÅĤ
om pl
Ġkes k
ÑĥÑħ Ð¾Ð²
ãĥĪ ãĥª
. /
ãģŀ ãĤĮ
il ian
áĥļ áĥĶáĥĳ
ad urch
ÅĽ l
im it
p te
Ġcondu ct
Ġm Ã¨re
ĠM au
ĠR ain
ab er
Ġma akt
Ġorganiz z
à¤ ¢
Ġarr est
Ġs ama
ĠÐº Ð¾Ð¹
in an
Ġj ÄĻzy
Ġabsolv ierte
ĠØ³ Ùħ
Ð¸Ð¼ Ð°
Ġw it
ĠÐ± Ð¾Ð»
åĢ ī
Ø¹ ÙĪØ¯
ĠMem orial
al ta
Ġact ually
ãģĿãĤĮ ãģŀãĤĮ
ĠFl uss
ver tre
ĠLiter atur
Ġtrad icional
ĠÎ´ Ïį
Ġ ãģ®
19 39
Ġi ÅŁ
à¸²à¸ °
ĠM ath
éĢ Ĳ
å ª
Ġel les
æĺ ĩ
ĠÐ¿Ð¾Ð· Ð¸
Ġtyl ko
Ġpremi Ã¨res
ĠÑĨÐµÑĢ ÐºÐ²Ð¸
up es
ãģ¨ è¨Ģ
ĠI S
à¤ ħ
ĠAn w
Ġt áºŃp
ÅĦst w
Ġbo is
am mer
Ġre j
Ġth áº¥y
á»ĳ t
ĠhistÃ³r ia
Ġv ett
ĠStand ard
Ġelek tr
ÐµÑĤ Ð¸
èº į
Ġs ag
ĠC uba
ĠAm b
Ġom rÃ¥det
ra ges
ub les
ĠHar vard
ĠÙĨ ÙģØ³
èª¿ æŁ»
Ġdep end
ĠÎŃ ÏĩÎµÎ¹
che id
Ø§Ø¨ Ø¹Ø©
Ġngh iá»ĩp
áº¡ m
å§Ķ åĳĺ
åŃ¦ çĶŁ
Ġtal ent
ic ien
ĠW ieder
íĮ Ĳ
Ġ×ª ×§
Ã¢ ge
ar at
h el
ĠA rea
à´ «
Ġang lais
ĠÙħ Ùĩ
Ð¼Ð° ÐµÑĤ
ĠMer c
ĠÐ¸Ð½ÑģÑĤÐ¸ÑĤ ÑĥÑĤ
Ġest ava
pp e
ãģ¨åĳ¼ãģ° ãĤĮãĤĭ
æł ĩ
wer ke
Ġt Ã¶rtÃ©n
à´ķ à´¯
v Ã¡n
ĠVerein igten
re it
æłª å¼ı
ĠcÃŃm Å±
ĠgrÃ¼nd ete
Ġb ate
Ð·Ð° Ð¿Ð°Ð´
ãģ¨ãģĹãģ¦ ãģ®
Ġáĥŀ áĥł
åĪ Ļ
Ð°Ð¼ Ð±
Ã® ne
Î¾ Î·
Ġp oc
ÃŃ z
áº£ nh
çį İ
e al
Ġprogram ma
D esp
ĠÐ¿ÑĢ Ð¾Ð¿
ĠPol ice
à¦¬ à¦¨
åľĭ å®¶
Ġv Ã©
éļ ı
Ġse hen
Ãª que
Ġìļ Ķ
å¹´ çļĦ
Ġkad ar
ry ty
×Ļ×ĺ ×Ķ
Ġa ki
as al
b eg
ĠDesp ite
Ġà®® à®ķ
Ð¾Ð½ ÑĤ
ãĥŀ ãĥ«
ĠN eb
am as
zy ch
Ġbran ch
l ungs
áĥĺáĥĿ áĥľ
Ð¾Ð³ Ð°
ĠØ§ÙĦÙħ Øµ
ĠØ§ÙĦØ ¶
æĸ½ è¨Ń
Ġfr Ã¨re
f lÃ¤che
Ġpersonn el
Ġalong side
Ġr Ã¡p
Ġat hlet
ĠáĢ ĳ
Ġêµ °
èĥ ŀ
Ġde utlich
ĠS v
Ġp ack
×ŀ× ĳ×¨
ĠÙģÙĬ ÙĩØ§
ne um
Ġm undial
ĠHol land
ot yp
Ġtar toz
Ã©n Ã©
ĠLa ur
k amp
z na
Ġin m
Ġth Ã¬
Ġresult ed
V P
Ñĥ Ñį
ĠSt ato
ĠÃº nica
ĠÑįÑĤÐ¸ Ñħ
ouv elles
ĠÃ©lect ions
Ġl iÃªn
ĠMil ano
Ġentsp rech
Ġet was
Ġeff ort
ÅĽ cio
Ġeigen e
ĠØ¨ Ø§Ø´
Ù¹ Ø±
Ġgleich en
ĠSt utt
ãģĮ ãģĤãģ£ãģŁ
ĠUn ido
Ġkle inen
ĠM ission
Ġfig ures
ĠÃ Ĥ
s an
èĹ ı
ĠSp ace
Ġminist ro
Ġy ards
å® ¿
ash ion
x imo
ĠV alle
Ġ×ł ×Ľ
ĠÐ» ÐµÐ³
Ġpos izione
Ġexpand ed
m ill
Ã¥ nd
ĠWe ek
ops is
itt Ã¤
ro id
ĠÑĩ Ð°Ñģ
Ġ1 18
Ġ×© ×ł×Ļ
ĠCo untry
end ar
ĠÄĲ á»©c
al ista
Ġst yl
ĠmunicÃŃp io
ĠÐ¿ÐµÑĢÐ² Ð¾Ð¹
Ġbeho ort
ĠD opp
Ġed ad
Ġtr áºŃn
áĥĺáĥ¡ áĥĺ
x ual
ĠÐ° Ð³
ĠÐ¿ÑĢÐµ Ð¿Ð¾Ð´
Ġt um
ĠØ´ Ø¨
Ġer klÃ¤r
å®¶ ãģ®
Ġcin ema
F M
Ä Ľ
Ġà°ķ à°³
Ġto eg
Ġmiejsc u
ĠÐ¸ Ñģ
Ġprote ct
Ġex ecutive
at zen
ĠÐ¼ Ð°ÑĪ
Ġfollow s
ol in
é«ĺ æł¡
ĠÑģÐµÐ· Ð¾Ð½Ð°
ÐµÐ´ Ð¸
ĠÐ²Ð¾Ð¹ ÑģÐºÐ°
ĠÐ± ÑĢÐ¾Ð½
Ġsuff ered
ĠS eiten
Ġì ¢ħ
or ben
Ġcit izens
ĠA R
net en
ch ez
ëĦ ¤
Ġel abor
ĠverÃ¶ffentlich te
ĠÑģÑĤ Ð°Ð²
ĠÐµ Ð´
h um
J an
ĠHill s
ĠVors itz
Ġp av
Ġ×ķ ×ľ×Ĳ
éĻ £
ĠR as
ĠF ollowing
ad ow
aw ah
CA A
Ġrom ant
ĠÐ² Ð°Ð¶
Ġol ivat
och en
Ġ13 0
Ø° Ùĩ
æŃ ©
ëı ħ
ĠÐ¸ÑģÐ¿Ð¾Ð»ÑĮ Ð·Ñĥ
à®² à®®
om ini
Ġberg ig
k ach
Ð¿ ÐµÑĢÐ°
ĠÐ¾ÑĤ Ñģ
ĠG mbH
ĠÐ´ÑĢÑĥ Ð³Ð¸
Ð¾Ð½ Ñĭ
Ïĩ Î½
Ġalt ro
Ġflo or
Ġm igr
Ġdem ande
Ġser ial
ê¸ Ī
ĠK amp
Ġvo ice
ig l
Ġel ekt
Î¸ Î½
Ġh az
Ġco oper
Ñı ÐµÑĤ
Ġein igen
Ġmod er
Ġëį °
h is
ĠÐ½Ðµ Ð¿
entr ic
ĠÐ½ÐµÐ¾Ð± ÑħÐ¾Ð´
ãĤ ĥ
ac u
Ġ×ľ×ŀ× ©
Ġa rab
åħ± åĲĮ
ÐµÑħ Ð°Ð½Ð¸
ĠÑģÐ» Ð¾Ð¶
Ġb Æ°á»Ľm
Ġr isk
×Ĳ ×ķ×ª
Ġlo op
fÃ¼hr er
ĠH ell
od ia
ial mente
Ġhand elt
åĮĹ éĥ¨
Ġoccur red
ĠIra q
Ġc y
ĠM P
Ġì ¦
ĠGabri el
ĠOrgan isation
ãĥ³ãĥĩ ãĤ£
ä»ĺ ãģĳ
Ġc um
ab i
íĶ ¼
ĠÑĤ ÑĢÐµÐ½
ĠktÃ³re j
un ki
ek an
ĠR ick
r imin
Ġex tr
ĠÐĿÐ¸Ðº Ð¾Ð»
Ã³n ica
çĻº çĶŁ
åŁİ å¸Ĥ
z ony
Ġre k
wie gend
áĥĲáĥł áĥĺ
ĠAr mee
å² Ľ
alis mo
ĠSchwe izer
Ã¡ ja
ĠÑģÑĤ Ð°
Ġth am
C la
Ġval am
Ġvol gende
Ġsil ver
ist ol
çĽ Ĭ
à¸Ļà¸ ĺ
×Ļ×ľ ×Ļ×Ŀ
é ĭ
Ġsen c
Ã¡s ok
Ð°Ð»ÑĮ Ð½Ð°Ñı
and osi
Ġac omp
Ġpet ite
Ġ×Ĳ ×ķ×ª×ķ
wer p
Ġpers p
ãĤı ãĤĬ
Ġf is
ĠC ec
ĠLiver pool
ĠÑĤ Ð¾ÑĤ
sk l
Ġlang ue
T ube
ĠlÃŃ der
Ġfr Ã©qu
Ġà®ĩ à®µà®°
arr ing
Ġr áº¥t
% ).
á ¹
ÅĤy w
Ġterrit ory
ĠÅ ł
Ġprincipal ement
ì ¿
ĠØ§ ÙĩÙĦ
Ð°ÑĤ ÑĢÐ¸
ĠB ack
éĻ ħ
áĥ ĸ
ì¶ ľ
àµ ĥ
Ġauf genommen
Ġca ÅĤ
Ġdo ÄŁ
ts Ã©g
Ø§ÙĦ ØŃ
ÙĨØ¯ Ø§
H an
us in
à¤ª à¤°
L C
Ġbeh av
occ up
Ġs alt
ĠáĥłáĥĿáĥĽ áĥĶáĥļ
heirat et
H z
Ġsp an
ĠTr ad
ĠÐ¿Ð¾Ð´ Ð¿Ð¸Ñģ
Ġdivers as
ãĥ³ãĥ ĳ
B orn
L S
Ñħ Ð¾Ð²
å¥ ª
m aktadÄ±r
ĠW ork
ÑģÑĤÑĢÑĥ Ðº
ÃŃt Ã©s
Ġnach dem
ĠAnth ony
ĠCap it
ĠNor weg
ĠL omb
u il
ĠCh art
it ing
ĠStre cke
ĠR und
Ġle het
Ġcom ing
ĠÐ¿Ð» Ð°Ð½
off s
ĠGes amt
Î»Îµ Ïħ
bru ch
Ġst one
Ġknow ledge
Ġjam ais
èĢħ ãģĮ
b Åĳl
Ġcs apat
ÏĢ Îµ
ĠØ¬ ÙĨÚ¯
ĠSu omen
ĠMargar et
Ã¡ ct
è² ´
ÑĪ ÐµÐ¼
è± Ĭ
à¹ģ à¸«
áĥĲáĥĵ áĥĴ
ken de
Ġserv es
ÑģÑĤÐ²ÐµÐ½ Ð½Ð¾Ð³Ð¾
Ġkra ju
ĠF ree
le ben
ĠØŃ ÙĤ
Ġt omb
ĠG iuseppe
ĠÐ¡ ÐµÑĢÐ³
å¾ ®
×§ ×Ķ
Ð°Ð»ÑĮ Ð½Ð¾Ðµ
Ġpubli Ã©
é³ ¥
uen cia
d io
Ġ×ľ ×¨
Y ou
Ġc lo
Ġcirc uit
ĠÙħÙĨØ· ÙĤÙĩ
ĠTer ra
omi ast
ĠÑĤ ÐµÐº
æķ µ
Ġ×Ķ×ŀ× ¢
Ġf la
ĠBo ys
ĠÐ·Ð°Ð² ÐµÑĢÑĪ
y ra
Ġh j
f Ã¼g
Ġerre icht
Ġch uyá»ĥn
Ġw issenschaft
Ġat mos
ĠBru ce
Ġe ux
ub s
A le
ĠØª Ø³
ist iche
ĠÐ¿ÑĢÐ¸ Ð¼ÐµÑĢ
ĠE ver
Ã¶ der
æĸĩ åŃ¦
ĠS es
ers i
åīį ãģ«
ĠEx press
Ġprzed staw
ĠÙĨ ÙĪØ¹
Ġfron te
ĠØ§ÙĦØ¹ Ø¯ÙĬØ¯
ãģ«ãģª ãĤĬ
×Ļ×ĳ ×¨×¡
ãģ¾ãģŁ ãģ¯
19 40
Ġbel eg
Ġ7 1
ÑģÑĤ ÑĢÐ¸
ÑĳÐ½ Ð½ÑĭÐµ
Ġtutta via
Ġtr uyá»ģn
r Ã¤n
Ãº p
ÑĪÐµ Ðµ
aj u
æŁ ĵ
Ġà° Ł
åĪ »
Ġperio de
ÏģÎ± Î³
ĠÐ½ÐµÐ± Ð¾Ð»ÑĮÑĪ
Ġrespect ively
Ġk g
áĢ¼ áĢ±áĢ¬
Ġamer ik
è® º
×Ļ×ľ ×ª
Ġì ´Ī
ĠÐŁ ÐµÑĢ
Ġan f
ĠØ¨ Ø£ÙĨ
åĨħ å®¹
Ġagre ement
ĠÐ¸Ð· Ð¾Ð±ÑĢÐ°Ð¶
]] ,
ĠÐ± Ð¸
aw an
å¸ ¦
Ġg ian
Ġcomp il
ç§ ĺ
Ðŀ ÑĤ
n te
Ġpa id
Ġnun ca
ìĪ ł
ĠÐ¡ Ð¿
ĠJ ar
Ġbud get
is zt
ĠØ§ ÙħØ§
ip o
Ġgen ere
l eterre
Ġw ym
ĠÐ²Ð¾Ñģ Ð¿
Ġsta b
ec nie
Ġcab o
Ġres ol
Ġperman ent
ĠA M
à¦¶ à¦¨
æ¤į çī©
à¸²à¸ Ń
Ġnum mer
Ġle quel
Øº Ùħ
Ġcommun ities
x ima
Ð¾Ð· Ð°
ĠÐ¿Ð¾Ñĩ ÑĤÐ¸
ìĬ¤ íĬ¸
åĪĿ æľŁ
ĠMitgli eder
Ġa hol
Ġnh áº¡c
åĬ ŀ
ĠK el
ong en
ĠÐ¡ Ð¾Ñİ
ãģĻ ãģ¹
ç Ģ
Ġc ler
Ã¼l ler
ĠÙĪØ§ÙĦ ØªÙĬ
Ġan z
Ġd ou
ur ia
ãĤ¢ãĥ¡ãĥªãĤ« åĲĪè¡Ĩ
ĠÐ¸ Ð´Ðµ
ĠRe present
èĩª çĦ¶
Ġerw Ã¤h
Ġà® Ĭ
ĠÐºÐ¾Ð¹ ÑĤÐ¾
z ess
Ġchar akter
ãĤī ãģļ
en f
Ã© nd
ĠS ierra
icult ure
ĠM á»¹
æĽ ľ
Ġinstit utions
d is
Ġt all
Ø±Ø¨ ÙĬ
olog ische
Ġestim ated
ĠN em
Ġth ous
Ġme i
z ant
Ã¦ k
Ø¨ Ø§Ø´Ø¯
Ġ8 2
Ġmus ica
ĠMo z
oz ial
ĠB ull
Ð¸ Ð¾Ð½
Ġk tÃ³r
Ġbes l
Ġo y
ĠK Ã¼nstler
ĠÐĺ ÑģÐ¿
Ġar gu
iel la
ĠÐ±ÑĥÐ´ ÐµÑĤ
ĠPr inc
u ca
Ġcamp agne
ĠLux emb
ĠÑĨÐµÐ½ÑĤ ÑĢ
Ġaura it
Ġv ennero
Ġëı ħ
Ñİ ÑĢ
×ŀ ×ľ
ãģĭãģ¤ ãģ¦
åĬ ´
ĠS ow
Ġcr ime
Ġol u
Ġamb ient
ĠL ad
Ġpr ivil
è¥ ²
×ķ×¡ ×£
Ġk eb
åħ Ĳ
Ġdu c
y th
à¸Ļ à¸ģ
Ð» ÐµÐ½Ð¸ÐµÐ¼
p ir
ĠÐĲ ÑĦ
Ġdens idad
Ġt ens
à®¤ à®®
ãģª ãĤĬ
h uvud
Ġn ich
Ġm ap
Ġsom it
Ġ×ĳ ×Ļ×ł
Ġliv ello
Ġcomb ined
à¥Ī ,
Ġm ir
ch in
man a
ĠÐ± Ð°Ð»
Ġj Ã¤
ĠØ§ÙĦÙĪ Ø·
ĠM ind
ign es
ĠEr sten
it zt
ĠÑģÑĤ Ð°ÑĤÑĮ
ĠÐĲ Ð±
ĠÙĪ ÙĦØ§
è¦ģ æ±Ĥ
éľ ²
Ġess a
ĠÑģÐº Ð¾ÑĢ
ĠF A
ĠÎ ¯
Ø§ÙĦ Ø¯
ĠÐ¿Ð°ÑĢÑĤÐ¸ Ð¸
Ġd wa
Ġsign al
ì² Ń
ĠÑĢÐµ Ð²Ð¾Ð»Ñİ
Ġpod staw
ĠPiet ro
Ġsp lit
ss o
ĠTe atro
ĠÑģÐ¾Ð¾Ð± Ñī
ÑģÐ¸ Ñħ
ĠSt elle
à¸ĩ à¸Ħ
ãģ«ãģ¤ãģĦãģ¦ ãģ¯
ĠR an
we is
ĠPat ri
Ġ×ŀ× ŀ
ym n
Ġc á»©ng
au en
ĠÑıÐ²Ð»Ñı ÑİÑĤÑģÑı
Ġr ar
Ġsch olar
ãģªãģ© ãĤĴ
gen ce
il igen
ĠÐ´ Ð»Ð¸Ð½
Ġparall el
Ġder rot
wa Å¼
orszÃ¡g ban
Ġw raz
ĠÑĤ ÑĢÐµÐ±
Ġwin ner
Ġno in
ĠC ost
Ġil leg
à®ª à®°
ÑİÑī ÐµÐ¹
ÑĮ Ð¸
Ġto Ãłn
ĠÑģÑĤ ÑĢÐµÐ»
en cias
ÑĳÐ½ Ð½ÑĭÐ¹
æ± ī
194 9
Ġemplo ye
Ġà® ı
P our
×Ĺ ×ķ×ª
ĠN FL
Ġprov iding
èĩª åĪĨ
ĠSqu are
ĠG ut
Ġzw ar
Ġdiv or
Ġ×ĸ ×Ľ
Ġu Å¼y
Ġ×ĳ×ŀ× ¡
Ġe fect
ul in
- -
ĠÑģÑĤ Ð°Ð½Ð¾Ð²
çĮ ®
Ġmod els
ĠAl berto
æĴ ¤
Ġequip os
Ðµ Ð³Ð¾
ĠktÃ³ry ch
ÑĨ Ñĥ
ĠH op
ĠÙħ ÙĦÛĮ
Ġdef end
Ġut an
Ġ×Ķ×ŀ× ª
å¹³ åĿĩ
ĠB ush
ÐĲ ÑĢ
est on
Ä± ll
ĠíĻ ľ
C u
m eter
ut in
ãĤĮ ãģ¦ãģĦãĤĭ
ĠÐ² Ð»Ð¸Ñı
sk u
ÑĩÐµ ÑģÐºÐ¸Ð¹
éģ ¿
Ġsu f
ĠØ¹ Ø¶
Ġbesta at
å¼Ģ å§ĭ
c or
Ġrad i
Ġta ught
Ġw inter
ĠCi udad
ĠMor gan
×ķ×ł ×Ļ×ĳ×¨×¡
Ġ×Ĺ ×Ļ
p ts
Ġdiv id
Ġfl ight
ÐµÑĢ Ð¾
com o
ĠÐºÐ°Ð¿ Ð¸ÑĤ
ĠG li
Ġob st
196 3
ou k
ĠÐ½Ðµ Ñģ
ĠdÃ© put
åĢ Ĵ
Ġ185 8
f ur
ir ks
Ú¯ Ø°
åį ±
ce u
Ġrejo int
Ġk oh
ĠÛĮ Ûģ
×¦ ×Ķ
Ġ×ŀ ×¨
Ġ×ŀ× ĸ
Ġà° ¯
Ġaustr al
Ø§ÙĨ Ø§
ÙĪ Øµ
ÑĩÐµ ÑģÐºÐ¾Ð³Ð¾
P et
Ġin tÃ©
Ġn Ãªn
ĠS as
Ø³ ÙĦØ§Ùħ
ĠHarr is
an im
æľ Ĺ
ÐºÐ° Ñı
à°Ł à°°
æĭ Ķ
ĠAnd rÃ©
k ok
ĠF arm
Ġpun kt
Ġsub t
Ġbah asa
Ġcl in
ĠM eth
gr yw
ĠMar co
ativ os
g ie
â Ķ
×ķ×¤ ×Ł
Ġtr ue
later ra
19 30
Ġëĭ¤ ìĿĮ
N ot
and y
ensch ap
Ä± ÄŁ
j ud
Ġav rebbe
Ã³ c
åĬĽ ãĤĴ
ÑĤÐ¸ÑĩÐµ ÑģÐºÐ¸
A st
ĠSch l
ĠTim ur
S outh
Ġam Ã©ricaine
Ġintern ation
ĠÐ¾Ð±ÑĬ ÑıÐ²
ĠA rizona
uv en
al ion
Ġexp ected
Ġav ven
Ġpres ence
åħ¬ åľĴ
ĠSalv ador
ĠØ§ÙĦÙĤØ± ÙĨ
Ġgr ade
ĠTh ree
×ķ×¢ ×ĵ
w ill
ĠB ishop
ich ter
Ġpe up
ãĥ Į
ĠRo berts
ĠmÃ¡ y
Ġpro jekt
194 4
Ð½Ð°ÑĢ ÑĥÐ¶
Ġs ina
Ġf lera
èĦ ±
Ġn Äĥng
ÐµÐ½ Ð³
Ġbomb ard
own ik
ind ing
Ġredu ced
ãĥ¼ ãĤ·ãĥ§ãĥ³
Ġprem io
Ġc Ã¡
Ġc ord
mark er
b und
ä¸ ¸
Ġqu elle
ãĤ¦ ãĥ³
Ġà¤¬ à¤¨
×ĳ× ¡
Ġà¦® à¦§
åģ ļ
ł ×Ķ
Ġcon form
ĠÏĢ ÏģÏī
ĠP rag
Ġgre ater
qu ement
ĠOr chestra
ind ustrie
ĠáĥĲáĥ ĵ
Ġser ious
Ã§ os
Ġexp la
Ġrest rict
ĠH isp
Ġst Ã¤d
Ġb á»ĳ
Ġkaw asan
h ing
Ġamer ikan
åĩ Ĩ
be j
Ġd ÅĤug
itt ing
u o
Ġf ÃŃs
ied e
ĠÑģÑĩ Ð¸ÑĤÐ°
or is
Ġy az
éĽ ²
ĠTe xt
Ġpesso as
em ark
ĠZ ahl
ĠSk y
à¤ Ľ
Ġreg res
ĠÐĺÑĤ Ð°Ð»Ð¸
ĠÐ¼ Ð°ÑģÑĤ
ì ª½
h men
ĠMe hr
gr en
Ġnew ly
Ġf asc
×ķ×ł ×ª
196 2
ĠAle mania
Ġprofes or
os ph
Ġsu i
ĠÑģÐµÐ»ÑĮ ÑģÐºÐ¾Ð³Ð¾
ĠPolit iker
Ġp ouv
ĠGr ant
lÃ¤ chen
Ð´ ÐµÐ½Ð°
Ð°ÑĤ Ð¾Ð¼
Ġcompag nie
un ch
ãĤ¢ãĥĭ ãĥ¡
Ġáĥĺáĥ§ áĥĿ
Ġel l
elf de
ĠMary land
ĠÐ¼ ÐµÑģÑı
ar kt
Ã¹ a
ĠA BC
Ġra c
bur go
Ġmic ro
ĠDes de
ze pt
Ã©ta it
ĠsÃ³ lo
Ġtr zy
Ġv ara
ĠÎ ĺ
ĠPar te
y ond
Ġl if
à¸²à¸ ļ
ĠT as
Ġmin i
j ur
ĠE j
ĠR elig
Ġáĥ §
om at
) ".
ĠSeb ast
av an
Ġsch loss
Ġseg ment
la ÅŁ
ĠAm az
ĠD at
ĠK raft
Ġì¶ Ķ
ĠÐ½ÐµÑģÐº Ð¾Ð»ÑĮ
ĠZ ag
ĠAfghan istan
Ġd omaine
ìķ ½
sp e
ĠÑģÐ°Ð¼ Ð¾
r um
ĠÐ¼ Ñı
Ġv isto
em ia
å¹ ²
ĠP eng
ĠF ore
Ġ Âł
ĠsÃ¼d lich
ĠÐ²Ð¿ ÐµÑĢÐ²ÑĭÐµ
we ight
N ord
Ã¶ p
ĠKenn edy
Ã©c ole
Ġà¤ī à¤¤
íħ Į
K ir
Ð°ÑĢ Ðº
Ġë§ İ
ĠP ays
åı Į
Ġtá» Ľi
Ġlog o
æµ ¦
Ð¸ ÐºÐ¾Ð²
Ġonge veer
ĠØ§ Ø³Ùħ
ĠH om
Ġmen or
ĠComm and
ci ÅĤ
ĠD uitse
Ġcomp ared
ĠÐ¤ÑĢÐ°Ð½ ÑĨÐ¸Ð¸
Î±Î½ ÏĦ
stre am
it ime
Ġpat tern
×© ×Ļ
ÑģÑĤÐ²ÐµÐ½ Ð½ÑĭÑħ
Ge orge
if y
iem pre
Ġide as
h Ã¡
Ġnar rat
ĠÄĳ Ã´
Ġà®ª à®Ł
åıĸ å¾Ĺ
p us
Ġb ian
ci us
ĠØ£ Ø®Ø±Ùī
ĠZ us
D C
ĠS achsen
Ñı ÐµÑĤÑģÑı
ãĢĤ ãĢĮ
×ķ×ľ ×Ļ×Ŀ
éĽ» è¦ĸ
T or
m acht
ĠI van
ÃŃt otta
Ġsal v
our ce
lab ama
k up
åĪ «
ĠØ£ ØŃØ¯
ĠNÃ¤ he
Ġv Äĥn
ĠR ugby
Ġmot iv
E G
ĠF ut
uch ar
ubbl ica
h ung
ig g
ĠOrts teil
ĠdiffÃ©r entes
ĠvÃ¤xt lighet
ĠS ang
ĠMa xim
ip ada
ãĤĵ ãģ©
c ription
Ġre duc
port s
Ð¾Ñĩ ÑĮ
ĠÐ¼ÐµÐ½ ÐµÐµ
e ing
att an
t Ã©s
Ġcomplet amente
å¸Ŀ åĽ½
ĠÐ³ Ðµ
Ġh en
Ġapplic ation
im et
Ġaproxim adamente
ĠH as
Ġh art
ÑĨÐ° Ð¼Ð¸
Ġdon na
ĠÑģÐ² Ð¾Ð±Ð¾Ð´
æĸ° èģŀ
æ²Ĵ æľī
Ã¼t zt
ĠSie g
Gr and
ĠG ib
arb eiten
ĠPro te
ĠØª Øª
ÐºÐ¸ Ðµ
ĠÐļ Ð°
Ġ184 9
eb iet
Ġcons iste
Ġcontr ast
Ù¹ ÛĮ
t et
to ine
ĠØ¥ ÙĨ
aj ar
Ġpur pose
uelle ment
ãĤ ħ
éĮ Ħ
Ġn ing
ĠÚ©ÛĮ ÙĦÙĪÙħ
Ġqu er
Ġens emble
å¯ ©
at ott
Ð¾Ð² Ð°Ð½Ð¸Ñı
ĠA ra
Ø± ÙĬØ©
Ġtri al
Ġl um
gli ed
Ð½Ð¸ Ð½
ĠF ame
N ov
Ġv ern
ĠS tern
Ġen reg
Ġseg n
Ġku ul
à¸Ńà¸ĩ à¸Ħ
Ġ185 5
itÃ¤ ts
ĠW ir
éĸĵ ãģ«
ta il
ÏĢ ÏīÏĤ
ag s
Ġinter v
ĠVer g
w ia
Ġv rij
×ľ×Ĺ ×ŀ×ª
ĠÐ¿Ð¾ÑģÐµÐ» ÐµÐ½Ð¸Ñı
ĠÑģÐµÐ¼ ÑĮÐµ
ĠKÃ¶l n
ĠW irtschafts
èµ Ħ
Ġm unk
Ø³ Ø§ÙĨ
ìŀ ħ
ĠDan ach
famil ie
ĠCo unt
Ġpow ierz
ĠMunicip al
Ġpos iciÃ³n
Ã¼t zen
J ahr
æ» ħ
Ġn Ã¤ch
Ġcontin ues
ĠÑĢÐ¾Ð´ Ð¸Ð»ÑģÑı
Ġch rist
ÙĬ Ø·
Ġmu assa
ãĥ´ ãĤ§
Ġest ruct
iku uta
Ġrecib iÃ³
ĠE ug
ĠSant os
Ġalt ura
Ġpro g
Ġpro getto
Ġel es
ĠÐ³ÑĢÐ°Ð¶Ð´ Ð°Ð½
Ġman iÃ¨re
iqu ement
Ġn ave
Ġ×ĸ ×Ĳ×ª
ä¾ µ
ĠÙħØªØŃ Ø¯Ùĩ
×ľ ×ľ
Ġinter ven
ig ers
ÙĬ ÙĤ
ÐºÐ° Ð¼
v iv
ia ge
ãģ«éĸ¢ ãģĻãĤĭ
Ġmu un
ĠCap tain
Ġz erst
Ã©d ition
and t
Ð½Ð¾Ð² Ð°
ĠauÃŁ erdem
ĠS A
I F
ĠÄĳ Ã¡
Ġk ell
ĠØ£ÙĬ Ø¶Ø§
tr ang
Ã¼h le
ĠpiÅĤ kar
×ĵ ×ķ×¨
Ġcollabor ation
ãĤĪãģĨ ãģ«ãģªãģ£ãģŁ
Ġë¡ ľ
Ġobjet ivo
Ġmul ti
Ġaltern ative
Ġpr estig
ĠC ru
ĠJ orge
èĢħ ãģ¯
Ġ Ã¤l
Ã¡t icos
Ġrecogn ized
à¸Ļà¸ ŀ
ĠÙĦÙĦ Ø£
tra ck
Ġm áº·t
ĠÙĪØ§ÙĦ Øª
Ġju in
iss ippi
Ġprof it
Ġby Äĩ
Ġ9 2
ĠEr z
ĠArbeit s
é«ĺ åº¦
st ation
Ġgeb aut
w es
à¹Ģà¸ ļ
ĠÐ´Ð² Ð¾ÑĢ
Ġso ul
ig ny
ip ul
ĠPres idente
ari amente
Ġer am
Ġest uvo
Ġk Ã©sÅĳbb
ot ion
ĠJ en
ÑģÐº Ð¾ÑĢÐµ
Ġvic toire
Ġtr ÃŃ
ãĥĥ ãĥĳ
Ġproces o
ĠÃ©quip es
Ġen fer
ĠMay or
Ġfac ilit
èŃ¦ å¯Ł
ĠA ud
ĠTr ong
×¢ ×Ļ×Ŀ
Ð²ÐµÐ» Ð¸Ñĩ
ĠÑģ Ð¾Ñģ
Ġn Ã©e
ĠGesch Ã¤fts
ul ed
Ġh uit
ĠJ awa
Ġad vis
ĠAus bildung
è¿Ľ è¡Į
ãģ¨ åħ±ãģ«
as uk
ĠA P
Ã¢n cia
Ġalg uns
stÃ¤nd ig
ĠÐłÐµÑģÐ¿ÑĥÐ±Ð»Ð¸ ÐºÐ¸
Ġro zw
ãĥĩ ãĥĵãĥ¥ãĥ¼
Ġ185 6
por ta
Ġrec onna
ĠPro jekt
ØµØ¨ ØŃ
Ġt ried
ĠS ultan
l ings
Ġkep t
Ġr ules
Ġsing olo
Ġgrow ing
Ġs ets
Ġh i
n ÄĻ
å½ĵ åĪĿ
ĠS id
ac ks
ĠE fter
ac ci
Ġà´ħ à´µ
ĠB urn
Ġcol leg
ĠDet roit
bez irk
g ow
ĠÐ¾Ð´ Ð½Ð¾
ĠS n
Ġ185 4
Ġë° ı
ëĲĺ ìĹĪ
Ġ3 50
èį ·
m Ä±ÅŁ
Ġsimp ly
te chn
Ġg ift
ĠBras ile
Ġpart es
åīį ãģ®
×ķ× Ķ×
ald i
Ġh ors
Ġv alt
ĠE ra
195 8
K e
ĠÙĦ Ø¹
Ġcomm iss
Ġscient ific
Ġsareb be
Ġsc u
ĠTelev ision
ĠN ouvelle
Ġher o
em eter
Ġconoc ida
ĠÐ°Ð²ÑĤÐ¾Ð¼ Ð¾Ð±
Ġog gi
ograf ia
ĠBerlin er
èª Ń
ĠO S
ĠÐ³ÐµÐ½ÐµÑĢÐ° Ð»
ĠJ ane
×Ļ×ĵ ×Ļ
Ġt Ãłu
ĠÑĤ Ð²Ð¾ÑĢ
ĠNach folger
Univers itÃ©
p al
à¸ĩ à¸Ĺ
ĠÙħØ¬ ÙĦØ³
âĢĿ ï¼Į
Ġgiorn i
P res
g raf
×Ļ×Ĳ ×ľ
Ġhe irat
Ġ9 7
U nder
çī Į
ç° ¡
ĠØ± ÙĪÛĮ
Ïģ Î¯Î±
ĠÚ© ØªØ§Ø¨
×ŀ ×Ļ×ª
Ġre Ã§oit
ĠÐ¿ÑĢ Ð¾Ñģ
Ġresult ing
ë² ł
ì ¤Ģ
ĠL av
à¥Ģ ,
Ġku in
be y
Ø³ Ø·
ĠJe ux
Ġgu id
c ÃŃa
ĠCh er
Ġ1 17
od ar
ĠÙħØ§Ø± Ø³
ĠÐº Ð»Ð¸
çµĤ äºĨ
ĠL Ã¤nd
Ã¼rt temberg
ver o
act ions
ĠerwÃ¤h nt
Ã© ter
ÑĢÑı Ð´
Ġow ner
Ġp age
ĠrÃ© du
åĢ ¤
alm az
ÅĦczy ÅĤ
Ð¸ ÑĢÐµ
æĪĲ ä¸º
Ġcrit ical
Ġk im
ci ÄĻ
Ġà°Ĩ à°°
à¸Ń à¸Ńà¸ģ
Ġtw enty
Ġph Æ°Æ¡ng
È Ļ
Ġcan ciones
ÑĬÐ» Ð³Ð°ÑĢ
ut us
Ġrel aciÃ³n
d ent
in izio
Ġbag i
K r
Ú© Ø§ÙĨ
Ġrem ar
ann en
Ġf Ã©d
Ø´ ÙĩØ±
kk ue
ê° ķ
Ġvot es
Ġblo od
ĠtÃ©rmin o
Ġz as
ĠØ¨ Ø³ÛĮ
Ġter rest
Ġmar ked
Ġterrit ori
ĠHon or
áģ ı
Ġcs alÃ¡d
ĠÐ¿ÑĢÐ¾ÑĦ ÐµÑģ
ges etz
s in
Ġgr anted
ĠÐ³ÑĢÐ° Ð´
éĿ© åĳ½
Ġda erah
Ïĥ ÏĨ
ĠTr uppen
alt ra
ĠT ho
ĠConse il
m ain
ÏģÎ¹ ÏĥÏĦ
Ġke er
ĠH amm
Ġal te
ĠW restling
ĠGe orges
Ðº Ð°ÑĤ
ÏĦ Î¿Ïħ
áĥĶáĥĹ áĥĺáĥ¡
è£ Ŀ
is ola
ÙĬ Ø¬
iz es
ĠØª ÙĪÙĦ
Ġm idd
Ġn ouvelles
et u
ĠIng laterra
Ġcomp rom
Ġat ra
Ġstr ugg
aler ie
jed noc
Ġin du
×ª ×ª
Ġem ak
Ġ3 000
Ġp is
ite ur
Ġcre ation
ĠM useo
ĠN elson
Ġel ector
Ġsv ensk
Ġn Ã©g
Ġmen ing
Ø§ÙĨ ÙĬØ§
ĠB omb
Ġact ing
196 1
Ġcon ference
Ġcompos ition
Ġp ent
Ġall ows
Ã¤ck er
ĠIn iti
Ġà¤ª à¤¹
Ð» ÐµÐ²
k ais
Ġlin ks
Ġarte an
ãĥ¼ãĥ ĳ
Ã¤m Ã¤
Ġmix ed
ĠÐĽ Ðµ
ic ut
åŃ «
ij i
H el
Ġê° Ĳ
ĠÐºÑĢÐ° Ñı
ĠëĲĺ ìĹĪëĭ¤
Ġs ays
Ùģ ÛĮ
Ġis ang
c eg
ĠÄĳ Ã¢y
ì§ Ī
c up
ĠS or
Ġmehr eren
b ly
f ly
Ġrel ation
Ġstruct ures
Ġev ento
Ġm ist
Î³ Î¿
ãĤ·ãĥ³ãĤ° ãĥ«
Ġgan Ã³
çĶ ³
ĠL ied
Ð¾ÑĢÐ¸ ÑĤ
Ġà¹Ģà¸ ¡
Ġj Ãº
owany ch
B ro
C ons
æŀ Ħ
ĠÑģÑĩ Ð¸ÑĤ
ak ukan
ĠSch ne
Ġencuent ran
ĠD ave
Ġpres enza
ĠØ¬Ùħ ÙĬØ¹
ÑĭÐ²Ð° ÐµÑĤ
à¸Ń à¸§
ÙĪØ¬ Ùĩ
Ġpl ane
Ġern annt
Ġ1 14
Ð°Ð½ Ð½Ð¾Ð¹
ĠR un
ä»ĸ åĢĳ
icz ne
ĠnÃ¶rd lich
ĠØŃ Ø³
in ho
Ġ1 13
ĠBer l
195 6
a ult
Ġplan ta
ĠÐĴ Ñģ
ver g
à¸ª à¸³
Ġw oll
onn es
ĠA na
Ø§ÙĤ Ø©
Ġbec omes
ill en
Ġrem port
ĠD y
Ġappel Ã©
ä¸Ń ãģ«
Ġà¦ī à¦ª
ÑĢÐ¾Ð¿ ÐµÐ¹
Ġol ika
ĠÎ¸ Îµ
Ġest rat
Ġdist ric
èĸ ©
åĪĨ å¸ĥ
pr Ã¤sident
lie g
ĠPhilip pe
ĠF Ã¶r
Ø§ÛĮ Øª
Î± ÏĤ
h arm
Ġfe et
Ġ×ĳ×ŀ× Ķ×ľ×ļ
ĠL anc
ĠV lad
à® ľ
Ġletz te
est ens
Ġtel ef
ay Ä±
ĠÚ© ÛĮØ§
Ġtraff ic
ĠÐĳ Ð¾Ð»ÑĮÑĪ
rit te
ĠC ependant
ĠÐ¾Ñģ ÑĥÑīÐµÑģÑĤÐ²
ĠØ¯Ø§Ø´ Øª
ĠFeder ation
ĠSpiel en
Ġda fÃ¼r
Ø« Ø§Ø±
ĠÐ²Ð¾Ð¹ ÑģÐº
ãģ§ãģ¯ ãģªãģı
o ud
Ã¡ ciÃ³
ĠOl ÃŃmp
Ġorganiz ations
ĠLe Ã³n
Ġsuggest ed
M at
Ġmar ine
Ġcompet ed
èĬ Ĥ
Ġs ic
Ġnuc lear
anden burg
Ġo koÅĤo
ich Ã©
ĠB áº¯c
ĠÐ¸Ð· ÑĥÑĩ
ĠÐ¡Ð¾Ð² ÐµÑĤÐ°
ĠGr uppen
Ø§Ø± Ú©
Ġl ob
çŃ ĳ
Ġteach er
ol lo
Ġr are
ĠK ant
ë ¨
ĠT ot
Ġfinal ement
Ġclass ifica
èŃ° ä¼ļ
Ġdig it
Ð°Ð» Ñĭ
Ġrece ive
ĠH ud
Ġdar ipada
åĨ ³
ĠT we
Ġreg ister
Ð¸Ð» Ñı
Ġ ice
Ġqu and
Ġ à¹Ħà¸Ķ
Ġt Ã¼r
ĠrÃ© v
ĠÐ¿Ð¾Ð´ Ð³Ð¾ÑĤÐ¾Ð²
×Ļ×ľ ×ķ×ª
Ġg esp
çĸ ĳ
T E
ĠV ideo
Ġsc oring
Ġrad ical
Ġir on
Ġprotagon ista
Ġl Ã¤n
Ġf ez
Ġresp ond
Ġgmin ie
G P
Ġal rededor
ÑĥÐ±Ð»Ð¸ ÐºÐ¾Ð²
anst alt
V ers
ĠÐ» ÐµÐ²
ĠlÃ¤s st
ĠApp le
Ġserv izio
let s
Ġcon vin
Ð½Ð¾Ð² ÑĮ
k ry
ĠD od
Ġshow ed
lah oma
Ġnav ig
ĠT ang
Ġà®ķ à®²
Ø§Ø¨ Ø±
ĠWer ke
ic ed
æĿ ĥ
ĠursprÃ¼ng lich
ĠÐ¼Ð¾Ð½Ð° ÑģÑĤÑĭ
åľ £
ĠØ§ÙĦÙħ Ø´
à¦° à¦¸
aj or
atur es
èģ Į
Ġf ed
ĠCommun ity
cc o
Ð½ ÐµÐ½Ð¸Ñı
ĠP om
Ġb ater
ĠH Ã¤l
Ġvar ie
ĠÐĵ Ðµ
ens te
ÏĦÎ· ÏĤ
Ġà®ĩ à®²
Ġmention ed
ĠP ear
Ġtak Ä±m
åĭĿ åĪ©
Ð¼Ð¾ÑĤ ÑĢÑı
Ġtouch down
Ġpro pria
Ð¸ÑĤ Ð°Ð¹
men o
ĠKÃ¶nig s
ĠÑĩÐµÐ¼Ð¿Ð¸Ð¾Ð½ Ð°ÑĤÐ°
ĠConf eder
Ġdam age
Ġob tained
Äħ ÅĤ
ĠK ro
ãĤŃ ãĥ¼
Ġgau che
âĢ ł
Ġs ÅĤ
ĠM all
çĬ¶ æħĭ
Ġlie gen
H ans
ĠÑĨ Ð²ÐµÑĤ
ĠÙģÙĪØª Ø¨Ø§ÙĦ
rol og
Ġclaim s
ĠÐ²ÑĬ Ð²
194 8
ĠÎ¸ ÎŃ
ĠÑĤÐ¾ÑĢ Ð³Ð¾Ð²
p on
Ã© rio
t Åĳl
Ġj Ã³
ĠØ³ÙĥØ§ÙĨ ÙĩØ§
ÙĪ Ø§Ùĩ
ĠÑĦÐ¸Ð»ÑĮ Ð¼
Ġvoet bal
Ġleav es
ÙĤ Ø§ÙĦ
Ġt ells
ĠBar at
iz aÃ§Ã£o
ar ab
ĠEr folg
it ario
Ġperts ona
ch inen
éĽ» å½±
èĩ ¨
n ement
ĠÎ¿ÏĢÎ¿ Î¯Î±
Ġl uz
ĠS ah
ç´ ħ
Ġprop re
Ġmy th
Ġcomm ander
ic ale
Ġsen are
ne w
Ġtr en
Ġn it
Ġver de
Ġmet Ãł
Ġenqu anto
al ab
ag ian
Ø¬ ÙĨ
Ġig lesia
×¤ ×ķ×ª
ÑĤÐ¾ Ñĩ
Ġcust om
v re
ãĥ¼ãĥ ¬
et as
ĠR yan
×ĸ ×¨
ÑģÑĤ Ð°Ð½ÑĤ
ĠÐ² Ð»Ð°Ð´
Ġbat ter
ist ique
è»į ãģ®
ĠH eb
Ġaras Ä±nda
19 20
Ġh iá»ĩu
Ġmuch o
on ly
ĠS af
ĠÐķÐ²ÑĢÐ¾Ð¿ Ñĭ
Ġesp Ã©cie
ĠAn other
ĠÐ°ÑĢ ÑĤ
ĠSupre me
åł ¡
ĠØ§ÙĦØª Ø¹
ĠØµ ÙĪØ±Øª
ĠÙħ Ø§ÙĨ
ĠHe art
ĠK evin
ÐµÐ½ Ð½Ð°Ñı
Ġ9 3
ĠØ§ÙĦØ¹ ÙħÙĦ
Ġcontempor ary
ĠM ort
194 1
k und
ek er
Ġleg end
ĠprÃ©s ence
×Ļ×ŀ× ¤
ĠI gn
Ġesp osa
ĠÏĢ Î±
ect os
ĠÐ¿Ð¾ÑģÑĤ Ð¾ÑıÐ½
F ue
Ġm ile
Ġcann ot
Ñģ Ð¾Ð¼
ĠG olf
schlieÃŁ lich
Ġbre ve
è»Ĭ ä¸¡
ĠÐ¿ÑĢÐ° Ð²Ð°
à¸Ĺ à¸ĺ
Ñĥ ÑĢÐµ
Ġsci ences
Ġ×Ķ×¢ ×ķ×ľ×Ŀ
Ã¼s se
ĠGerman ia
Ġconhec ido
sz ego
lam ento
æľĢ ãĤĤ
ĠÎ¸ Î±
ges etzt
ÙĪ Ø¨Ø±
Ġen jo
Ġpl ata
ãģĤ ãģŁ
ÑĤÐ¾Ð¼ Ñĥ
ĠÏĢ ÏģÏĮ
y ce
ho de
Ð¸ Ð¶
Ġan geb
Ðł Ð°
Ġatta cks
Ã³ ch
ĠBe zeichnung
åĢ «
ĠLe opold
Ġlors que
d s
ĠBroad way
Ġop per
Ġ8 1
Ġmon ta
ĠÎľ ÏĢ
Ġwyn osi
c ente
ĠAr ena
ĠInstit ut
Ġsurround ing
Ø³ ÙĦ
Ð± ÐµÑĢÐ³
Ġf isk
Ġres ist
Ġfin aliz
æŀľ ãģŁ
vol k
Ġkat ol
Ġtit led
ãĥĹ ãĥ©
Ġst os
Ġbeg ins
Ġatrav Ã©s
Ġelement os
Ġintit ul
ãĥŃ ãĤ·ãĤ¢
ĠMed ic
×Ļ×ĺ ×ª
Ã¤t ter
vel and
Ġliter ature
Ġvitt oria
og l
ĠG leich
à¤° à¤¦
ĠÐºÐ¾Ð¼Ð¿ Ð°Ð½Ð¸Ð¸
ãģ«å¯¾ ãģĻãĤĭ
m or
Ġmar gin
Ġto g
Ġset elah
ĠØ§ Ø®
Ġcours es
by g
j Ã¡n
ĠNo ord
ĠØ· Ø±
ĠÏĦ ÎŃ
ìļ ¸
ĠsÃ©c ulo
hy th
ĠPf lan
Ġáĥ °
Ġfor ts
ĠÐ¾ ÑĦ
Ġat let
Ġpier w
Ġa zt
ĠÐ¿ ÐµÑĩ
ĠszÃ¡z ad
à°° à°Ń
æĻĤ ãģ«
Ġmol ec
åĦ Ħ
l ern
Ġam or
ĠH ur
åĿ ¦
on ica
Ġh aj
Ġh ingga
è ¸
ĠÑĢÐ° Ð±
ĠV ice
ÏģÎ± ÏĤ
Ġarr ondissement
ĠÐºÐ¾Ð½ Ñģ
ãĥ³ãĥĲ ãĥ¼
å «
im port
ë² Ī
ĠK elly
ãģĵãģ¨ ãģ§
in ental
ĠD ark
K arl
í Ī¬
Ġtw ice
Ġdesen volv
Ġhost ed
Ġbl ess
at om
×§ ×¡
uch en
Ġcommun ication
ĠKent ucky
b urn
×Ļ×© ×Ļ
Ġcult iv
ìĿ´ ë©°
ãģ¾ ãģ¾
Ã¡ v
ĠÐ± ÑĢÐ°
Ġident ified
ĠMod ern
ĠÐ¾Ð´ Ð½Ð¾Ð³Ð¾
Ġqu este
Ġint Ã©r
Ġlat in
ĠÐ¿Ð»Ð¾ÑīÐ°Ð´ ÑĮ
te a
Ø§ØŃ Ø©
áĥĹ áĥĲáĥľ
Ġad vert
Ã¡n ica
ĠTemp le
ĠÙĪÙĥØ§ÙĨ Øª
og on
ef e
åıİ éĮ²
Ġein mal
ÎµÎ¯ Î¿
ien nes
Ġmov imento
Ġp air
ĠØ¢ Ùħ
Ġs eme
ĠTÃ¼r k
ĠB uff
Ġ8 4
Ġsel ben
Ġgew esen
Ġw sch
ĠÃ§ Ä±
ÏģÎ¯ Î¿Ïħ
rat es
åĶ ¯
ĠVer enig
ĠÑģÐµÐ» Ð°
Ġein d
ĠC ensus
ph y
Ġres iden
æ° Ķ
ĠÐ¿Ð¾ Ñħ
Î¼Î± ÏĦ
tr itt
f est
Ġwoj sk
gen er
à°¤ à°°
iter ran
ĠL ov
ĠAd ams
oc cas
ĠØ§ÙĦÙħ Øº
×¤ ×©×¨
ess i
op od
ot ka
gesch lossen
ãĥĲ ãĤ¤
Ġsu ur
ÙĪÙĨ ÙĬ
Ġfol gende
Ġan schlieÃŁend
Î¿Ïħ Î»
atori um
éĽ ħ
Ġelek tron
ĠÚ¯ Ø±
èİ «
ĠÐĴ Ð¾Ð»
Ġnuc le
Ġl ance
Ġl Ã¶v
à¸¢ à¸¡
ãģ§ãģ¯ ãģªãģĦ
M E
Ġcr isis
Ġtri á»ĥn
ç« ¥
ìĨ ¡
Ø³ Ùĩ
Ġinter c
Ġgi áº£
Ġà¤ī à¤ª
Â» ).
è¨ İ
Ġofficial s
ĠH ugo
ĠS ag
à¸²à¸ ĵ
ĠSain te
Ġatt ivitÃł
ĠW ell
Îº Î¬
ys z
íĸ ¥
ĠÃ©l u
Ġc ela
amm ans
ok ing
" ØĮ
Ð° Ð³Ð°
j ach
Ã¦ l
ãģ ĸ
Ġho áº¡t
Ġverl oren
Ġand er
Ġal Ã©m
Ðĺ Ð½
ĠÑĥÑĩ Ñĳ
Ù ¬
olog ist
Ð¼ ÐµÑĩ
´ ī
ĠÑģÑĥÑīÐµ ÑģÑĤÐ²Ð¾Ð²
ĠP az
ĠDesp uÃ©s
ĠRud olf
ettbew erb
Ġkuiten kin
ĠÑĢÐ°Ñģ ÑģÐºÐ°Ð·
ĠUk rain
ĠÐ±ÐµÑĢÐµ Ð³Ñĥ
Ġsl ight
ĠÄĳ áº·c
à¦¿ à¦Ĥ
ĠH ad
ëĤ ľ
Ġmes ure
ĠØ² Ø¨Ø§ÙĨ
Ġgiá»¯ a
ÑĢÐ¸ Ñħ
ĠÐ² ÐµÑģ
Ä± lar
Ġìŀ ħ
195 9
ĠRuss ell
ĠÙħÙĨ ÙĩØ§
ri re
Ġcertain es
b ia
Ã¥ng a
Ġs che
y nd
ĠFr ans
Ġj Ã¡tÃ©k
Ġlos ing
Ì Ĩ
è¾ ¦
åĽł çĤº
ä¸Ĭ ãģ®
Ġacc ue
åĲ ¸
Ġno us
Ġsp in
Ã¸ j
Ġport ion
ÑĦÐ¸ ÑĨÐ¸
Ġt ank
au re
ÙĪ Ø§Ø¹
Ġing res
Ġpap a
ĠÐ¡ Ð¾
ĠFran c
Ġed iciÃ³n
Ġbest imm
Ġemak ume
N orth
c omm
Ùĥ Ø§
eral d
ĠÃħ r
Ã¼ ne
à®¿ ,
R ock
ĠI owa
zy ÅĤa
yf ik
Ķ ng
ge ber
é£ ¾
Ġsitu ated
stell ungen
ĠSil va
Ġsu om
Ġtr att
Ġb ias
ch ar
mi ÅŁ
Ġtorn ou
ÙĪØ¬ Ø¯
C H
ult ima
Ġos c
ĠMed ical
Ġapp lied
ĠJohn ny
est y
Ġaut on
Ġtit les
Ð» Ð¾Ðº
ĠT yp
Ġbe at
Ġlu ogo
ĠS icher
Ù į
ev ere
ĠStan ley
ĠOlymp ischen
Ġanal ysis
w egen
Ġ185 2
Ġvez es
ĠE ing
ĠC omb
áĥĺáĥ Ĵ
Ġ×Ķ ×Ļ
çĪ Ń
éĿ¢ ç§¯
Ġposs Ã¨de
ÏĪ Î·
do or
ĠMe ister
at ia
ĠÄĳ áº¡o
ĠSil ver
ĠÐ½ ÐµÐ²
ĠAt lanta
ãĤ¤ãĥ³ ãĤ¿
Ġwen iger
el os
D et
gr uppen
Ġpara f
Ġ1 16
194 6
entr ale
é«ĺçŃī åŃ¦æł¡
N H
ke e
ĠOper a
Ġor szÃ¡g
Ġdem ol
Ø§Ø¨ Ùĩ
Ġto e
Ã¤r k
Ġn r
Ġgen et
Ġ7 9
Ġer ster
t og
ĠN ep
Ġ×ľ ×ĵ
Ġaut h
Ġ à¸Ľ
ĠSch n
B ahn
ters uch
ĠBill board
ĠØ§ÙĦØ± Ø¦ÙĬØ³
ĠPh ill
Ġke hrte
á» ·
c imiento
as to
Ġdonn Ã©
Ġk ommen
eg al
Ø· Ø¨
Ġemp le
Ġwaar in
ĠK ampf
Ġbul un
Ġg ives
ĠHistor ic
ĠÐ°Ð½Ð³Ð»Ð¸ Ð¹
is iert
Ġd od
and in
Ġnh au
app y
he el
r end
ĠEm peror
Ġconsider ado
v attendrag
Ġle y
Ġ1 12
æķĻ ä¼ļ
ĠT rip
ism os
äºº çļĦ
ĠÐľ Ð°Ð»
omp son
Ġzam iesz
F in
Ġallow ing
Ġ×Ķ×© ×ľ
n ien
h te
ĠÐ¸Ð½ÑĤ ÐµÑĢÐµ
B ra
O L
Ġan ch
adÃ©m ie
gr and
ĠY am
ĠØ§ Øµ
In stitut
uth or
Ġser ta
ĠØ¢ Ø±
ãĢĭ ï¼Į
×Ļ×Ĺ ×¡
Om givningarna
ĠÐºÐ°ÑĢ ÑĮÐµÑĢ
im per
Ġro k
ĠEinw ohnern
Ġaud io
u ver
Ġv eter
ÙĬØ¯ Ø©
i ÅŁtir
Ð¿Ð¾Ð» Ð¾Ð¶
Ġwen ig
è½ ¬
ĠA uss
Ġar k
à¤¸ à¤°
as ka
ĠU nd
G ra
éĩİ çĲĥ
ĠB av
Ġins ek
Ġform ato
à´ ĸ
çĩ Ł
Ġest aban
Ð Ļ
ent ra
ĠT ob
Ġcomplet ely
Ġpl ants
Ġáĥ¨ áĥĶ
Ð¾ÑĢ ÑĥÑģ
ãĤ¸ãĥ§ ãĥ³
ä¹Ł æĺ¯
ĠSpan ien
Ġp Ã©ri
ĠÑĥÐ½Ð¸Ð²ÐµÑĢÑģÐ¸ÑĤ ÐµÑĤ
ind el
e us
Ð°Ð» Ð¾Ð³
Ø±ÙĪ Ø¹
Ġentwick elte
Ïģ ÎµÎ¯
ĠDiv is
igh th
Ġph Ã¡p
Ġ×ŀ× ĳ
Ã¥ k
Ġprincip ios
æ¾ ³
ãģĦ ãģ¯
ĠLe o
ĠÐ²Ð»Ð° ÑģÑĤÐ¸
ãĥ¼ãĥ Ģ
Ġsat isf
Ġserv i
f ran
Ġkel as
ĠConn ect
ĠM TV
Ġ185 1
amp ton
ĠÎ¼Îµ ÏĦÎ¬
Ġst opp
Ġsep tembre
Äħpi ÅĤ
ĠØ¨ ÙĢ
ĠÃ©po use
ĠD ublin
ĠÃ ļ
Ġ×ĳ× ĳ×
el ier
Ġë ¹
Ø§Ø¹ Ø§Øª
we alth
U R
Ġteach ing
t Ã¤
Ġse j
Ġrag az
ĠÐĽÐµÐ½Ð¸ Ð½
alis ation
å¾Į ãģ¯
Ġtro uv
Ġst ri
Ã¤t zen
iv ent
Ġfut uro
Ã¨ que
ì£¼ ìĿĺ
Ð· Ð¸
ÙĪÙĤ Ø¹
Ð»Ð°Ð³Ð¾Ð´ Ð°ÑĢÑı
ĠÙħ ÙĪØ±Ø¯
Ð¾Ð»Ð¾Ð³ Ð¸Ñı
geg eben
äºĭ åĭĻ
Ġmatch s
pf licht
ĠØ§ Ø´
Ġaccomp agn
Ġg olf
ĠRei he
ĠM S
ĠB h
Ġfight ing
ul er
Ġch ante
ãĥ³ãĥ ķ
Ġg eral
em or
Ġ8 7
ĠØ§ÙĦØ¬ Ø²
×Ķ× Ĵ
p ot
ĠN ation
Ġd ub
Ø±Ø¨ ÛĮ
Ġexp ansion
M ay
ĠÐº Ð¸Ð»
Ġsc op
ĠNar od
Ġse ek
Ġáĥ ¯
á»ĵ n
à¹ģ à¸ģ
Ġíĥ ľ
Ġbet rÃ¤
Ġ à¹ģà¸ķ
s ie
ÑĢÑĭ Ð²
ĠJ immy
ÑĢÐµ Ñī
Ġsegu inte
Ġbeh and
ie val
Ġfr Ã¼h
ĠJo Ã£o
Ġord o
Ã¼r z
Ġt ark
n ienia
ĠM Ã©d
ĠI ron
Ġv Ã¡rios
oc co
Ġn ak
Ġb iet
ĠL ap
ĠCom ics
Ð² ÐµÐ¹
ãĥª ãĥ³ãĤ°
Ġserv icio
å·¥ ç¨ĭ
ors pr
ges ellschaft
Ġ×ł ×Ĺ
Ġm osa
Ġth ings
ãĥ³ ãĤ¬
ĠÑĤÑĭÑģÑı Ñĩ
Ġpos ible
ĠWar ner
Ġdi z
ÙĦ ÙĤ
eg li
æĮĩ å®ļ
ĠØ§ÙĦ Ø§Øª
Ð²Ð° ÐµÑĤÑģÑı
Ġsuiv ant
C ast
ot r
çĶ± æĸ¼
ĠÐºÐ½Ñı Ð·
Ġmor al
Ġsecond ary
Ġf lan
ĠØ§ÛĮ Ø§ÙĦØ§Øª
ĠÐ¸Ð¼ Ð°
Ġgra ve
Ġnov o
Ġ×Ļ ×Ľ
Ġconse il
s icht
ho en
fer a
ĠJose f
ĠØ§ÙĦÙħ Ø¤
ĠMit ch
Seg Ãºn
eg d
Ġcost itu
re is
ĠØ¹Ø§Ùħ Ø§
Ġì¹ ´
éģ Ń
ĠØ¢ Ø®Ø±
ë£ Į
it ato
os an
Ã¤l lande
ĠÐºÐ° ÑĦ
ĠN HL
unt ed
ĠNet her
éĽ ĳ
ĠØ¶ ÙħÙĨ
Ġaud ience
ĠÐ² Ð½Ð¾Ð²ÑĮ
ĠÐĿ Ðµ
195 7
ta ire
av ant
Ġ8 6
Ġcas os
Ġof ic
ĠP on
uh l
Ġvan af
Ñĳ Ð´
Ġlang s
in ia
ur ance
ĠÛ ´
ĠDon ald
Ġf rem
yc idae
Ġf ece
ĠÙħÛĮÙĦ Ø§Ø¯ÛĮ
ĠN Ã³
Ġn ada
Ġra in
×ķ×ĵ ×Ķ
ĠÑĤÑĢÐµ ÑĤÑĮ
ĠÐ² Ð¾Ðº
Ġro of
Ġdef ined
Ġre volution
×ķ×ŀ ×Ļ×ª
ÑĢÐµ ÑģÑĤ
ĠÐ´ ÑĢÐ°
Ġê ±´
ÙĪÙĦ Ø§
çĶŁ çĶ£
ĠL em
åĩ »
Ġme ant
ÏĦ ÏĮ
ĠfÃ© min
Ġegy Ã¼tt
Ġcin que
Ġstamm t
Ġv ivo
Ġle ven
Ġarchitect ure
ÙĤØ¯ Ùħ
Ġde ix
ĠIn v
od ore
Ġen vi
ä½ĵ ãģ®
ĠpoÅĤ udni
ĠB M
ras h
ĠÐºÐ¾Ð» Ð»ÐµÐº
Ġmeas ure
Ð¾Ð¿ Ð¸Ñģ
Äģ r
te ile
ip end
ĠÐ¾ÐºÐ¾Ð½Ñĩ Ð¸Ð»
ĠDre h
Ġngh Ä©a
un ya
ĠØ¨ ÙĩØ§
ĠMinist ry
ium e
Ġje unes
Ġd ritten
ä¸Ń ãģ®
à¤ķ à¤¤
lar es
ĠÐ¶ Ð¸ÑĤÐµÐ»ÐµÐ¹
ĠÙĦ ÙĥÙĨ
Ġsind s
w Ã¼r
à®³ à®°
æĪ ²
Ġhand s
Ġart ista
å¤ į
Ġinstit ution
ĵ °
od ie
ardo or
Ġllam ada
Ġrank ed
Ġmen cion
V A
Ġter rain
ian za
ĠÑĥ Ð²ÐµÐ»Ð¸Ñĩ
Ġgen oemd
Ð° ÑĨÐ¸Ñı
ĠØ£ Ø¯
195 5
ĠfÃ¸r ste
Ġc á»Ń
ĠÐ¾ Ð³ÑĢÐ°
st ar
ÑĩÐ° ÐµÑĤÑģÑı
ĠÐ¿ÑĢÐ¸ Ð½Ð¸Ð¼
p erson
if ul
ft rag
est ers
ĠDep ort
Ġver tre
Fran k
Ġauthor ity
éģ¸æīĭ æ¨©
Ġachie ved
h Ã©
ĠN Äĥm
ĠÙħ Ø§ÙĬ
Ġor igine
ĠÐ·Ð°Ðº Ð¾Ð½
Ġsyn th
ê¸ ī
ero us
Ø§Ø· ÙĤ
Ġreview s
el u
ĠG ir
Æ° ng
Ġbl ue
Ġdr ive
Or gan
èĤ ī
Ġâ ĪĴ
åĽ½ æ°ĳ
sz taÅĤ
weg e
qu ant
é¡ į
Ġíĺ ķ
ĠÐĵÐµÑĢÐ¼ Ð°Ð½Ð¸Ð¸
Ġs aint
ro y
Ð°Ðº Ð°
èĲ ¨
Î¯ Ïĥ
ĠL ike
Ġch ose
amp e
à°² à°ķ
Ġdw Ã³ch
ĠÑĦÐ¸Ð»ÑĮ Ð¼Ð°
O ut
Â ³
ĠrÃ©fÃ©r ence
ĠdÃ© tr
Ġì§Ģ ìĹŃ
ĠÑħÑĥÐ´ Ð¾Ð¶Ðµ
Ġcal c
Ġepis odes
ëĲľ ëĭ¤
ĠLiber al
ãĤĴ éĢļ
ĠRo berto
Ġpal ab
ĠÐĴ Ñĭ
åŃĲ ãģ®
ĠB uk
ĠÑģ ÑĨ
Ġo si
Ġf air
ÙĪ ÙĬØ±
å¯Ĩ åº¦
t ur
ĠBra un
ĠÐºÑĢÐ¸ ÑĤÐ¸
Ġ18 15
ëĬ ¥
Ùģ ÙĦ
Ġser ÃŃa
ĠÑĢÐµ Ð»Ð¸
çĽ´ æİ¥
ãĥı ãĤ¤
Ġis lam
Ġgr en
ĠB eck
ĠImper ial
Ġel i
ĠMar g
ĠP av
ãģĹ ãģªãģĦ
Ġrelativ ely
Ä ĳ
Ġref used
ĠFrank lin
ÑĩÐµ Ð±
è¶³ çĲĥ
7 00
×ľ ×Ļ×¤
Ġme urt
ĠC oppa
w Ã³r
ind s
strij d
Ã¡ bÃ³l
Ã¤ll Ã¤
es ia
ik et
Ġst ellt
ĠB ak
ĠK in
Ġj orn
ill os
ĠÐ¿ÑĢÐµÐ· Ð¸Ð´ÐµÐ½ÑĤ
Ġre vis
z d
re ter
emeter y
op en
ĠVerw altung
×Ĳ ×Ł
è¦ı æ¨¡
land o
Ã¦ ng
Ġamer yka
Ġn áº±m
ĠÃ¼ zer
ĠÐ¾Ð± Ð½Ð°ÑĢÑĥÐ¶
Ġincl in
ĠGrÃ¼nd ung
ĠIs a
Ð¶Ð´ ÑĳÐ½
×¢ ×ľ
çĴ° å¢ĥ
Ġut g
ĠÐ¶Ð¸Ð² Ð¾ÑĤ
Ġqu atro
Ġconn ected
anter ie
ĠÑĩÐµÐ¼Ð¿Ð¸Ð¾Ð½ Ð°ÑĤÐµ
Ã³l ica
Ġad ap
L ors
ĠÐ· Ð½Ð°Ðº
ĠFamil ienn
ĠPos ition
ĠDoc tor
M c
Ġà®ª à®²
åĪ Ĵ
Ġ12 5
ĠÎ¿ Î¼Î¬
Ðĺ ÑģÑĤ
ãĤµ ãĥĥ
×ł ×Ĵ×ľ
ĠÙĬ ÙĥÙĪÙĨ
ĠØ¯ ÙĪÙĨ
Ġqual ific
B est
jek te
ri um
Ùĭ ØĮ
ĠS co
Ġn ed
eb iz
Ġ16 0
ĠÐ± Ð¾ÑĢÑĮ
Ð½ Ð¾Ð³
ÑĪ Ð»Ð¸
Ġê·¸ ëĬĶ
ĠUn iÃ³n
ĠØ³ Ù¾
tem ente
Ġëĭ¤ ë¥¸
ovi Äĩ
ãĥ¼ãĥĨ ãĤ£
iz iert
ĠÐ²Ñģ Ñĳ
Ġin ÃŃcio
æŃ Ĳ
Ġ" ",
æĪ »
Ġcar bon
Ġc ine
ĠÑĥÐ¿ Ð¾Ð¼
ge k
ĠÃºlt imos
Ġd us
qu Ã©e
ĠÙĬ ÙĪÙĨ
Ġg osp
åį Ī
ĠÐŁ Ð°ÑĢÐ¸
Ġ14 0
Ð»Ñİ Ð´
Ġlib rary
ĠPhilipp ines
Ġingles e
Ġful ly
áĥĲáĥľ áĥĺ
ĠÑĪÐºÐ¾Ð» Ñĭ
Ġb urg
Ġr z
iller y
ÙĪ Ø§Ø¬
Ġra ff
Ġìļ ´
ud uk
åĿ Ĥ
Ġconstit ution
Ġart ific
Ġej Ã©rcito
ĠØ¹ ÙĦÛĮ
hed ral
al on
Ġdistric ts
Z u
ĠSt il
cc iones
Ġmoy enne
st ers
Ġne un
s ec
ãĤĴ çµĲ
çī Ľ
Ġc ells
erc ito
an on
Ġs zt
ĠZ um
ãģŁãģł ãģĹ
ĠØ±ÙĪØ³Øª Ø§
Ã©r ature
Ġju illet
ĠÐ¼ÐµÑĤ Ð¾Ð´
Ġproble ma
Ġk ut
éĽ ¨
éļ ¨
unt ing
15 0
Ġi ki
ãĤīãĤĮ ãģ¦
ĠSt amm
Ġbat taglia
Ø± Ø§ÙĤ
å¹ ¼
Ġv esc
çĶŁ çī©
Ġamer icano
Ġdistin ct
å¸Ĥ éķĩ
å½ĵæĻĤ ãģ®
ĠWe hr
194 7
fin ale
Ġter zo
Ġmi att
Ġil Ã§
æ©Ł èĥ½
w et
Ġdise ase
ĠÑĥÑģÐ¿ ÐµÑħ
Ã© mi
ÐµÐ» ÐµÐ¹
Ð¸Ð» Ð»Ðµ
ĠØ§ Ø¬
ov ic
×Ķ× Ĳ
ĠStud ies
Ġd ato
ãĤ¤ ãĤ¿
ild et
ä¸Ĭ çļĦ
Ġparticip ation
åĢ ¼
ĠÃ© pis
E en
elle ment
Ġpa ese
ĠÚ¯ Ø±ÙĪ
ap en
Ġí ģ
èĹ Ŀ
ÙĥÙĪÙħ Ø©
èªį çĤº
ĠD ach
ip es
áĥł áĥĺ
ĠÃ© lev
Ġson s
ch as
ãĤĤãģ® ãģ§ãģĤãĤĭ
ÅĦsk ich
int endo
è¨ ´
Ġal att
ĠH anno
éļĽ ãģ«
ĠUnivers idade
ĠÃ¤ uÃŁ
me isterschaften
Ġdesc rit
æĭ ¿
ĠÐ¼ Ð°Ð³
Ġtrop as
æ§ĭ éĢł
un cia
cz es
Ġtá» Ń
m outh
Ġpl ut
ĠSw ed
ĠÙħ Ø¨
ĠBr un
ä½ľ æĽ²
Ġex act
Ġver heiratet
ĠDem okrat
Ġm Ã£
le id
akt ion
Ġt uy
Ġprin ce
Ġì° ¸
ĠÐľÐ¸Ñħ Ð°
ĠMarsh all
Ġm iaÅĤ
Ġb iá»ĩt
áº§ m
Ġfac ility
ä¸Ģ äºĽ
í Ŀ
Ġpar liament
ĠSp esies
Ġm obil
Ġsitu ada
Ïĩ Î±Î½
195 4
Ġcolon ial
Ġde be
à¸ĩ à¸Ĥ
ĠØ¬ Ø¯
w all
ĠCar ter
æĮĩ æı®
ĠlanÃ§ ado
Ġ185 3
re te
ĠC Ã´
Ð¾Ð² Ðµ
Ġthu áºŃt
Ð¾ÑĢÐ¸ Ð¸
ÑĢÐ° Ð»
à®ķ à®²
Ġd ict
Ġì ¡
Î´ Îµ
Ġswo j
Ġse igne
Ġfig ur
Ġpaint ing
á» Ŀ
ãĤ ¾
ĠCharl otte
le in
Ġwel ches
à®¤ à®°
Ġmag net
×ŀ× Ĺ
Ġmod if
ink el
A k
n aire
ĠO regon
Ġs ides
ÏĦ ÏīÎ½
Ġihr es
ĠMont real
Ġprz eb
ĠÐ¿Ð¾Ð¿ ÑĥÐ»ÑıÑĢ
ĠH az
ãĥ¼ ãĤ¿ãĥ¼
ĠÐŀÑĤÐµ ÑĩÐµ
ĠØ± Ø³
eg e
geb ung
Ġval mist
ÑĢÐ¾ ÑĦ
Ġs iempre
Ġm ari
à°¡ à°²
Ġinst ruct
Ġí Ŀ
Ġcom edy
Ġn ort
man uel
ĠØ§ÙĦÙħ ÙĦÙĥ
íĴ Ī
ĠÐµ ÑģÐ»Ð¸
ul g
ĠÑģÐ¸ÑģÑĤÐµÐ¼ Ñĭ
Ġch osen
oc ken
ĠY an
Ġsett led
Ġma art
ĠØ¯ Ø§Ø®
ab ol
Ġinj ury
ĠSte wart
ĠLaw rence
iti Ã©
ĠStutt gart
n ach
ĠSen ior
Ġarch it
ĠMed al
Ġb om
ap olis
Ġdi ente
ĠgÃ©nÃ©ral ement
geb Ã¤ude
ĠNav al
il ien
ĠÚ© ÙĦ
×ĵ×¨ ×Ķ
Ġpla c
ãģ® ãģĮ
Ġse em
Ð¸Ð²Ð° ÐµÑĤ
Ġes qu
ec te
ĠProf ess
Ġm Ã¶g
Ġgroup es
ÑģÑĤÐ² Ð¾ÑĤÐ¾
act ive
Ġheirat ete
ier ta
O per
ĠÎ² Î±
Ġmaj Äħ
ĠÐ´ ÑĢ
Ġëį Ķ
ĠH elm
nic y
Ð¸Ð¼ ÐµÐ½Ð¾Ð²
b in
lin ie
ĠÑĩÐ°ÑģÑĤ Ð¾
Ġprincip io
ĠktÃ³re go
od on
ĠÐ½ÐµÐ· Ð°Ð²Ð¸ÑģÐ¸Ð¼
Ġsz cz
Ãªn cias
ĠÐ¿ Ð¾Ð¶
Ġw irk
Î· Î¼Î¿
Ġw ahr
ĠPa olo
ĠVerb indung
Ġy our
amb ycidae
åĭ ¤
Ġnecess ary
ĠÐ·Ð° Ð¼ÐµÑģÑĤ
im ore
ĠÙĩÙħÚĨ ÙĨÛĮÙĨ
Ġvalam int
ĠFreder ick
ĠÐĴ Ð°Ð»
ĠSp ir
æµ· éģĵ
ĠEr geb
ĠMiss issippi
ĠU d
ĠÎ¬ Î»Î»
Ø¹ ÙĬØ©
rit ik
ĠÐ¾Ð±ÑĬ ÐµÐ´Ð¸Ð½
Ġadvan ced
ĠÐ¸ÑģÑĤ Ð¾Ñĩ
w riter
Ġh ers
ĠÄĳ áº¥t
ensch aft
Ġsam ma
Ġsuccess ivo
ÅŁ a
Ġb Ã¼yÃ¼k
Î¹ Î²
ÏĥÏĦ Î®
ĠSch les
ĠBl ues
Ġseb elum
ĠìľĦ íķ´
Ġle ver
ĠS ha
el den
Ġhead quarters
Ġíĥ Ģ
Ġfrag ment
Ġbo ught
Ġgo ed
Ġb Ã¬nh
Ġf iction
uv ieron
id ia
st ud
Ġcan cer
ĠØ´ ÙĪØ±
éĻ Ĩ
ebiz itza
Ġoll ut
ann on
ĠÐļ Ð°Ð¼
Ġs un
Ġto wer
Ġle it
ĠdÃ©c ide
un ut
ĠÐ¾Ð± ÑĥÑĩ
ĠØ§ÙĦØ° ÙĬÙĨ
Ġ×ĳ× ĸ
ĠÑĥ ÐºÐ°Ð·
Ã¡n dez
æĻ º
è© ©
Ġc up
ĠG eld
Ġaik ana
ĠØªÙĤ Ø¹
Ġ9 00
re de
ĠZ a
Ġgo es
Ġst im
Ġt Ã¢m
ost i
lie gen
Ġ×ķ ×¡
ĠÙĥ Ùħ
Ġp az
ĠC ant
ãģ£ãģ¦ ãģĬãĤĬ
Ð¾ÑģÐ»ÐµÐ´ ÑģÑĤÐ²Ð¸Ð¸
ÙĪÙĦ Ø¯
ony me
ĠÑģÑĭ Ð³ÑĢÐ°
Ġf ik
ä½ ³
zy ska
ĠSeg Ãºn
à¤¶ à¤¨
Ġcom tÃ©
Ã¶st lich
ĠØ± Ø¦ÙĬØ³
çĶ¨ ãģĦ
Ġmen o
olu ciÃ³n
Ġnat omiast
in fl
Ġexist ing
ĠVu onna
ĠÐ¿ÑĢÐ¸Ð½Ð°Ð´ Ð»ÐµÐ¶
ĠØ§ÙĦØŃ Ø¯
Ġo vers
ij an
ĠE ach
ÐºÑĤ Ð¾ÑĢ
G M
ĠÐºÐ¾Ð¼ Ð¸ÑĤ
ĠÅĽ rod
Ġë§ ¤
ĠÑģ ÑĥÐ¼
ĠÐ½Ð°ÑģÑĤÐ¾Ñı ÑīÐµÐµ
ĠÐº ÑĢÑĭ
Ġ×Ķ×ŀ× ¡
ĠOr le
ĠSingap ore
oor log
ĠZ jednoc
ĠÐºÐ¾ÑĤÐ¾ÑĢ Ð¾Ðµ
Ġ×Ķ×¨×Ĳ×© ×ķ×ł×Ķ
ÃŃcul as
ĠÐ¿ÑĢÐµÐ´Ð¿ÑĢÐ¸ ÑıÑĤÐ¸
19 38
imat ely
æĺ Į
Ġ184 6
alb ag
ĠFr Ã¼h
è« ¾
é» ĥ
è° ĥ
Wh ile
' m
al am
åĪ¶ åº¦
Ġmuch as
çŃ Ĩ
ift ung
Ġpresent i
ĠFre und
fahr t
æľĪ ãģ®
Ġf iel
Ġë Ŀ¼
æ¯ Ĵ
ĠSar ah
ê »
ia e
ãĤ¢ ãĥ¼
Ġcan ad
we et
×ķ×¨ ×Ļ×Ķ
Ġelec ciones
à¹Ħ à¸Ĺà¸¢
Ġla go
ĠO ak
Rich ard
Ġaus gest
ĠÐ´ÐµÑĤ ÐµÐ¹
W A
æłªå¼ı ä¼ļç¤¾
Ġorigin ale
Ġciv ile
Ġsign if
st ate
æ¶ ²
Ġautom at
a Å¼
ĠÐ¤ÐµÐ´ÐµÑĢÐ° ÑĨÐ¸Ð¸
ĠÐ· Ð°Ð»
w el
ot or
Ġreg ions
Ġjust ice
mir al
áĥĲáĥ ¤
Ġex tern
ĠìĿ Į
ĠC ad
Ġ×Ļ ×Ĺ
le cht
ari at
enn ung
Ġjur is
èİ ±
ow el
Ġav aient
ĠÑħÐ¾Ð´ Ðµ
Ġf are
Ġg Ã¥ng
Ġbl ad
Ġdist ingu
Ã¬ m
ÑĪ Ð¸ÑģÑĮ
ĠR ico
×Ļ× £
ĠÐ¾ÑĤ Ð²ÐµÑĤ
Ġprof esseur
ĠBro thers
west lich
ĠÐ¢ ÑĥÑĢ
à¸Ī à¸³
Ġmog lie
Ġling ua
ĠÐ¿ÑĢ ÑıÐ¼
Ġh og
ÑĪ Ð¸
é¨ İ
Ġfound er
Ġmiejscowo ÅĽÄĩ
ick i
Ø¶ Ø§ÙģØ©
Ġfun ct
åĽ½ åĨħ
ĠCap e
ĠL ub
Ġd nia
Ñĩ Ð¸Ðº
ĠChrist mas
Ġrozp oc
s atz
Ġìł ģ
Ġtem as
195 2
ĠQu ando
d ess
y et
×ŀ×¨ ×Ļ×§
Ġreg ime
Ġlig a
èŀ į
Ġrel ative
Ġdoc uments
Ġfrequ ently
sch riften
é£Ľ è¡Į
áĥĲáĥłáĥ Ľ
Ġmat hemat
×ķ×Ĺ ×ķ×ª
Ġgiov ane
Ø§ Ûģ
ĠÐ³ÑĥÐ±ÐµÑĢ Ð½Ð¸Ð¸
D iv
Ġold est
ĠÑĢÐµÐ¶ Ð¸ÑģÑģ
al g
end em
d ale
Ġimport ance
ĠØ¨Ø²Ø± Ú¯
ãģķãģĽ ãĤĭ
ç·ļ ãģ®
Ġin akt
ĠD ance
ĠÐ¾ÑĢÐ³Ð°Ð½Ð¸Ð·Ð° ÑĨÐ¸Ð¸
Ġauthor ities
ĠëĲ ľ
ik on
G es
Ġalle en
à¸§ à¸Ļ
ci ent
ular es
ig lio
åĬ ī
j ang
Ġ×ķ ×ª
Ã©t Ã©s
ĠÑģÐµÐ» Ðµ
ĠØ¨ Ø§Ø´Ø¯
çĶ· æĢ§
al to
ag h
à´Ĥ .
Ġl ent
heim er
ersch aft
ĠBudap est
ĠC ort
Ġcitt ad
Ġ×Ĳ ×£
Ø§Ø¤ ÙĨ
ĠG riff
å£ Ĭ
u che
lÃ¤ ss
ĠW it
isse ur
F I
ĠBill y
Ġis mer
Ġwe ight
Ð²Ð° ÐµÑĤ
Ġsk albag
int es
Ġ×¨ ×ĳ×Ļ×Ŀ
Ġyoung er
ÙĪ Ú©
à¤Ł à¤°
D el
ĠmÃ©d ec
ĠÐ¿ÑĢÐ¾Ð¼ ÑĭÑĪÐ»ÐµÐ½
Ġesp agn
ill Ã©
ĠØ´Ø± Ú©Øª
Ġzaj m
Ġpun k
Ġva ak
m ing
n eg
ĠIn nen
gr ade
Ġtrans mit
Ġdess in
Ġla y
Ġpla za
Ġpas Ã³
æĶ¿ çŃĸ
ĠÏĩ Ïī
Ġcomm ittee
Ġ×Ĺ ×©
ĠÐ¾Ð±ÑĢÐ°Ð·Ð¾Ð² Ð°Ð½Ð¸Ñı
ÙĪØ± ÙĪØ¨
ĠG arden
ĠK urt
ĠÐ² ÑģÑĤÑĥÐ¿
Ø¹ ÙĬ
Ġbef and
Ġj ogo
amer icano
ik h
ĠSe attle
Ġse h
ik ki
r un
à®¤ à®ª
Ġpen y
ÎµÎ¹ ÏĤ
Ġê°Ļ ìĿĢ
ÐºÐ¾Ð² Ð°
ĠÃ©t udi
Ġ×Ļ ×ĵ
Ġzosta ÅĤy
Ġcon tain
éĽ ª
Î´ Î¹Î¿
Ġpro hib
ĠSt ell
Ġì ±
Ġbar u
Ġt iá»ĥu
ĠB erk
all es
á»į c
Ġbr ug
ëĬĶ ëį°
i ang
ĠÐ¸Ð¼ Ñı
c Äħ
Ġte atr
ĠÙĦ Ø¨
Ġear th
ëŁ ī
ĠÐ¿Ð°Ð¼ ÑıÑĤ
ary a
ar ro
å³ °
Ġw elt
Ġcop ies
Ð´Ð° ÐµÑĤ
æĸĩ åŃĹ
ĠdÃ©f ense
ĠK auf
à® ŀ
id ium
Ġà®¨ à®Ł
Ġreport s
ç¨ĭ åº¦
åĲĪ ãĤıãģĽ
é«ĺ éĢŁ
æĶ¯ æı´
é¾ Ļ
ubl ic
ĠÐ´ÐµÐ¹ÑģÑĤÐ² Ð¸Ñı
Ġbild et
ir st
ĠthÃ© Ã¢tre
ĠÃ¶pp et
Ġ×ŀ ×ľ
å®ī åħ¨
Ġcuer po
×ŀ ×ķ×ĵ
Ġl Ã©
Ġy le
rinningsom rÃ¥det
Ġth iáº¿t
Ġinte g
Ġto v
ĠBrig ade
ĠSwed ish
ĠÑģÑĤ ÑĢÑĥÐºÑĤ
Ġmat em
ãģ¨ãģĦ ãģ£ãģŁ
Ø§Ø ¸
Ġk uv
al ph
Ġb Ã³ng
Ã©c ut
ĠÐ²Ð¾Ð· Ð³Ð»Ð°Ð²
ĠGar cÃŃa
ĠgrÃ¶ÃŁ ten
tr um
Ġmak en
ep oca
è² ·
ĠK orean
Ġpun ti
Ġà®¤ à®®
à¸ Ŀ
Ã¸ n
Ġmaterial s
szy ch
ĠCla ude
Ð¼ Ð¼
ĠÅĵ uvre
ĠS ob
Ö ¼
Ġpopul aire
ĠSw eden
Ġsom ething
Ġsus pend
ĠY hd
im n
ĠÐ¾Ð¿ ÑĥÐ±Ð»Ð¸ÐºÐ¾Ð²
ÚĨ Ùĩ
áĥĲáĥ £áĥ
ĠAn k
Ġtro upes
Ġ×ŀ ×Ļ×ľ
ip el
Ġk inh
ect ing
Ġn Æ¡i
ĠØ¨ Ø³Ø¨Ø¨
æĹ¥ ãģĭãĤī
ĠëĮĢíķľ ë¯¼
éľĢ è¦ģ
ÐłÐ¾Ð´ Ð¸Ð»ÑģÑı
ĠO cean
ĠAl ice
Ġ8 3
ĠÄĳá»ķ i
ĠJ ep
ĠÐ¿Ð¾Ñģ Ð²
à¦¥ à¦®
H al
ĠCol e
æĵ Ķ
An n
Ġconfir med
ist ent
ĠPri ze
he ter
Ġge omet
Ġw si
ĠE k
Ġì Ī
Î¸ ÎŃ
ĠÐĹ Ð°Ð¿Ð°Ð´
æĿ±äº¬ éĥ½
ĠW yd
ĠRes erve
ĠÐľÐ¾ÑģÐº Ð²Ðµ
ĠØŃ ÙĪ
Ġconstru it
anc ouver
Ġak hir
ë§ ¤
Ø§Ø¶ ÙĬ
ĠÑģÐ² ÐµÑĤ
Ø² Ùħ
à¸Ĺ à¸£
S in
v r
Ġ8 9
ar ah
Ġch áº¥t
ĠEx per
ĠTe ile
ĠÐ¸ÑĤ Ð¾Ð³
ĠE hren
a illes
Ġcon sequ
Ġsc ript
ĠNik ol
ĠÅĵ uvres
ĠØ§ÙĦØ£ÙĪÙĦ Ùī
Ã¶ ÃŁe
ĠØ¯Ø§Ø´ ØªÙĩ
Ġv ann
Î½ Î®
Ġw ohl
ĠczÄĻ ÅĽÄĩ
Ġm ob
Ġan ak
ìĸ ¸
Ġ ?
anz er
ĠGusta v
Ġfranc Ã©s
C ha
Ġmo Å¼e
on er
×© ×ķ
ĠC N
ĠG ang
à¤µ à¤¤
Ġpro ce
ĠG az
×ŀ× §
ãĥŃ ãĥ¼
ĠÑĢÑĥ Ð±
p as
ĠBarb ara
ĠÃ§al Ä±ÅŁ
ĠCh ine
oh jo
ÃŃc ulo
Ġmerc ado
Ġmed ios
ĠÑĤÐ¸Ð¿ Ð°
ĠP ablo
ãĥĥ ãĤ·ãĥ¥
ĠDres den
Ġf ib
åĪ º
ied y
ĠGo ogle
l ife
Ġa gen
ant ly
ung sp
ĠáĢ Ĩ
W orld
Ġch áº¿
ĠZ Ã¼r
Ġk á»³
åĪĿ ãĤģãģ¦
ĠØ£ÙĬ Ø¶
Ġíı ī
ĠÙĪ ÙĤØª
ĠStan is
z ion
ĠìĻ ķ
ĠÎ´Ïį Î¿
Ġg izon
ä» Ļ
ãĤ»ãĥ³ ãĤ¿ãĥ¼
o ÅĽci
Ð¾ÑĢ Ð´
ãģ¨ ãģķãĤĮãĤĭ
ĠÛ µ
Ġfest iv
å·¥ æ¥Ń
ĠBen jamin
ist on
ĠáĥĲáĥ ¡
ra j
Ġbas es
v Ã¤r
Ġvo i
De utsch
Ġà®ħ à®µà®°
ĠMaur ice
Ġf id
Ġcon vent
ãĤ¹ ãģ¯
æĭ Ľ
p y
ĠÐ°Ð½ ÑĤÐ¸
Ġh anya
ĠW at
Ġsz ak
Ġ18 12
Ð°ÑĤ Ð¾ÑĢ
Ġte en
Ã¤ cht
ĠØ£ Ùģ
Ð°ÑĤÐµÐ» Ð¸
Ġb ouw
ĠProt est
st wie
ĠCon stitu
Ġcap tain
Ã³r d
Ø§ÙģØ¸ Ø©
æī ±
å¥ ī
ãĤ± ãĥĥãĥĪ
Ġeffect ive
on ist
ÙĨØ¯ Ú¯ÛĮ
m ost
Ġê³ ¼
ĠPict ures
Ġtrabal ho
Ø§ ÙĬØ±
å± Ĭ
Ġprzec iw
ĠL ima
Ġwicht ig
ie gel
l uk
à´° à´µ
Amer ica
ĠÐ¼ÐµÑĤ ÑĢÐ¾Ð²
C omm
ë° °
or igin
Ġch u
Ð± Ð¸ÑĤ
ëĵ¤ ìĿĺ
ĠKab upaten
ĠØª Øº
195 3
Ġor k
Ġt ied
å®Ł æĸ½
å» ·
Ġ×ĳ×ŀ× ĵ
s ozial
ij s
Ġpe qu
ĠÃ¡ reas
Ġk ob
Ġroz gryw
ĠÐ² ÐµÑĤ
äº¬ éĥ½
Ġn ig
ĠÙ ¹
ĠN CAA
ad ura
éł ¼
ako ta
ema akt
Ġemplo yed
Ð¼Ðµ Ñī
Ġb ald
ÙĦ Ø§Ùģ
Ġre ject
Ġcom ando
Ġv et
ĠUk raine
Ġre de
ãĤ¨ ãĥ³ãĤ¸
ale za
×© ×ķ×ª
Ø° ÙĬ
Ġ×ĳ×ª ×Ĺ
ĠÄĳ ang
Ø¦ ÛĮ
å§Ķåĵ¡ ä¼ļ
ĠÃ© let
Ġgro ss
Ġsu jet
å¹ ¹
ĠGu atem
æ´» èºį
Ġf ict
ĠR osa
Ð»ÐµÐ½ Ð¾
cu ador
Ġbeste hen
ĠTai wan
ur ger
ĠD ruck
ÙĦÙĬ ÙĦ
Ġl ite
ÐŁ ÑĢÐµÐ·
T y
Ġretro uve
B and
Ġmo untain
ãģªãģ© ãģĮ
×Ļ×Ĵ ×Ķ
Ġumf asst
ãĥ ¶
ir ma
Ġhav ia
Ġprob ab
Ġíĸ ī
æľ¬ ä½ľ
ĠÑĢÐµÐ´ Ð°Ðº
ĠS emin
æĭ ¡
Ġ×ĳ×ŀ× Ĳ
Î¸ Ïħ
E sta
un ct
Ð± Ð¾Ð»ÑĮ
ĠcompaÃ± ÃŃa
ĠC it
çģ ½
Ġhor as
19 18
Ġ184 7
âĶ Ģ
Ġpo is
Ù «
Ġret urning
Ġres c
é«ĺ ãģĦ
ĠÅĽ mier
ĠMc K
Å¼ u
ç¿ ¼
×ķ×ŀ ×¨
Ġtang gal
Ġrec ens
Ġfo ught
E ste
åº Ħ
ĠÐĲÐ»ÐµÐºÑģÐ°Ð½Ð´ ÑĢ
de o
Ġs ap
ĠK it
Ġdu o
ui u
Ġìĸ ĳ
Ġrapid ement
gun akan
ĠÐ²Ñĭ Ð´ÐµÐ»
lÄ± k
z ien
ĠÃ© poque
ĠFamil y
B ig
æµ İ
r ant
ÐµÐ½Ð¸Ñı Ñħ
Ġpar v
Ġv ision
ĠÐ± Ð¾Ð³
Ġent itled
Ġmilit Ã¤r
Ġout ubro
à¤ ĺ
â ĪĴ
ĠÑĩ ÐµÑģÑĤÑĮ
ä¹ĭ å¾Į
ĠØ§ÙĦÙħØ¯ ÙĬÙĨØ©
Ġgovern or
Ġn Ã¥g
ĠØ¨Ú¾ ÛĮ
Ġthe atre
à¹ģ à¸ļà¸ļ
194 3
zo ek
arg ent
ãĤĴ æŀľãģŁ
ĠÐ¼ Ð¸ÑĢ
ne x
æ°ĳ æĹı
æĨ ²
Ġqu adr
Ġnot es
ĠÐ¿ Ð»Ð°
irm ingham
ĠÑĦÐ°Ðº ÑĥÐ»ÑĮÑĤ
ĠÙĩØ³Øª ÙĨØ¯
Ġt ier
ĠYou Tube
åī §
ĠB ond
Î± Î³
ĠFamilienn ame
æľĿ é®®
Ġcre ating
Ġraggi ung
S ince
ĠíĶĦ ë¡ľ
Ġval le
Ġarr ive
ç½ ĳ
çĽ® åīį
Ġt Ã¡m
ãĥĽ ãĥ¼ãĥł
×ĳ×ķ×¦ ×Ķ
Ġsch wer
Ġm ies
Ġê·¸ ë¦¬
ĠZ udem
ĠÐ²ÑĬ Ð·
é¹ ¿
ãģ¾ ãĤĮãģŁ
Ġbro ke
ĠF ul
à®¤ à®©
Ġ×Ķ×ŀ× ¤
ĠHaw ai
ĠspÃ© cial
Ġa wards
å¤§ãģį ãģª
it ur
Ġvoor al
vÃ¤st lig
ĠA ri
ĠPre is
19 37
ĠStud ien
à¦ Ĩ
åĪ Ľ
à°¥ à°®
es es
Ġemp ez
à¦¼ à¦¿
ĠÑĤ ÑıÐ¶
In t
w itz
ĠÐ´ Ð¾Ð²
Ġë² Ī
T a
×ĳ× §
liote ca
áĥĿáĥĳ áĥĺáĥ¡
Ġf ish
A lt
ĠÐ²ÑĭÐ¿Ñĥ Ñī
Ġmias to
ĠØ¨ Ø·
è§ Ħ
b ir
Ġpolit iques
Ð°Ð» Ð¸ÑĤ
ĠÐ´ÐµÐ¿ ÑĥÑĤ
T el
ÑİÑī Ð°Ñı
Ġprovin cial
ä¸ ¾
ko a
Ġdyn am
ÅĤ ada
Ġmed lem
Ø± Ø¬
ĠW alt
ĠWien er
éĸ ī
Ġsucce eded
ĠÐ½ Ñı
Ġest aciÃ³n
ĠÛ²Û° Û°
pla ats
ĠrÃ©sult ats
Ġun iform
st Ã¤ll
Ġs ak
asi h
Ġlet ters
èĴ Ĥ
Ġm inden
ĠØ§ÙĦ Ø¯Ø±
form a
Ġìĺ ¬
ĠVerw altungs
olog ischen
Ùĩ ÙĨÚ¯
C P
Ġex pres
Ġp ud
Ġacc us
áĥĵ áĥĶáĥĴ
ĠL age
ĠN ash
ĠÑĥ Ðº
ä¸» ãģ«
ĠØ¨ Ø¹
ĠÐ¢ Ð¾Ð¼
ĠSing le
Ġtra f
à¤¼ à¤¾
Ġnomin ated
ĠLuc as
Ġ9 4
ini i
ë¦ ¼
Ġtov Ã¡bb
Ġmil h
Ġkec amatan
ĠØ¨ Ø£
Ġbeg on
ier ungen
194 2
Ġid i
it im
S T
Ġre ct
ĠÐ¿ ÑĢÐµÐ¼
Ġattack ed
à¸Ļà¸ķ à¸£
Ġaug ustus
ãĤ· ãĥ¼
Ġgu est
c re
Ð°ÑĢ Ñĭ
Ġver bre
Ġc overs
ĠìĹ ´
ign ement
int ure
ĠSp rache
Ġfer m
yd lig
Ġsel ten
æıĲ åĩº
ĠRod rig
Ġcostr uzione
ĠCle veland
Ġh osp
iz ont
ĠÐ±Ð¾Ð»ÑĮ ÑĪÐµ
ÑĢ Ð¾Ð·
Ġme est
Ġband s
ĠIndones ien
Ð°Ð² ÑĪÐ¸Ð¹
ian os
ĠUnivers al
ĠØ§ÙĦØ¨ ØŃØ±
ĠRe y
éł Ī
uis se
ar ly
Ġ18 20
Ð¾Ð»ÑĮ ÐºÑĥ
Å¼y ÅĤ
ÐºÐ¸ Ð¼
Ġpati ents
ĠK ern
ĠcÃ©l Ã¨
Ġsu k
ĠÐļ Ð°Ð½
ios o
h yd
ĠA sp
elle ct
Ġadminist ra
Ġquest ions
Ġviol ence
if l
ĠÐ¾Ð± Ð¾ÑĢÐ¾Ð½
ĠAre an
ĠcompÃ©t ition
ot ed
Ġà® °
ai ro
ĠB oden
G li
à°¯ à°¨
Ġdes sa
è·Ŀ éĽ¢
r ang
Ġad ministr
Ġ( âĢł
ĠSh ang
Ġdamal igen
ĠA ustin
Ġ9 1
Ġsome one
ĠÐ²Ð¾Ð¹ Ð½Ð°
ĠÐ³ÑĢÑĥÐ¿Ð¿ Ð°
b Ã¶
en ger
Ġthe me
U l
an Ã§
skap et
ãĤ¹ ãĤ«
Ġlong itud
Ġtur no
evere iro
Ġprin cipe
ĠSh ah
Ġtr atta
ĠV org
ãĥ³ ãĤĴ
ĠVinc ent
Ġqu ais
ĠEngine ering
un ek
ĠProgr amm
Ġd Æ°á»Ľi
ĠÐ¡Ð°Ð½ ÐºÑĤ
I R
O ber
ĠK ings
sp rach
ĠJoh an
Ġcateg oria
Ġt els
èĤ ¡
Ġpossib ile
c sol
ìł ¸
Ġt ree
ĠP itts
ĠÐ¿ Ñĥ
Ġopper vlak
ĠA ten
tsch aft
m ig
ist ra
Ġph á»§
ãĥĥ ãĥĦ
Ñģ Ð¼
åħ¨ ãģ¦
Ġc af
áĢ¾ áĢ¯
b lem
ĠìĤ °
Ġor g
h Ã¡z
ĠÅĽ red
Ã¡l ia
P olit
ĠW ie
Å¼ ej
Ġfinan zi
M iss
ÛĮ Ø§ÙĨ
Ã©d Ã©
×Ľ ×ł
Ġeconom y
ÐµÑĢÐ¸ Ñı
Emp ire
ĠdÃ© part
ĠÑĦÐ¸Ð½ Ð°Ð½
j az
un ciÃ³
Ġexist ence
ĠëķĮ ë¬¸
ci ata
il u
çµĲ å©ļ
ĠV ent
Ġ×© ×ĳ
end u
Ġer fol
Ġbro thers
ĠKon z
ig lich
çķ¶ æĻĤ
Ġent ren
O k
éĥ¨ ãģ«
Î¸ Î®
ĠÑĩÐ°ÑģÑĤ Ð½Ð¾ÑģÑĤÐ¸
Ġso zial
ĠÐ¸Ð³ ÑĢÑĭ
ĠÑĢ Ð¾Ð´Ð°
ĠT age
×ķ×© ×Ķ
ãģĻãĤĭ ãģŁãĤģ
Ġv ijf
let on
ĠAir lines
ar f
åĲį ãģ¯
aliz z
èĭ± èªŀ
ĠN ella
ic um
Ġmuj er
Ġinsp ired
Ã¡s i
bor Ãº
Ġgj orde
Ġs Ä±
Ġesp Ã¨ces
ĠÏĩ ÏģÏĮ
ĠD uits
ĠHo ff
ĠAut om
Ġextens ive
Ġsupp ly
à¹ģ à¸ª
Ġed o
Ġmar Ã§o
è¨Ń å®ļ
ĠÐºÐ»ÑĥÐ± Ð°
R ev
Ġb ÄĻd
ĠH ub
Ġeg in
Ġ×ĳ× Ł
ĠØ§ ØŃ
Ġset embro
éº »
ĠSel bst
à¤¹ à¤°
T om
ĠÑģ Ð¾Ñĩ
Ġo ly
ĠWarsza wie
ĠW right
ĠAb ra
ĠAl g
ĠD allas
n ats
ĠÑĢÐµ ÐºÐ°
ãģķãĤĮãģ¦ ãģĬãĤĬ
Ġzdoby ÅĤ
ap par
ew el
Ø² ÙĦ
Ġìĭľ ìŀĳ
ĠKur z
ĠÐ± Ð°Ð½
Ġm obile
ĠMet ro
ÑĩÐµ ÑĢÐµÐ´
ĠChar lie
it on
Ġaf irm
mu ÅŁtur
iment os
ĠØ§ÙĦØ³ ÙĥØ§ÙĨ
Ġw ear
no i
ĠÙĬ ÙĪÙħ
ç¤ ¼
ĠÐ»Ñİ Ð´ÐµÐ¹
un ku
ĠZ ijn
ĠServ ices
Ġapplic ations
Ġattempt ed
ol y
Ġpi ÄĻ
ĠFilm s
Î¼ Î¼
Ð°Ðº Ñĥ
ĠÙĦÙĦ Ø³
ĠPer u
Ġtemper ature
ãģ¨ ãģĵãĤį
Ġjul ho
à¦° à¦®
ĠÏĥ Î·Î¼
Ġ×ł ×Ļ×ª
anc ing
Ġh Ã¡t
Ġall ora
Ġ à¹Ĥ
on ge
å°ı åŃ¦æł¡
ĠAl ess
N ella
mi x
ĠdÃ©cl ar
Ġel lo
ÐµÐ´ Ð¸Ð½Ð¸
Ġrealiz Ã³
Ġs ole
eg io
Ġsend iri
Ġro utes
×Ļ×ŀ ×ķ×©
mar ine
Ġsezon ie
ĠE is
åĨ ·
ban e
Ð¸ ÑģÐº
ĠÐĶ Ð»Ñı
ĠMo on
b ran
Ġt uli
Ġà®ħ à®²
ĠÑģÑĤÐµÐ¿ ÐµÐ½Ð¸
ĠNether lands
ĠG ab
Ġy Ä±ll
Ġinf rastr
å® Ļ
ĠÑĤÑĢÐ°Ð½ ÑģÐ¿
Ġm orning
ĠE ag
p ing
Ġc ycle
Ġsitu ado
áĥĲáĥ ĸáĥĶ
uh t
Ġmigli or
Ġw ÅĤa
Ð°Ð½ Ð½Ð°Ñı
ĠÐºÑĥÐ»ÑĮÑĤ ÑĥÑĢÑĭ
et her
og an
ĠG ill
æĻĤä»£ ãģ®
Ã¡t icas
Ġart istas
ĠA gu
ĠÏĮ ÏĢÏīÏĤ
ĠK rak
Ã¼ ÅŁ
Ð¾Ð½ Ð¸
se hen
Ġcu á»ĳi
ta it
ĠK ob
Ġnav al
Ġnomb rado
Ġun able
Ġ184 5
pr in
ÙĬØ± Ø§ÙĨ
ĠMan h
Ã ħ
ĠÐ· Ð½Ð°
yn am
Ġjan eiro
ĠCommon wealth
ist y
Ġp ale
ÃŃcul os
s ing
Ġav ere
Ġa Ãºn
Ġim ages
Ð¾Ðº ÑĢÐ°
ur Ã©
Ġ×Ĳ ×Ļ×¨
Ġb erd
Ġaup rÃ¨s
cent ury
ĠáĥĹ áĥĲáĥķ
Ġro y
ori um
rit y
ĠÐ¿ ÑģÐ¸Ñħ
ag ua
ãĥ¼ãĥ į
Ġreg ro
ert os
ĠÙĪØª ÙĪÙģÙĬ
Ùģ Ùĩ
Ġoppos ed
ãĥīãĥ© ãĥŀ
Ġrep ut
Ġmil jo
ci uto
o unts
Ġhij os
Ã©r er
áĥĲáĥ ŀ
ol ph
Ġre chts
ìĻ ķ
Ġetx ebizitza
Ġay ud
ul m
ĠÃ© Ã©n
Ø§ ÙĪÙĨ
è¡Į åĭķ
any ol
Ð½ ÐµÐ½
ĠÐ´ Ð°Ð²
Ġcom te
Ùĥ Ø±ÙĬ
Ð°Ð¹ Ð»Ð¾Ð²
å¤ª å¹³
flug or
l ock
Ġwa arbij
ĠK ep
ub an
Jahr hund
Ñĩ ÐµÐ½
ĠÐº Ð¾Ñģ
Ġloc ales
Ġse ats
ĠÙĦ ØŃ
åľ° ä¸ĭ
Ġor o
Ġtill s
å¨ ĺ
ãĢĭ ãĢģ
Ġnov a
ĠÐ² ÐµÐ»
ãģ¾ ãģ£ãģŁ
Ġdez embro
Ġgio co
ĠProvin cia
Ġpro sp
Î» Î¹
Ġh ohen
end ra
ĠDe an
og li
ãĤ· ãĤ§
Ġhor se
Ġ orth
Ġëª ©
Ġattem pts
Ġsvil upp
Ġma io
à¦ī à¦¨
ÅĤ e
isten za
ze hn
M aria
ĠB apt
ĠPop ular
Ġuk o
ual i
ail y
Ġch Ã¢u
Ġvo ie
×¨×ĳ ×ķ×ª
ĠHÃ¤l fte
Ġ uy
ĠGra ham
ì¡ Į
Ġsubsequ ent
ĠÎ¼ ÏĢÎ¿
ĠáĥĽ áĥĺ
ĠØ§ÙĦÙĤ Ø¯Ùħ
ĠAmer icans
Ġehemal ige
g Ã³
ĠB res
Ġvir us
ê» ĺ
×Ķ× §
kl asse
×ł ×Ļ×Ķ
B eg
id an
ĠÐŁ ÑĢÐµÐ´
h enden
19 36
Ġsog ar
ĠÐĳ Ð°ÑĢ
Ġinakt ibo
ĠÙĦ Ø¹Ø¨
Ð¾Ñĩ Ð½Ð¾
M ah
ĠÐ» Ð¸Ð±
ĠCh o
Ġex er
ke zÅĳ
ck i
çľ ¾
Ġmeth ods
Ġdan h
Ð¸Ðº Ðµ
ĠÙħ Øº
ĠT omm
ĠA ber
Ġex ception
ĠÄĲ Ã´ng
è« ĩ
ĠØ¹ÙĨØ¯ ÙħØ§
ãģĿ ãģĵ
ĠÐ¸Ð½ Ð´
Ġch airman
hol der
ëĵ¤ ìĿĦ
O P
ten de
ĠbÃ¢t iment
or em
ĠP ep
ĠÑĢÐ°Ð·Ð»Ð¸Ñĩ Ð½ÑĭÑħ
in ar
ĠÙģ Ø§Ø±
Ġne eds
Ø± Ùĩ
Ø³Øª Ùĩ
Ġb uy
Ġ×ŀ×Ľ ×Ł
Ã¶ sen
Ġvo itti
Don ald
cl os
ĠØµ ÙĨ
Ġudaler rian
ĠÙħ Ø·
Ġ×ķ ×Ĵ
ille m
å»º ç«ĭ
ĠÐ¼Ð½ Ð¾Ð¶Ðµ
×¨×Ĳ ×Ķ
ĠConnect icut
ĠNorm and
Ġun g
F il
ÑĤ Ð¾Ðº
Ġben annt
Ġcompos Ã©
ĠA labama
F e
ÙĨØ¯ ÙĬ
Ġfund ing
Ġsaf ety
Ø§ØŃ Øª
Ġac ordo
åº ģ
æĮĻ ãģĴ
Ġsom m
ĠÐ± Ð¾Ñı
Ġge pr
Ġz aman
ĠSpiel e
ĠAu ÃŁen
ek e
Ġro se
Î¸Î· ÎºÎ±Î½
à´¯ à´®
Ġpar as
Î» ÎµÎ¯
ãĥªãĥ¼ ãĤ¹
å® ĭ
íķ Ń
Ġsort ie
Ġpolit ics
ãĤŃ ãĥ³ãĤ°
Ïħ Î³
ĠÐł ÑĥÑģ
Ġbill ion
Ġlo an
Î½Î· ÏĤ
ĠBul gar
yl on
ĠÙģ ÙĤØ¯
ê¸° ëıĦ
Ġbus kland
Ġdesign ated
ak ult
ĠG ent
iel s
ĠÙħ Ø®
ãĤµ ãĥ³
ĠÐ¼Ð¸ÑĢÐ¾Ð² Ð¾Ð¹
æļ Ĺ
Ðº Ð»
Ġbuskland skap
ãģ¨ ãģĹ
ĠZ uge
ĠÑģÐ¾Ð± Ñĭ
ĠCamp bell
for sch
S yn
ub en
Ġact ress
ĠÐ¾Ðº ÑĢÑĥÐ¶
c rit
à®µ à®Ł
Ġric ord
ĠRob inson
ĠY ang
Ġë¯¸ êµŃ
Ġpr zen
Ð»Ð¸ Ð¶
ĠChrist opher
Ġav evano
ĠØ§ÙĦ Ø±ÙĬ
get ragen
Ġengine ering
Ġins er
Ġpower ful
Ġm ental
×ķ ×ķ×ª
Ġla ke
ew an
Ġco inc
Ġkom mer
it uito
Ġamp li
å±ķ éĸĭ
ici ente
ãĥĲ ãĥ«
and r
ot ic
Ġre pres
Ġmov imiento
ãĤ¯ãĥ© ãĥĸ
Ġex change
p it
áĥĲáĥ® áĥļ
ĠR est
å¤ ´
Ġbrit ischen
ĠT ow
ÑģÑĤÐ² ÑĥÑİÑī
Ġb arb
åį ı
ĠÐĴ ÑģÐµ
Ġmeg y
ç¦ »
Ġs Ã¼r
ÑĢÐµÐ¼ ÐµÐ½Ð½Ð¾
ĠÐ§ ÐµÑĢ
Ġanim als
æľĢ å¾Į
ĠnÃ³ i
Ġpubl ik
ĠI F
Ġprim ero
w ur
Ġs int
å½¼ ãģ¯
in ki
Ġclass ement
åľĭ éļĽ
ers eits
Ã¶r en
Ġem ph
Ġpowierz chni
Ġb iáº¿t
á» Ŀi
ĠG ian
ĠÐµ Ð¿Ð¸ÑģÐºÐ¾Ð¿
m ai
Ġcontr Ã´le
éĸ £
j uk
Ùģ Ø§Ø¹
Ġcateg orÃŃa
rich ten
á»ķ ng
Ġac cep
Ġfig lia
ĠLu igi
ĠÐ´Ð¸Ð²Ð¸Ð· Ð¸Ð¸
ĠD ue
ĠÑĪ ÑĤÐ°
Ġpie ce
T ras
ĠÐ¼ Ð¾Ñī
ÙĨ Ø§Øª
Ġdro pped
ĠÐ½Ð° Ð¸Ð±Ð¾Ð»ÐµÐµ
Ġter b
ym p
ĠS ho
ath on
Ġfuer zas
ĠK anton
Ø¬ Ø²
à°¯ à°µà°¸
Ġgener ation
Ġmel hor
Ġmeille ur
ĠA er
Ġcom Ãºn
Ġl un
Ġbas ic
ãģ¤ ãģĭ
Ġhold ing
ĠL ow
ãĤĴçµĮ ãģ¦
L ove
Ġprend re
im erk
£áĥ ļáĥĺ
ĠÑħ ÑĢÐ°
Ġprote in
ĠÐ½Ð°Ñģ Ð»ÐµÐ´
itt y
ta i
Ġk ok
ĠV oor
ĠÐºÐ°ÑĢ ÑĤ
Ġoccup ied
Ġv ue
gol ong
ä½Ĩ æĺ¯
Ġconv oc
ëĵ ł
Ġs ense
m Å±
ĠS V
ĠÐł Ñĥ
ĠT ourn
Ġpol y
Ġà®Ĭ à®°
Ġda ily
k Ã¶d
Ġn Ã©p
Ġbelang rij
ÙĨ Ø¸
ĠÃ¤ lt
O ff
å¼ º
Ġa x
j Ã¡t
Ã¨ tre
1 20
Ġm Ã¨tres
ĠDies es
an ze
Ø§Ø¦ ÛĴ
Ġbesch Ã¤ft
Des de
Ġinter med
ĠSund ay
ĠÃ¼ber n
ĠLeit ung
qu il
tr ice
ĠìĬ ¹
Ġvis ited
c Ä±
Ġh uis
Ġto imi
Ġepis odio
em ment
Ġ ust
Ġu omini
V en
Ġarr ested
Ġ×ľ×ŀ× ¢
ĠSong s
Ġjan vier
ni us
ĠLin ie
ĠB ald
ĠT anz
Ġver lÃ¤
ãĤ³ ãĥŁ
ĠAbd ul
Ġtemp at
ĠÐ¼ ÐµÑħÐ°Ð½Ð¸
ala x
Ġinfer i
ĠArn old
K a
æĬ ľ
à¤¬ à¤°
Ġbe aut
Ġ Ñī
Ġg aan
æ±Ł æĪ¸
Ġh appen
ra ÅĤ
ĠV ancouver
Ġpr Ã¡ct
S oci
ocia ciÃ³n
Ġobt uvo
oss o
Ġir m
ĠÐº Ð°Ð½Ð´Ð¸
ĠØ¹ ÙħØ±
ĠI T
Ã¶ hem
ĠØ£ Ø¹
áĢ¾ áĢ¬
Ġeb enso
ãģĦ ãģ§
ãģ® ãĤ¢
ĠR ak
ĠÐł Ð¸Ð¼
Ġser ait
ĠØ§ÙĨØª Ø®Ø§Ø¨
ĠN at
Ġmilit are
ĠSt ory
Ġë³ ¸
osa urus
Ġka um
rom os
ĠmÃ¡s odik
Ġ184 2
D ec
ĠS int
Ñĭ Ð²Ð°Ð»
ĠR ib
us st
Ã¡s Ã¡t
Ġcons ent
ĠÐ¿ÑĢÐ¾Ð¶ Ð¸Ð²
ĠIt ali
lij ke
ĠÐ½ Ð¸Ð¼
ĠÙģÙĬ Ùĩ
Î¾ Îµ
ĠL eiter
ÐµÐ½ Ñģ
ÑĩÐ° ÑģÑĤ
Ġì ´Ŀ
Ġesp ect
ĠRos en
Ġjap an
ëĿ¼ ëĬĶ
Intern ational
ĠP ast
Ġbes itzt
s il
è ľ
st Ã¼ck
I f
ĠAnd y
ĠÐºÐ¾Ð»Ð¸ÑĩÐµ ÑģÑĤÐ²Ð¾
ĠK em
ĠSpiel zeit
à®Ł à®ª
Ġres ources
Ġam ateur
ĠCh amp
éĿ Ļ
ĠC P
ĠG et
ced es
ĠÐ²Ð¾ Ð¾ÑĢÑĥÐ¶
æ²¡ æľī
Ã¼ gt
E sc
n os
Ġch ance
j ah
Ġ×©×ł ×Ļ×Ŀ
Ġfield s
ĠBy ÅĤ
ĠÐ±Ð¾Ð»ÑĮÑĪ Ð¸Ð½
ĠL ast
Ġmon arch
ÙħÙĦ Ùĩ
ĠÐĴ Ð¸Ðº
ĠDel hi
pow ied
Ġse ura
Ġcrit ics
ĠÙħØ± ÙĥØ²
er at
Ðĺ Ð·
ĠÑģÑĤÑĢÐµÐ» ÐºÐ¾Ð²
p ra
éĢ Ĩ
ĠÙĨØ¸ Ø±
Ġci Ã²
s za
Ø§Ø¦ Ø±
h all
Ġcomp lic
Ðº Ð¾Ð½Ñĩ
ÙĤ Ø§Øª
Ġinv it
è©ķ ä¾¡
ĠT all
D E
S M
Ġ uc
Ġco in
ĠNicol as
ĠÐ¼ Ð°Ðº
Ð¾ ÑıÑĤ
ĠTh ompson
go z
ĠÐ²ÑĢÐµÐ¼ Ðµ
Ġperform ing
ãģķãģĽ ãģŁ
Ġter golong
Ð²Ð°Ð½ Ðµ
Ġì ½Ķ
ĠÙħ Ùĥ
ãĤ¤ãĤ¿ ãĥªãĤ¢
çĻº è¦ĭ
195 1
å¹ ¸
åª Ĵ
åħ ħ
rop s
éĤ Ĭ
h omme
Ġd unia
ĠÎ´ Îµ
is co
ese en
Ġz ad
ĠV ik
ĠwojewÃ³dzt wie
in ent
Ġmem ory
ĠÐºÐ¾Ð½ ÐºÑĥÑĢ
Ø§Ø· Ø¹Ø©
ä»ĸ ä»¬
ĠÑĢÐ°Ð±Ð¾ÑĤ Ñĥ
b orough
Ġam en
Ġinst ru
ÑģÑĤ ÑĢ
ne as
ĠHanno ver
ĠÐ¼ Ð°Ð¹
à¸ĩ à¸¡
Ġz ones
ĠÙĤ Ø§Ùħ
ĠØ² ÙħÛĮÙĨ
z ell
ĠB iz
ce ph
Ġcommission ed
Ġlear ning
m Ã¤n
ĠØ¹ Ø¨
Ġconte x
Ð¸ÑĩÐµ ÑģÐºÐ¸
ĠÐ¾ÑĤ ÐºÐ°Ð·
jÄħ ÅĤ
åŃ¦ éĥ¨
åĩº æĿ¥
es per
Ġm Ã¶
G i
Ġret ra
×ķ×ŀ ×Ļ×Ŀ
Ġp ai
Ġs ola
Ġtra it
åŃ¦ èĢħ
Ġhistori ques
ĠC ob
Ø² Ø§
ãĤ¦ ãĤ©
à§ «
ĠÐºÐ»Ð°Ñģ ÑģÐ¸
Ø§Øª Ø±
Ġrefer ence
ĠLe h
ĠÐ´ ÑĥÑĪ
åħ Ĵ
ĠH em
Ġein de
L et
ĠØ¨ Ø§Ø³Ùħ
ãģ» ãģ¨
æ¼« çĶ»
à¸Ħ à¸¥
Ġd Ãłi
Ġj Ã¼ng
Ġà®ħ à®Ł
ycz nych
ĠI ch
Ġarm s
ĠÐ¼Ð½Ð¾Ð³ Ð¸Ñħ
ĠÑģÐ¸Ð¼ Ð²Ð¾Ð»
ĠK aliforn
ang k
Ġ áº£nh
ĠP ere
ac ent
Ġmeng gunakan
åĩºèº« ãģ®
Ð½ÑĥÐ» ÑģÑı
Ġs Ã¡ch
onne ur
C E
Ġb out
Ġk art
à¦¾ à¦ģ
¯ à¥
ĠLa ut
oty pe
ĠPolit ik
V u
ĠZ ust
à¸ª à¸£
T op
act or
ĠÐ¼ÐµÑģÑĤ Ð°
ell as
Ġsoci ales
ĠSch Ã¼ler
Ð°Ñģ Ð°
P an
Ġs co
Ġs ala
ĠM idd
Ġà¦ħ à¦Ń
ĠØ´ ÙĨ
ĠØŃ ÙĪÙĦ
[...]
