{"<s>":0,"<pad>":1,"</s>":2,"<unk>":3,"<mask>":4,"<|endoftext|>":5,"<case>":6,"!":7,"\"":8,"#":9,"$":10,"%":11,"&":12,"'":13,"(":14,")":15,"*":16,"+":17,",":18,"-":19,".":20,"/":21,"0":22,"1":23,"2":24,"3":25,"4":26,"5":27,"6":28,"7":29,"8":30,"9":31,":":32,";":33,"<":34,"=":35,">":36,"?":37,"@":38,"A":39,"B":40,"C":41,"D":42,"E":43,"F":44,"G":45,"H":46,"I":47,"J":48,"K":49,"L":50,"M":51,"N":52,"O":53,"P":54,"Q":55,"R":56,"S":57,"T":58,"U":59,"V":60,"W":61,"X":62,"Y":63,"Z":64,"[":65,"\\":66,"]":67,"^":68,"_":69,"`":70,"a":71,"b":72,"c":73,"d":74,"e":75,"f":76,"g":77,"h":78,"i":79,"j":80,"k":81,"l":82,"m":83,"n":84,"o":85,"p":86,"q":87,"r":88,"s":89,"t":90,"u":91,"v":92,"w":93,"x":94,"y":95,"z":96,"{":97,"|":98,"}":99,"~":100,"¡":101,"¢":102,"£":103,"¤":104,"¥":105,"¦":106,"§":107,"¨":108,"©":109,"ª":110,"«":111,"¬":112,"®":113,"¯":114,"°":115,"±":116,"²":117,"³":118,"´":119,"µ":120,"¶":121,"·":122,"¸":123,"¹":124,"º":125,"»":126,"¼":127,"½":128,"¾":129,"¿":130,"À":131,"Á":132,"Â":133,"Ã":134,"Ä":135,"Å":136,"Æ":137,"Ç":138,"È":139,"É":140,"Ê":141,"Ë":142,"Ì":143,"Í":144,"Î":145,"Ï":146,"Ð":147,"Ñ":148,"Ò":149,"Ó":150,"Ô":151,"Õ":152,"Ö":153,"×":154,"Ø":155,"Ù":156,"Ú":157,"Û":158,"Ü":159,"Ý":160,"Þ":161,"ß":162,"à":163,"á":164,"â":165,"ã":166,"ä":167,"å":168,"æ":169,"ç":170,"è":171,"é":172,"ê":173,"ë":174,"ì":175,"í":176,"î":177,"ï":178,"ð":179,"ñ":180,"ò":181,"ó":182,"ô":183,"õ":184,"ö":185,"÷":186,"ø":187,"ù":188,"ú":189,"û":190,"ü":191,"ý":192,"þ":193,"ÿ":194,"Ā":195,"ā":196,"Ă":197,"ă":198,"Ą":199,"ą":200,"Ć":201,"ć":202,"Ĉ":203,"ĉ":204,"Ċ":205,"ċ":206,"Č":207,"č":208,"Ď":209,"ď":210,"Đ":211,"đ":212,"Ē":213,"ē":214,"Ĕ":215,"ĕ":216,"Ė":217,"ė":218,"Ę":219,"ę":220,"Ě":221,"ě":222,"Ĝ":223,"ĝ":224,"Ğ":225,"ğ":226,"Ġ":227,"ġ":228,"Ģ":229,"ģ":230,"Ĥ":231,"ĥ":232,"Ħ":233,"ħ":234,"Ĩ":235,"ĩ":236,"Ī":237,"ī":238,"Ĭ":239,"ĭ":240,"Į":241,"į":242,"İ":243,"ı":244,"Ĳ":245,"ĳ":246,"Ĵ":247,"ĵ":248,"Ķ":249,"ķ":250,"ĸ":251,"Ĺ":252,"ĺ":253,"Ļ":254,"ļ":255,"Ľ":256,"ľ":257,"Ŀ":258,"ŀ":259,"Ł":260,"ł":261,"Ń":262,"er":263,"en":264,"Ġd":265,"an":266,"in":267,"ĠÐ":268,"on":269,"es":270,"Ġt":271,"Ġa":272,"Ð¾":273,"Ġs":274,"ãģ":275,"ar":276,"Ð°":277,"or":278,"Ðµ":279,"Ġp":280,"is":281,"ch":282,"Ð¸":283,"el":284,"Ġl":285,"at":286,"al":287,"it":288,"Ġc":289,"he":290,"Ð½":291,"un":292,"ÑĤ":293,"ÑĢ":294,"re":295,"Ø§":296,"Ġm":297,"Ġde":298,"Ñģ":299,"as":300,"à¸":301,"Ð¾Ð":302,"Ġo":303,"Ġf":304,"ãĤ":305,"Ġw":306,"Ġb":307,"áĥ":308,"à¤":309,"et":310,"ed":311,"ãĥ":312,"il":313,"Ã©":314,"Ġin":315,"ro":316,"Ġ1":317,"Ġthe":318,"à¦":319,"Ġn":320,"ent":321,"à®":322,"ur":323,"Ġv":324,"Ġ×":325,"ĠS":326,"and":327,"ic":328,"Ð»":329,"os":330,"ie":331,"ad":332,"am":333,"om":334,"à°":335,"Ġh":336,"Ġe":337,"ion":338,"us":339,"ĠØ":340,"ol":341,"ÙĦ":342,"te":343,"ĠA":344,"Ġg":345,"ãĢ":346,"Ðº":347,"ĠÙ":348,"ĠC":349,"ĠM":350,"ing":351,"le":352,"Ġ(":353,"Ã¤":354,"Ġun":355,"ra":356,"à´":357,"ĠB":358,"ig":359,"Ġof":360,"im":361,"qu":362,"Ñĥ":363,"Ø±":364,"id":365,"Ġk":366,"ut":367,"Ð²":368,"ĠT":369,"Ġ2":370,"ĠP":371,"Ġ\"":372,"ÙĨ":373,"st":374,"Ġla":375,"em":376,"ĠD":377,"Ġ19":378,"×Ļ":379,"ÙĬ":380,"est":381,"Ñı":382,"Ġen":383,"ia":384,"×ķ":385,"ĠL":386,"Ġand":387,"áĢ":388,"Ð¼":389,"ul":390,"ir":391,"âĢ":392,"ÙĪ":393,"Ġto":394,"ist":395,"iv":396,"ĠØ§":397,"Ã³":398,"Ñĭ":399,"Ġr":400,"Ð´":401,"ĠH":402,"à¯":403,"ĠE":404,"á»":405,"Ã¡":406,"la":407,"ĠI":408,"ĠG":409,"ĠR":410,"ÑģÑĤ":411,"ter":412,"um":413,"Ùħ":414,"ĠÐ¿":415,"ÛĮ":416,"ĠF":417,"×ķ×":418,"Øª":419,"ich":420,"ta":421,"Ġz":422,"Ġal":423,"ec":424,"ĠÐ²":425,"ers":426,"ĠÃ":427,"00":428,"×Ļ×":429,"Ġcon":430,"à¥":431,"Ġre":432,"Ø¯":433,"ĠN":434,"ĠK":435,"ot":436,"ĠÎ":437,"ï¼":438,"eg":439,"Ġqu":440,"Ġdi":441,"ac":442,"Ã¶":443,"ÑĮ":444,"de":445,"ow":446,"ÐµÐ½":447,"ÑĢÐ°":448,"Ġà¤":449,"ãģ®":450,"ĠÑģ":451,"Ñĩ":452,"ĠØ§ÙĦ":453,"ĠW":454,"Ã¼":455,"Ġder":456,"ĠJ":457,"à¹":458,"ag":459,"Ġth":460,"Ùĩ":461,"ak":462,"ãĢģ":463,"ant":464,"Ð¾Ð²":465,"ri":466,"Ġcom":467,"Ġse":468,"Ð·":469,"ä¸":470,"Ġi":471,"ation":472,"à§":473,"ãĢĤ":474,"Ġy":475,"Ġj":476,"ĠÐ¸":477,"Ø³":478,"ÏĦ":479,"à±":480,"io":481,"àµ":482,"ce":483,"Ġel":484,"ĠÐ½":485,"ik":486,"Ġle":487,"Ġpar":488,"Ġst":489,"ud":490,"Î±":491,"Ġan":492,"Î¿":493,"Ñħ":494,"Ġfor":495,"Ġdes":496,"Ð¹":497,"Ġpro":498,"Ġund":499,"Ġdel":500,"Ð¿":501,"ab":502,"à¯į":503,"ĠV":504,"ber":505,"ci":506,"op":507,"od":508,"end":509,"Ø¨":510,"ap":511,"ĠÐ¾":512,"Ġì":513,"ÃŃ":514,"01":515,"Ġon":516,"ang":517,"Ġis":518,"ng":519,"ung":520,"up":521,"ĠO":522,"Ð³":523,"ÑĢÐµ":524,"Ð°Ð½":525,"ÅĤ":526,"Ð¾Ð´":527,"Ġch":528,"Ð±":529,"Ġet":530,"Ø©":531,"Ġpr":532,"ah":533,"ort":534,"ãģ«":535,"ess":536,"Ġwas":537,"Ķ×":538,"Ġà¦":539,"ere":540,"og":541,"ÑģÐº":542,"Î¹":543,"ĠÙħ":544,"ier":545,"ten":546,"Ġdie":547,"all":548,"ug":549,"áº":550,"Ġbe":551,"ver":552,"×¨":553,"ne":554,"ĠÐº":555,"ine":556,"ub":557,"oc":558,"Ġas":559,"ans":560,"Î½":561,"to":562,"ell":563,"ens":564,"ay":565,"av":566,"Âł":567,"Ġer":568,"Ð¾Ð»":569,"Ø¹":570,"ĠU":571,"Ġhe":572,"ÑĢÐ¸":573,"æľ":574,"Ãł":575,"Ð°Ð»":576,"ãģŁ":577,"Ġ201":578,"ill":579,"Ð¾Ð¼":580,"ct":581,"×ľ":582,"ãĤĭ":583,"ach":584,"ge":585,"if":586,"iz":587,"ï¼Į":588,"ord":589,"Ġest":590,"ĠÐ½Ð°":591,"Ġ200":592,"áĥĲ":593,"Îµ":594,"ĠÙĪ":595,"Ã¤r":596,"ãĥ¼":597,"ÑĨ":598,"ãģ¯":599,"Ġà®":600,"ŀ×":601,"äº":602,"Ġ×Ķ×":603,"ĠØ¨":604,"ue":605,"Ġà°":606,"ip":607,"Ġat":608,"ĠÐ³":609,"Ä±":610,"Ġque":611,"our":612,"Ġau":613,"ÐµÐ»":614,"å¹":615,"ĠÐ´":616,"Ġsu":617,"Ð¾ÑĢ":618,"ĠÃ©":619,"ass":620,"ov":621,"ìĿ":622,"áĥĺ":623,"und":624,"Ġtr":625,"ĠIn":626,"ÐµÑĢ":627,"Ġden":628,"ith":629,"ãģ¨":630,"Ñİ":631,"Ġper":632,"Ïģ":633,"th":634,"Ð¾Ð½":635,"à¤¾":636,"ard":637,"ĳ×":638,"ek":639,"Ġ18":640,"åħ":641,"Ð¾Ð³":642,"Ã¥":643,"ok":644,"ÐµÑĤ":645,"Ú©":646,"ij":647,"ãģĹ":648,"ãĤĴ":649,"ĠÃł":650,"Ð¾Ð¹":651,"isch":652,"ĠSt":653,"ente":654,"Ð½Ñĭ":655,").":656,"ien":657,"ff":658,"Ð°ÑĤ":659,"ÙĤ":660,"19":661,"ian":662,"Ã¨":663,"ĠâĢ":664,"Ø§ÙĨ":665,"Ïĥ":666,"Ġes":667,"ly":668,"Ð¶":669,"Ġwh":670,"Ġáĥ":671,"pr":672,"Ġim":673,"au":674,"Ġë":675,"art":676,"ÑĪ":677,"ãģ§":678,"ou":679,"ãģ¦":680,"),":681,"àµį":682,"Ġil":683,"Ø§Ø":684,"Ùģ":685,"ĠÄ":686,"Ġein":687,"az":688,"se":689,"ĠThe":690,"çļ":691,"å¹´":692,"Ġby":693,"ran":694,"áĥĲáĥ":695,"åı":696,"ale":697,"Ð½Ð¸":698,"Ã³n":699,"å¤":700,"ãĥ³":701,"ies":702,"Ġwith":703,"ind":704,"à¦¾":705,"rom":706,"×Ķ":707,"ĠÐ¼":708,"ãģĦ":709,"çļĦ":710,"ts":711,"Ġdo":712,"ãģĮ":713,"tr":714,"ann":715,"Ġ3":716,"ond":717,"eb":718,"Ġav":719,"ĠCh":720,"ong":721,"Ð¸ÑĤ":722,"ĠÐ±":723,"ew":724,"à¸²":725,"ÏĤ":726,"Ùĥ":727,"ĠÑĤ":728,"Î·":729,"Ġdu":730,"Ø§ÙĦ":731,"ä»":732,"Ġor":733,"ib":734,"ate":735,"ze":736,"Ġsp":737,"Ġex":738,"Ã§":739,"ob":740,"me":741,"ÏĢ":742,"åľ":743,"Ïħ":744,"Ã©s":745,"à¦°":746,"ĠÄĳ":747,"Ġvon":748,"\",":749,"sk":750,"ain":751,"ÐµÐ½Ð¸":752,"sch":753,"ĠZ":754,"Ġvan":755,"çĶ":756,"li":757,"ast":758,"Ġar":759,"ai":760,"Ð¾ÑĤ":761,"ĠÃ¤r":762,"à±į":763,"nd":764,"Ð¸Ð½":765,"Äħ":766,"å®":767,"ada":768,"åĲ":769,"ern":770,"ÄĻ":771,"áĥĶ":772,"'s":773,"à¸Ļ":774,"ado":775,"ĠØ§ÙĦØ":776,"ont":777,"ep":778,"ÑĦ":779,"×ª":780,"ck":781,"ãĤĮ":782,"à®¿":783,"Ġda":784,"ĠÂ":785,"Ġals":786,"ment":787,"ĠÙģ":788,"are":789,"ica":790,"rit":791,"à¯ģ":792,"Ã¶r":793,"amp":794,"Ð¸Ð»":795,"Ã£":796,"à§į":797,"uk":798,"à¥į":799,"ĠÏĦ":800,"Ð½Ð¾":801,"que":802,"aj":803,"åĪ":804,"mer":805,"iel":806,"ore":807,"áĥĺáĥ":808,"Ġver":809,"iss":810,"per":811,"eit":812,"à¸£":813,"hr":814,"Ġro":815,"à§ĩ":816,"Ġ199":817,"Ġà´":818,"Ġit":819,"ØĮ":820,"à¤°":821,"ãģª":822,"ĠÐ·":823,"æĸ":824,"ä½":825,"Ø´":826,"Ø§Ø±":827,"Ġthat":828,"Ġ×ĳ×":829,"áĥĶáĥ":830,"Ġles":831,"ost":832,"ĠØ¯":833,"ity":834,"à®ķ":835,"ev":836,"Ð¾Ð³Ð¾":837,"Îº":838,"Ñī":839,"lich":840,"Ø²":841,"orm":842,"Ð°ÑĢ":843,"Ġcomp":844,"à°¿":845,"ĠAl":846,"ato":847,"\".":848,"ais":849,"Ð¾Ñģ":850,"Î»":851,"à¥ĩ":852,"ĠØª":853,"Ġad":854,"ru":855,"ÐµÐ¼":856,"Ġ×©":857,"ect":858,"Ġna":859,"Ġ4":860,"æĹ":861,"à°¾":862,"land":863,"erd":864,"ĠUn":865,"Ġso":866,"cc":867,"pp":868,"ĠÂ«":869,"Ãª":870,"ive":871,"à¦¿":872,"ft":873,"ade":874,"×ķ×ª":875,"Ġem":876,"×Ĳ":877,"ØŃ":878,"Ġpor":879,"ÑģÑĤÐ²":880,"Ġent":881,"Ġfrom":882,"Ġ×ľ":883,"na":884,"ti":885,"Ġuna":886,"Ð°Ð²":887,"du":888,"zy":889,"Ã¼r":890,"ny":891,"tem":892,"×Ļ×Ŀ":893,"Ã£o":894,"Î¯":895,"à®¤":896,"ï¼Ī":897,"The":898,"ï¼ī":899,"Ø¬":900,"ure":901,"ari":902,"íķ":903,"Ã©r":904,"åŃ":905,"igh":906,"res":907,"Ġser":908,"ĠÑĥ":909,"ial":910,"Ġsi":911,"ement":912,"åĽ":913,"Ġlos":914,"Â»":915,"Ð»Ð¸":916,"ĠÐ³Ð¾Ð´":917,"ĠÐ°":918,"Ġam":919,"ãĤ¹":920,"Ġmed":921,"ke":922,"Æ°":923,"à¸²à¸":924,"Ġpl":925,"Ġ5":926,"Ġmit":927,"Ð°Ðº":928,"Ġum":929,"×ł":930,"oh":931,"Ġhis":932,"Ġab":933,"ãĥ«":934,"ina":935,"ult":936,"ÑĨÐ¸":937,"ĠÚ©":938,"cl":939,"å¾":940,"âĢĻ":941,"Ġgr":942,"à¸Ń":943,"ĠØ¹":944,"ione":945,"Ġte":946,"Ġwur":947,"Ġno":948,"Ġdem":949,"ĠSch":950,"ust":951,"we":952,"ÑģÑı":953,"ear":954,"gr":955,"Ġpart":956,"Ġê":957,"ire":958,"Ġ×Ĳ":959,"Î¼":960,"ĠMar":961,"Ġoch":962,"ĠAr":963,"ka":964,"ĠÑĩ":965,"ÙĬØ©":966,"ins":967,"ata":968,"Ġter":969,"à¹Ģ":970,"åį":971,"lo":972,"ÐºÐ°":973,"Ø³Øª":974,"éĢ":975,"Ġ198":976,"ez":977,"ÐµÐ¹":978,"ÑģÐºÐ¸":979,"Ñĳ":980,"ĠÐĴ":981,"Å¼":982,"iÃ³n":983,"ice":984,"ide":985,"à°°":986,"ÃŁ":987,"ys":988,"ĠÑĢÐ°":989,"å°":990,"Ġtra":991,"ĠÐ¡":992,"ÏĮ":993,"Ð¼Ð¸":994,"à¹Ī":995,"ìĹ":996,"ĠØ£":997,"ions":998,"Ø§Øª":999,"uit":1000,"Ã©e":1001,"kt":1002,"Î¿Ïħ":1003,"Ð»Ð°":1004,"ks":1005,"à´¿":1006,"Ġhet":1007,"ame":1008,"Ð½Ð°":1009,"ãģ£":1010,"ĠØ³":1011,"æĪ":1012,"za":1013,"ÐµÐ´":1014,"×ĳ":1015,"è¡":1016,"der":1017,"ĠÙģÙĬ":1018,"æĺ":1019,"à¸ģ":1020,"Ġfin":1021,"à°Ĥ":1022,"ãĥ»":1023,"Ð°Ð½Ð¸":1024,"à¤¿":1025,"Ãº":1026,"Ġra":1027,"ĠÙĦ":1028,"Ġco":1029,"ĠAn":1030,"ico":1031,"à±ģ":1032,"ÑĢÑĥ":1033,"ors":1034,"ated":1035,"Ġcont":1036,"her":1037,"Ġ×ŀ×":1038,"Ġmet":1039,"áĢº":1040,"âĢĮ":1041,"ĠLe":1042,"les":1043,"éģ":1044,"ign":1045,"att":1046,"uv":1047,"ĠÐ¾ÑĤ":1048,"Ġop":1049,"ãĥ¼ãĥ":1050,"ied":1051,"ãĤī":1052,"Ġ197":1053,"×ĵ":1054,"ho":1055,"à®°":1056,"Ġpre":1057,"use":1058,"Ġ6":1059,"ÅĽ":1060,"Ġwar":1061,"Ġeen":1062,"ãģĭ":1063,"Ġare":1064,"ĠY":1065,"unt":1066,"man":1067,"rop":1068,"Ġsom":1069,"int":1070,"Ð¾ÑģÑĤ":1071,"itt":1072,"ger":1073,"ry":1074,"ĠÐ¿ÑĢ":1075,"Î¬":1076,"ĠTh":1077,"Ġson":1078,"ite":1079,"ëĭ":1080,"Ø§Ùħ":1081,"port":1082,"ile":1083,"Ġdas":1084,"à®Ł":1085,"à¦¨":1086,"ett":1087,"amil":1088,"Ġpo":1089,"ss":1090,"×©":1091,"ischen":1092,"âĢĶ":1093,"ĠHe":1094,"ĠdÃ©":1095,"à¸±":1096,"che":1097,"ãģķ":1098,"uss":1099,"ãģĤ":1100,"gen":1101,"æĹ¥":1102,"Ġdans":1103,"Ġres":1104,"Ġist":1105,"Ġauf":1106,"å¸":1107,"ater":1108,"aw":1109,"co":1110,"Ġwurde":1111,"ary":1112,"à¸ĩ":1113,"orn":1114,"omm":1115,"ivers":1116,"ons":1117,"áĥĿ":1118,"à®¾":1119,"ve":1120,"Ġform":1121,"Ñį":1122,"ler":1123,"Ġdur":1124,"à¹Ģà¸":1125,"ida":1126,"ãĤ¤":1127,"ĠDe":1128,"Ġpla":1129,"Ġ×ķ":1130,"Ø·":1131,"Åĳ":1132,"ÙĪØ±":1133,"ren":1134,"Ã¡s":1135,"In":1136,"Ġpara":1137,"×Ĺ":1138,"Ġdis":1139,"ÐµÐ²":1140,"Ġvo":1141,"Ġinter":1142,"ĠÙĨ":1143,"ĠÐŁ":1144,"Ġ196":1145,"Ġwere":1146,"å¤§":1147,"ĠÐļ":1148,"any":1149,"äºº":1150,"à¥Ģ":1151,"den":1152,"Ú¯":1153,"Ġzu":1154,"ĠÐµ":1155,"Ġ194":1156,"Ġcl":1157,"Ġche":1158,"ish":1159,"âĢĵ":1160,"ert":1161,"Æ°á»":1162,"ĠEn":1163,"ä¸Ģ":1164,"itu":1165,"ubl":1166,"sp":1167,"Ã´":1168,"ãĤĬ":1169,"ces":1170,"ãĥª":1171,"Ã©n":1172,"ĠØ§ÙĦÙħ":1173,"à¤¤":1174,"ando":1175,"Ġ-":1176,"Ġreg":1177,"à°²":1178,"Ġ17":1179,"amb":1180,"oll":1181,"ano":1182,"icht":1183,"ÃŃa":1184,"Ġune":1185,"Ġmen":1186,"Ð¾Ð±":1187,"à°¨":1188,"ilm":1189,"Ġne":1190,"ãĤ¢":1191,"ĠâĢĵ":1192,"Ã±":1193,"Ġà¤ķ":1194,"Ã¢":1195,"Ġnel":1196,"ento":1197,"×§":1198,"ä¸Ń":1199,"Ø®":1200,"ãĤĤ":1201,"Ġmar":1202,"one":1203,"emp":1204,"emb":1205,"Ġgen":1206,"ÑĤÐ¸":1207,"ante":1208,"á»Ļ":1209,"Ġsur":1210,"à¤Ĥ":1211,"uch":1212,"ÑĬ":1213,"go":1214,"ara":1215,"ãģĹãģ¦":1216,"min":1217,"Ġaf":1218,"Ġ7":1219,"ÅŁ":1220,"æľĪ":1221,"ĠÑģÑĤ":1222,"ben":1223,"à¤¨":1224,"Ã¤n":1225,"Ġrel":1226,"fer":1227,"ãĥĪ":1228,"ph":1229,"Ġom":1230,"Ð»Ñı":1231,"Ð¾Ðº":1232,"ÙĩØ§":1233,"ãģĵ":1234,"å·":1235,"Ġme":1236,"ÑĩÐµ":1237,"æĿ":1238,"à¹ī":1239,"à®ª":1240,"rat":1241,"×¤":1242,"Øµ":1243,"Ġsch":1244,"à¸µ":1245,"cia":1246,"Ġcons":1247,"oss":1248,"ĠÐ¾Ð±":1249,"Ġfo":1250,"Ġlas":1251,"åĮ":1252,"åĬ":1253,"out":1254,"éĥ":1255,"ĠÐ±Ñĭ":1256,"×ŀ×":1257,"ugh":1258,"Ġob":1259,"Ġpol":1260,"éĸ":1261,"gan":1262,"ĠÙħÙĨ":1263,"ëĭ¤":1264,"ca":1265,"ni":1266,"18":1267,"olog":1268,"ana":1269,"Ġwhich":1270,"Ùī":1271,"ÐµÐº":1272,"Ġall":1273,"ãģĻ":1274,"ition":1275,"ime":1276,"å±":1277,"ä¼":1278,"æŃ":1279,"elle":1280,"æī":1281,"wo":1282,"ise":1283,"ĠÐ·Ð°":1284,"ÐµÐ»ÑĮ":1285,"form":1286,"åº":1287,"ork":1288,"ãĥ©":1289,"Ġaus":1290,"ll":1291,"à®²":1292,"no":1293,"Ð¸Ñģ":1294,"era":1295,"Ġhas":1296,"à¦¯":1297,"200":1298,"Ã³w":1299,"ha":1300,"Ø§Ø¯":1301,"Ġhav":1302,"ĠLa":1303,"urs":1304,"ick":1305,"à®®":1306,"ido":1307,"áĥĿáĥ":1308,"à´¨":1309,"à®©":1310,"Ġ195":1311,"ãģķãĤĮ":1312,"ÙĬÙĨ":1313,"Ġ8":1314,"Ġ15":1315,"ĠfÃ¼r":1316,"ild":1317,"àµģ":1318,"è¨":1319,"à¸¡":1320,"ally":1321,"ĠÐ¸Ð·":1322,"ĠÐ¿ÑĢÐ¸":1323,"atur":1324,"Ã¡n":1325,"Ġcomo":1326,"Ġapp":1327,"eter":1328,"×ĺ":1329,"ual":1330,"Ġdella":1331,"ĠØ´":1332,"ĠEr":1333,"ĠÏĥ":1334,"ÎŃ":1335,"ations":1336,"lt":1337,"Ġhad":1338,"Ġpour":1339,"æķ":1340,"men":1341,"Ġfamil":1342,"éĩ":1343,"pl":1344,"Ġnot":1345,"ational":1346,"Ġí":1347,"ven":1348,"ÙĪÙĨ":1349,"Ġcol":1350,"Ġph":1351,"ìĿ´":1352,"age":1353,"æĶ":1354,"ĠÐ¿Ð¾":1355,"ĠÃ¨":1356,"be":1357,"ÑĢÐµÐ´":1358,"ÐºÐ¸":1359,"ĠSp":1360,"ese":1361,"pt":1362,"çī":1363,"Ġrec":1364,"åľ¨":1365,"Ïī":1366,"igen":1367,"une":1368,"ical":1369,"ui":1370,"ĠFran":1371,"ĠÙĩ":1372,"×ķ×¨":1373,"ĠÐľ":1374,"ĠØ±":1375,"à¤ķ":1376,"ym":1377,"uer":1378,"Ġ16":1379,"ĠÃ¶":1380,"Ġeine":1381,"Ġlo":1382,"ning":1383,"Ġsa":1384,"ux":1385,"Ġsich":1386,"ĠÐ»":1387,"ark":1388,"Î³":1389,"Ġ193":1390,"âĢľ":1391,"iet":1392,"Ð¾Ð·":1393,"ma":1394,"ãģĹãģŁ":1395,"Ġcar":1396,"Ġsc":1397,"ras":1398,"Ġher":1399,"ÑĤÐ¾":1400,"ìĹĲ":1401,"ille":1402,"ĠÎº":1403,"ĠØ¯Ø±":1404,"ista":1405,"Ð½Ð¾Ð¹":1406,"ld":1407,"ĠIt":1408,"Ġ9":1409,"Ġag":1410,"Ġfir":1411,"201":1412,"ĠÎ±":1413,"ãĥĥ":1414,"ÙĪÙĦ":1415,"own":1416,"ros":1417,"ĠÏĢ":1418,"à´¾":1419,"Ġ10":1420,"à´ķ":1421,"ä¹":1422,"els":1423,"çĽ":1424,"ional":1425,"tt":1426,"ĠÐ½Ðµ":1427,"La":1428,"å½":1429,"Ġus":1430,"ĠÐĲ":1431,"yn":1432,"ãĤ¯":1433,"nh":1434,"à¸¥":1435,"old":1436,"Ð¡":1437,"à´¤":1438,"à¦¤":1439,"ĠÑĦ":1440,"æ°":1441,"ĠEl":1442,"ìĿĺ":1443,"erb":1444,"à¤¯":1445,"Ġwerd":1446,"Ġsh":1447,"ict":1448,"ÑĤÐ°":1449,"ëĬ":1450,"Î®":1451,"å¼":1452,"×Ļ×ª":1453,"Ġbes":1454,"20":1455,"ĠâĢŀ":1456,"wa":1457,"Ð³Ð¾":1458,"Ġgro":1459,"enn":1460,"ino":1461,"eh":1462,"Ã©g":1463,"Ġma":1464,"iá»":1465,"eld":1466,"ember":1467,"Ð¾Ð»ÑĮ":1468,"Ġed":1469,"×¡":1470,"Ġ×¢":1471,"ight":1472,"ati":1473,"ction":1474,"ron":1475,"Ġalso":1476,"åĩ":1477,"Ġsec":1478,"ãĢĮ":1479,"ãĢį":1480,"à¸´":1481,"åĭ":1482,"ence":1483,"Ġdan":1484,"ero":1485,"Ġman":1486,"åĽ½":1487,"ego":1488,"à¸Ļà¸":1489,"ja":1490,"ische":1491,"Ð¾Ð¶":1492,"zen":1493,"uf":1494,"ãģ£ãģŁ":1495,"ëĬĶ":1496,"Ã§Ã£o":1497,"Î±Î¹":1498,"let":1499,"ula":1500,"ĠPro":1501,"à¦ķ":1502,"zt":1503,"çµ":1504,"ÛĮÙĨ":1505,"Ġ×Ķ":1506,"ats":1507,"Ġcomm":1508,"ĠÐ³Ð¾Ð´Ð°":1509,"Ġind":1510,"ĠJah":1511,"Ġqui":1512,"×¢":1513,"ige":1514,"ÐµÐ½Ð¸Ñı":1515,"Ð²Ð°":1516,"aciÃ³n":1517,"ĠØ¬":1518,"èĢ":1519,"red":1520,"ance":1521,"erv":1522,"Ð½ÑĭÑħ":1523,"éĻ":1524,"ĠQ":1525,"Ã©t":1526,"ãģĻãĤĭ":1527,"áº¿":1528,"Ã¨re":1529,"omb":1530,"ÑģÑĤÐ¸":1531,"ê³":1532,"æĻ":1533,"ko":1534,"è¦":1535,"alt":1536,"ident":1537,"ĠGr":1538,"à¦²":1539,"onn":1540,"ĠÑį":1541,"ku":1542,"ific":1543,"mi":1544,"ãģĨ":1545,"vel":1546,"Ġ.":1547,"à®±":1548,"ced":1549,"ase":1550,"ĠÃ¼":1551,"000":1552,"åĨ":1553,"Ìģ":1554,"ãģĤãĤĭ":1555,"ome":1556,"ely":1557,"Ð°Ð»ÑĮ":1558,"Ġsz":1559,"ÐĴ":1560,"à®¯":1561,"par":1562,"ÑĢÐ¾Ð²":1563,"Ġpres":1564,"Ġinv":1565,"ĠDie":1566,"Ð°Ð¼":1567,"po":1568,"Ġvers":1569,"mo":1570,"cz":1571,"ĠRe":1572,"å¯":1573,"Ïĩ":1574,"áĥĺáĥ¡":1575,"ath":1576,"ient":1577,"ìĦ":1578,"Ã¤t":1579,"à¸¢":1580,"è¿":1581,"éĽ":1582,"Ġvar":1583,"nie":1584,"ique":1585,"à¤²":1586,"Ð¾Ð¿":1587,"Ġdal":1588,"Î¹Îº":1589,"ose":1590,"ura":1591,"Ãªn":1592,"ĠÐĳ":1593,"Ã²":1594,"ados":1595,"×ŀ":1596,"Ġfirst":1597,"ton":1598,"ĠIl":1599,"à¸§":1600,"çĻ":1601,"ë¡":1602,"Ġcent":1603,"Ġja":1604,"Ġincl":1605,"ama":1606,"Ġ20":1607,"ges":1608,"Ġnh":1609,"Ġ12":1610,"à®³":1611,"Ġac":1612,"à¯Ī":1613,"ãģ¾":1614,"×ĳ×":1615,"af":1616,"Ð½Ð¾Ð³Ð¾":1617,"áº¡":1618,"ki":1619,"yd":1620,"Ġpe":1621,"×Ķ×":1622,"Ġprim":1623,"Ġ×©×ľ":1624,"Ġaut":1625,"amente":1626,"ĠÙĥ":1627,"×Ĵ":1628,"ãĤĪ":1629,"ther":1630,"×Ľ":1631,"ner":1632,"à¥ĭ":1633,"ĠØŃ":1634,"ban":1635,"à¸Ķ":1636,"ciÃ³n":1637,"ãģĦãĤĭ":1638,"ãĤ·":1639,"æľ¬":1640,"ken":1641,"ales":1642,"ali":1643,"Ð¸Ð¼":1644,"10":1645,"Ġbis":1646,"tre":1647,"èĩ":1648,"Ġprov":1649,"ÐµÑĢÐµ":1650,"ĠX":1651,"à´¯":1652,"ei":1653,"Ġsein":1654,"Ġprodu":1655,"ĠáĢ":1656,"ĠPar":1657,"idad":1658,"ora":1659,"ĠÙĬ":1660,"als":1661,"Ġunder":1662,"ÑģÐ¿":1663,"Ġ,":1664,"ãĥ³ãĥ":1665,"rib":1666,"ott":1667,"ĠCo":1668,"Ġmod":1669,"Ġsup":1670,"Ġ(\"":1671,"à°ķ":1672,"ĠDen":1673,"Ð´Ð°":1674,"Ġha":1675,"ĠÛ":1676,"ĠRo":1677,"ç«":1678,"åŃ¦":1679,"ĠÐ²Ñĭ":1680,"uc":1681,"ĠlÃł":1682,"Ïį":1683,"à¤¸":1684,"Ø¶":1685,"uy":1686,"è¡Į":1687,"Ġgo":1688,"ÙĨØ¯":1689,"ç§":1690,"Ġwo":1691,"Ġatt":1692,"ĠÎµ":1693,"pe":1694,"Ø§Ø¨":1695,"Ġloc":1696,"ĠÐĿ":1697,"åľ°":1698,"Ġ×Ľ":1699,"×Ŀ":1700,"ĠOr":1701,"Ġ×ĳ":1702,"è»":1703,"ait":1704,"elt":1705,"ete":1706,"urg":1707,"Ġ14":1708,"tern":1709,"ory":1710,"Ġpers":1711,"ĠÐł":1712,"iem":1713,"Ġut":1714,"bum":1715,"lan":1716,"ori":1717,"áº£":1718,"Ġact":1719,"Ã¹":1720,"uld":1721,"Ġbut":1722,"ÙĪØ¯":1723,"ĠÑĢÐµ":1724,"Ġits":1725,"Ð½ÑĭÐ¹":1726,"ĠÙĤ":1727,"eng":1728,"Ġvol":1729,"ret":1730,"Ġtheir":1731,"åī":1732,"åĩº":1733,"Ġho":1734,"à¸°":1735,"ita":1736,"Ø«":1737,"Ġpos":1738,"à¦¬":1739,"Ġng":1740,"ÑģÐºÐ¾Ð¹":1741,"Ġnach":1742,"ÑĥÑİ":1743,"gy":1744,"Ġ13":1745,"à¦¼":1746,"Ġover":1747,"£áĥ":1748,"olo":1749,"èª":1750,"à®µ":1751,"Ġdist":1752,"Ġ192":1753,"ette":1754,"ques":1755,"Î´":1756,"×ķ×ľ":1757,"Ġass":1758,"ë¡ľ":1759,"ĠvÃł":1760,"Ð¸Ð²":1761,"va":1762,"omp":1763,"ç´":1764,"ĠPr":1765,"Ø§ÛĮ":1766,"urop":1767,"En":1768,"lÃ¤":1769,"æ³":1770,"ohn":1771,"ĠVer":1772,"Ġcan":1773,"lar":1774,"âĢĿ":1775,"ĠTe":1776,"ãĤ¿":1777,"ÐŁ":1778,"Ã¶n":1779,"ÑģÐºÐ¾Ð³Ð¾":1780,"íķĺ":1781,"ĠØ¥":1782,"Ġup":1783,"Ġfr":1784,"à´°":1785,"Øº":1786,"ĠÐĶ":1787,"illa":1788,"å¥":1789,"ĠÏĦÎ·":1790,"ste":1791,"Ġmon":1792,"ĠCar":1793,"Ð°Ñı":1794,"bl":1795,"Ġfilm":1796,"aden":1797,"ÙĬØ±":1798,"æĺ¯":1799,"áĢ¸":1800,"\")":1801,"ular":1802,"Ġmin":1803,"ÙĦÙī":1804,"ungen":1805,"çĤ":1806,"Ġaz":1807,"Ġpop":1808,"æµ":1809,"ĠØ¢":1810,"act":1811,"ĠÎ¼":1812,"Ð¸Ð·":1813,"ĠNew":1814,"ef":1815,"con":1816,"ej":1817,"Ġesp":1818,"æł":1819,"ilit":1820,"ool":1821,"ÐµÑģÑĤ":1822,"ä¸Ĭ":1823,"rie":1824,"à¥¤":1825,"ĠAm":1826,"Le":1827,"Ġkm":1828,"çķ":1829,"cy":1830,"ÄŁ":1831,"II":1832,"Ã¨s":1833,"ÛĴ":1834,"endo":1835,"Ġoff":1836,"á»ĳ":1837,"ings":1838,"ents":1839,"ande":1840,"Ø£":1841,"ĠrÃ©":1842,"ĠÐ¶":1843,"ĠÐĵ":1844,"mente":1845,"ĠSh":1846,"ates":1847,"ìł":1848,"à¸ª":1849,"éĥ¨":1850,"Ð»ÑĮ":1851,"áĢ¬":1852,"Ġwho":1853,"ird":1854,"Ġone":1855,"Ġyear":1856,"ÑģÐ¸":1857,"Ã¡t":1858,"á»§":1859,"17":1860,"kan":1861,"Ġbet":1862,"Ġout":1863,"ÅĦ":1864,"æ²":1865,"ack":1866,"Ġentre":1867,"si":1868,"aut":1869,"able":1870,"Ġyang":1871,"cht":1872,"ÅĤa":1873,"pres":1874,"ores":1875,"gi":1876,"æĽ":1877,"ĠSe":1878,"eral":1879,"Ġcap":1880,"Ġplus":1881,"12":1882,"erk":1883,"à¸ķ":1884,"ĠBr":1885,"ÐºÐ¾Ð²":1886,"åł":1887,"Ġà¤¸":1888,"Ġacc":1889,"ÐµÐ½Ð¸Ðµ":1890,"à°¯":1891,"ock":1892,"ĠÐŀ":1893,"ĠìĿ":1894,"ĠAb":1895,"ua":1896,"åŁ":1897,"its":1898,"ãģĭãĤī":1899,"Ġmus":1900,"ÃŃt":1901,"×ķ×ł":1902,"Ġserv":1903,"å¾Į":1904,"à¸Ĺ":1905,"à¸ļ":1906,"åĴ":1907,"èĪ":1908,"Ġvoor":1909,"Ġauch":1910,"Ġpubl":1911,"amm":1912,"zi":1913,"wn":1914,"ĠAus":1915,"ãģı":1916,"ute":1917,"cip":1918,"ede":1919,"à¹ģ":1920,"ster":1921,"ÑĥÑĢ":1922,"ini":1923,"æľī":1924,"ĠÐ¢":1925,"Ð°Ñģ":1926,"ito":1927,"Ġsie":1928,"Ġbo":1929,"ÏĦÎ±":1930,"Ġsub":1931,"ê°":1932,"ãĥķ":1933,"Ġ×ł":1934,"15":1935,"ãĤģ":1936,"gt":1937,"Ġstud":1938,"ree":1939,"ĠUnivers":1940,"eme":1941,"fl":1942,"Ġbec":1943,"Ġhab":1944,"Ã¥n":1945,"à°¤":1946,"ela":1947,"ãĥŃ":1948,"ãĥ¬":1949,"Ġsta":1950,"à±ĭ":1951,"Ġavec":1952,"ãĤ¸":1953,"ĠÃ¼ber":1954,"ä½ľ":1955,"Ġlig":1956,"ÐµÑģ":1957,"Ġhave":1958,"ĠTr":1959,"iones":1960,"à¤®":1961,"åĴĮ":1962,"uis":1963,"ä»¥":1964,"ace":1965,"æĻĤ":1966,"æĪĲ":1967,"ĠÐ±ÑĭÐ»":1968,"ĠÐ³Ð¾Ð´Ñĥ":1969,"egen":1970,"ios":1971,"ĠØ§ÙĦØ£":1972,"Ġbeg":1973,"ĠÑģÐ²":1974,"tÃ©":1975,"à°®":1976,"Ġant":1977,"Î¸":1978,"ga":1979,"×Ļ×Ķ":1980,"ĠCol":1981,"inn":1982,"ono":1983,"ican":1984,"ìĿĦ":1985,"mp":1986,"aft":1987,"Äĥ":1988,"Ġland":1989,"ĠÙħÛĮ":1990,"ya":1991,"Ġthis":1992,"Ð½ÑĭÐµ":1993,"itÃ©":1994,"Ã¡r":1995,"łáĥ":1996,"app":1997,"Ġ×Ļ":1998,"ĠpÃ¥":1999,"ÑģÐºÐ¸Ð¹":2000,"Ġos":2001,"Ġdec":2002,"uj":2003,"Ġtro":2004,"à¤µ":2005,"Ġbei":2006,"lie":2007,"rist":2008,"ä¿":2009,"Ġplay":2010,"éļ":2011,"Ġdire":2012,"Ġconst":2013,"Ð»Ðµ":2014,"ala":2015,"Ġsk":2016,"à°¦":2017,"Ġtwo":2018,"åĳ":2019,"lig":2020,"ĠÐ¿Ð¾Ð»":2021,"ĠØ¨Ùĩ":2022,"och":2023,"ĠfÃ¶r":2024,"urn":2025,"Ġtrans":2026,"ited":2027,"à¦®":2028,"orth":2029,"ÏĨ":2030,"ĠÏĦÎ¿Ïħ":2031,"Ġseg":2032,"æ´":2033,"icip":2034,"çĶ¨":2035,"ãĤ«":2036,"ena":2037,"Äĩ":2038,"Ġwe":2039,"ë¥":2040,"Ã¥r":2041,"Ġ2010":2042,"çĶŁ":2043,"Ð´Ð¸":2044,"á»į":2045,"Ã©d":2046,"ward":2047,"Ġuit":2048,"ÐµÐ½ÑĤ":2049,"ĠÃ©s":2050,"Ġart":2051,"×Ļ×¨":2052,"ĠInd":2053,"pos":2054,"16":2055,"Ã©es":2056,"åĵ":2057,"rag":2058,"ona":2059,"Ġog":2060,"ìŀ":2061,"ĠAmer":2062,"áĥĶáĥĳ":2063,"ÑħÐ¾Ð´":2064,"Ġfue":2065,"æĢ":2066,"ijn":2067,"Ġbu":2068,"aus":2069,"Ø§Ø³":2070,"éĿ":2071,"ĠSan":2072,"Ġcor":2073,"Ġins":2074,"á»Ļt":2075,"åĲį":2076,"oci":2077,"hen":2078,"ald":2079,"Ø°":2080,"ĠØ®":2081,"ãģį":2082,"Ġ:":2083,"Ã¡l":2084,"Ġou":2085,"Ã¡c":2086,"Ã¬":2087,"ìľ":2088,"Ġev":2089,"éķ":2090,"ĠCon":2091,"ici":2092,"Ġzum":2093,"Æ°á»£":2094,"à´Ł":2095,"Ġbeen":2096,"pro":2097,"Ð¸Ñħ":2098,"esta":2099,"sh":2100,"Ġmo":2101,"ç·":2102,"ĠsiÄĻ":2103,"tain":2104,"sz":2105,"ision":2106,"Ø±ÙĬ":2107,"anu":2108,"ì§":2109,"uz":2110,"ä¼ļ":2111,"áĢ¯":2112,"br":2113,"ole":2114,"ÑıÑĤ":2115,"Ġhat":2116,"ĠÙ¾":2117,"ãģ£ãģ¦":2118,"Ġà¤¹":2119,"Ġnon":2120,"Ġbas":2121,"Ġinc":2122,"ola":2123,"Ġnum":2124,"oth":2125,"Die":2126,"¦¬":2127,"Ġve":2128,"199":2129,"Ġber":2130,"ÑĢÐ°Ð²":2131,"Ġing":2132,"Ã¼n":2133,"ãģĿ":2134,"Ġkh":2135,"ife":2136,"arb":2137,"ĠBe":2138,"áºŃ":2139,"yl":2140,"Ġprin":2141,"ÐµÑĢÐ°":2142,"Ðļ":2143,"ĠPh":2144,"Ġeiner":2145,"æĮ":2146,"Î¹Î±":2147,"Ġ'":2148,"Ġtot":2149,"ĠPol":2150,"ĠÙĪØ§ÙĦ":2151,"ç¾":2152,"ji":2153,"Ġìŀ":2154,"çĲ":2155,"ĠÑĢÐ°Ð·":2156,"iej":2157,"aire":2158,"Al":2159,"ãĤ£":2160,"Ġuma":2161,"ane":2162,"ĠAd":2163,"ĠBer":2164,"ella":2165,"Ġhist":2166,"é«":2167,"El":2168,"æİ":2169,"ister":2170,"ende":2171,"hed":2172,"ĠÐĺ":2173,"ativ":2174,"ÏĦÎ¿":2175,"vo":2176,"Ġdurch":2177,"iste":2178,"lin":2179,"Ġà¤®":2180,"æĭ":2181,"ãģĳ":2182,"×¦":2183,"Ġunter":2184,"zo":2185,"åĲĮ":2186,"ç¬":2187,"Ġmá»Ļt":2188,"à¸«":2189,"å¿":2190,"æ¥":2191,"Ġprof":2192,"Ïİ":2193,"Ð¾ÑĤÐ¾ÑĢ":2194,"ÐµÑĢÐ¸":2195,"berg":2196,"ĠÐ¿Ð¾Ð´":2197,"Ġsin":2198,"Ġ25":2199,"åİ":2200,"14":2201,"ä»£":2202,"bert":2203,"ĠØ§ÙĦØª":2204,"ÑĢÐ°Ð½":2205,"à¦¸":2206,"idae":2207,"Ð°Ð»Ð¸":2208,"lem":2209,"ake":2210,"Ã¸":2211,"çľ":2212,"ä¾":2213,"Ġzur":2214,"atal":2215,"ior":2216,"ĠMe":2217,"åĪĨ":2218,"aste":2219,"Ġzw":2220,"à¤¹":2221,"Ð°Ð´":2222,"chen":2223,"ĠIs":2224,"azione":2225,"à°¡":2226,"æ¸":2227,"sta":2228,"ãģ§ãģĤãĤĭ":2229,"Ġ2011":2230,"eren":2231,"ĠÐ¿ÑĢÐ¾":2232,"ĠÐĽ":2233,"×Ļ×ł":2234,"Ġafter":2235,"sten":2236,"bre":2237,"ÏĦÎ·":2238,"Ø§Ø¦":2239,"áº¥":2240,"Ġint":2241,"ail":2242,"åĲĪ":2243,"Ġpi":2244,"Ð°ÑĤÐ°":2245,"ãģĵãģ¨":2246,"Ã©m":2247,"Ġsel":2248,"11":2249,"ungs":2250,"Ġcá»§":2251,"ÑĩÐ°":2252,"of":2253,"ych":2254,"à§ģ":2255,"Ġcá»§a":2256,"å¸Ĥ":2257,"Ġdos":2258,"Ġà¤ª":2259,"Ġtel":2260,"ami":2261,"aliz":2262,"ĠØ§Ø³Øª":2263,"à¸Ħ":2264,"Ġfran":2265,"Ġmat":2266,"Ĥ¬":2267,"ilom":2268,"Ã¢n":2269,"×ķ×Ł":2270,"iden":2271,"Ġwerden":2272,"ÐµÐ·":2273,"ima":2274,"Ġgi":2275,"por":2276,"Ð¸Ðº":2277,"ium":2278,"Ġpod":2279,"ĠÏĦÎ¿":2280,"êµ":2281,"Â°":2282,"Ġtemp":2283,"ider":2284,"ÑĥÑĤ":2285,"çİ":2286,"ç¤":2287,"ĠØ§Ø²":2288,"Ġera":2289,"kten":2290,"ÑĨÐ¸Ð¸":2291,"íķľ":2292,"ÑģÑĤÑĮ":2293,"Ġmag":2294,"ä¸»":2295,"Ġpass":2296,"Ð¶Ðµ":2297,"..":2298,"Ġà®ª":2299,"ets":2300,"Ġorgan":2301,"utsch":2302,"ÐĲ":2303,"ĠQu":2304,"osta":2305,"åħ¬":2306,"áĢĦ":2307,"ĠÎºÎ±Î¹":2308,"ÑĥÐ´":2309,"Ġsecond":2310,"orld":2311,"Ġcre":2312,"ĠÑĢ":2313,"yr":2314,"ÎµÏģ":2315,"Ġdef":2316,"Ġsont":2317,"elij":2318,"Ġke":2319,"Ġmais":2320,"Ġ×ŀ":2321,"å»":2322,"yt":2323,"àµĨ":2324,"ãĤ°":2325,"ãģĬ":2326,"Ġbef":2327,"ays":2328,"13":2329,"Ġother":2330,"ants":2331,"ars":2332,"raf":2333,"Ä±n":2334,"ix":2335,"Ġà¦¸":2336,"Ġthey":2337,"iÃ³":2338,"ĠØ§ÙĦØ¹":2339,"ika":2340,"ÙĪÙħ":2341,"org":2342,"ìĭ":2343,"Ġnew":2344,"vers":2345,"Il":2346,"Ġcamp":2347,"ĠáĥĽ":2348,"owa":2349,"æĬ":2350,"itz":2351,"ele":2352,"Ġdiv":2353,"æĸ¹":2354,".\"":2355,"áĢ±":2356,"Æ°á»£c":2357,"åĢ":2358,"ĠmÃ¡s":2359,"Ġdoor":2360,"Ġod":2361,"ç¬¬":2362,"Ġpas":2363,"ĠReg":2364,"Ã¤ng":2365,"vern":2366,"Ġparte":2367,"Ð½Ð¾Ð²":2368,"kre":2369,"eder":2370,"×Ļ×ľ":2371,"Ġcas":2372,"pen":2373,"Ġ2012":2374,"Ø¨Ø±":2375,"à¥ģ":2376,"St":2377,"ÛĮÚ©":2378,"Ð¾Ñĩ":2379,"je":2380,"áĢŃ":2381,"à´Ĥ":2382,"Ġ2008":2383,"Ġ2009":2384,"cer":2385,"Ð¸Ð´":2386,"è³":2387,"esch":2388,"Ġ190":2389,"à¹Į":2390,"iert":2391,"ioni":2392,"Ġdet":2393,"ĠGen":2394,"igin":2395,"áĥ£áĥ":2396,"ĠBo":2397,"×ķ×ĵ":2398,"Ġbr":2399,"enden":2400,"fter":2401,"Î¯Î±":2402,"Ġleg":2403,"ank":2404,"Ð°Ð·":2405,"Ã¦":2406,"arr":2407,"Ġsind":2408,"ÑīÐµ":2409,"alis":2410,"Ġu":2411,"ÑĥÐ±":2412,"Ġdell":2413,"omin":2414,"Ûģ":2415,"oria":2416,"vol":2417,"Ġ30":2418,"Ã©c":2419,"Ġprogr":2420,"ba":2421,"ëı":2422,"åŃĲ":2423,"ìĿĢ":2424,"ãĤĦ":2425,"å£":2426,"ÑĢÐµÐ¼":2427,"ĠÄĳÆ°á»£c":2428,"son":2429,"ira":2430,"Ġinto":2431,"ĠÑħ":2432,"sen":2433,"áº§":2434,"Ġcr":2435,"ÙĦÙĬ":2436,"ê³ł":2437,"Ġdiff":2438,"×Ł":2439,"lam":2440,"å®¶":2441,"Ġwork":2442,"iam":2443,"Ġ11":2444,"çĤº":2445,"Ð°ÑĤÑĮ":2446,"Ġwy":2447,"Ð¸Ñı":2448,"ili":2449,"ĠÐºÐ¾Ð¼":2450,"à¦Ł":2451,"entr":2452,"Ġprincip":2453,"Ġbel":2454,"ensch":2455,"ĠGe":2456,"Ùĭ":2457,"à¹ĥ":2458,"km":2459,"à°µ":2460,"äºĭ":2461,"ĠEurop":2462,"Ġtill":2463,"str":2464,"æ±":2465,"Ġ2013":2466,"ĠÐºÐ¾ÑĤÐ¾ÑĢ":2467,"Ġinclud":2468,"Ġcome":2469,"ÎµÎ¹":2470,"fol":2471,"ics":2472,"Ġdei":2473,"ns":2474,"Ġ×Ķ×ŀ×":2475,"Ġthá»":2476,"Ġ2007":2477,"ĠâĢĶ":2478,"Ġpu":2479,"Ġesc":2480,"urch":2481,"Ġ2014":2482,"uvud":2483,"Ġtime":2484,"ä¸ĭ":2485,"Ġmer":2486,"ĠJahr":2487,"arg":2488,"adas":2489,"ãĤ³":2490,"Ġà¦ķ":2491,"ãģ¤":2492,"Ð¸Ð¹":2493,"ëħ":2494,"¸°":2495,"ìĦľ":2496,"Ġcu":2497,"by":2498,"Ġ189":2499,"ingen":2500,"Ġspec":2501,"ĠÎ¿":2502,"iá»ĩ":2503,"ãģ¨ãģĹãģ¦":2504,"Ġà¦ª":2505,"Ã¤l":2506,"Ġfe":2507,"ìķ":2508,"Ġsus":2509,"Î±Î½":2510,"ley":2511,"Ġpolit":2512,"Ġih":2513,"ball":2514,"Ġunt":2515,"ĠÐ¿Ð¾Ñģ":2516,"é«ĺ":2517,"Ġlist":2518,"ØªØ±":2519,"med":2520,"Ġvá»":2521,"ĠII":2522,"Ġ0":2523,"Ġfl":2524,"Ð¸Ñĩ":2525,"ÑĥÑĩ":2526,"éł":2527,"aint":2528,"atz":2529,"Ðł":2530,"ãĤª":2531,"Ġsua":2532,"å§":2533,"Ġ×¤":2534,"èĢħ":2535,"hal":2536,"air":2537,"ove":2538,"esso":2539,"ario":2540,"ãĥĨ":2541,"iver":2542,"ãĥŀ":2543,"Ġsam":2544,"áĢĢ":2545,"Ð»ÐµÐ´":2546,"ĠÐ¸Ð¼":2547,"è©":2548,"Ø§Ùĩ":2549,"reg":2550,"Ð¶Ð´":2551,"ãģķãĤĮãģŁ":2552,"à¸²à¸£":2553,"Ġret":2554,"ĠMa":2555,"Ġeinem":2556,"ani":2557,"Ð½Ðµ":2558,"Ġword":2559,"ÐµÑĤÑģÑı":2560,"ene":2561,"Ġalbum":2562,"ash":2563,"Ġkn":2564,"ĠÑı":2565,"Ġdr":2566,"Â».":2567,"Ð°Ð½Ð¸Ñı":2568,"ÅĤo":2569,"ãĥī":2570,"ames":2571,"Ġdies":2572,"An":2573,"50":2574,"Äĥm":2575,"Ġ2006":2576,"ĠAs":2577,"ones":2578,"èĩª":2579,"hip":2580,"geb":2581,"Ġà®ķ":2582,"ãģĦãģŁ":2583,"uen":2584,"à¸Ľ":2585,"ç¨":2586,"Ġdep":2587,"Ġbest":2588,"ç©":2589,"Ġfu":2590,"orte":2591,"cial":2592,"Ġà°ª":2593,"Ð°Ð¹":2594,"Ġ2015":2595,"à°Ł":2596,"Ð¾Ðµ":2597,"ãģ©":2598,"Ġrem":2599,"Ġend":2600,"Ġ×Ĺ":2601,"oro":2602,"arm":2603,"à¸Ī":2604,"ĠÎ´":2605,"Ġalla":2606,"owie":2607,"ĠHer":2608,"Ã¼ck":2609,"ason":2610,"ument":2611,"Ġzijn":2612,"Ø§Ø¹":2613,"ule":2614,"æ¯":2615,"Ã¼hr":2616,"Ġval":2617,"ãģ§ãģ¯":2618,"owe":2619,"ĠIm":2620,"èµ":2621,"Ø¯Ùĩ":2622,"lichen":2623,"istr":2624,"uli":2625,"ĮĢ":2626,"çŃ":2627,"Ġtrong":2628,"ters":2629,"Ð»ÐµÐ½":2630,"ÅĽci":2631,"Ġnicht":2632,"Ġvor":2633,"aux":2634,"Ġhim":2635,"ĠJohn":2636,"Ãłi":2637,"adt":2638,"æŀ":2639,"ues":2640,"Ġshe":2641,"à¥Ī":2642,"ĠBar":2643,"Ġhuvud":2644,"Ġge":2645,"å®ļ":2646,"bo":2647,"ÑİÑĤ":2648,"Ġann":2649,"æ¨":2650,"Ð½ÑĭÐ¼":2651,"ĠCl":2652,"Ã³r":2653,"ãĤ¦":2654,"Ġà®®":2655,"ĠÐ¿ÑĢÐµÐ´":2656,"åł´":2657,"Ð½Ð°Ñı":2658,"ÛĮØ±":2659,"Ġìł":2660,"fr":2661,"jen":2662,"Æ¡":2663,"ador":2664,"jo":2665,"ÑĢÐ¾":2666,"à¤ª":2667,"Ø§Ùģ":2668,"à®ļ":2669,"ebru":2670,"ìĬ":2671,"Ġtit":2672,"inc":2673,"antes":2674,"Ġord":2675,"anz":2676,"outh":2677,"ekt":2678,"Ġ×§":2679,"à´²":2680,"ĠEng":2681,"à¤¦":2682,"áĥĲáĥľ":2683,"Ġhij":2684,"ystem":2685,"×ĸ":2686,"Ġsign":2687,"ĠFl":2688,"ç¶":2689,"len":2690,"à¸Ńà¸ĩ":2691,"net":2692,"ĠØ¨Ø±":2693,"Ð¸Ð½Ð°":2694,"Ġnov":2695,"ä¸į":2696,"ç»":2697,"çı":2698,"ãģ«ãģ¯":2699,"xt":2700,"Ġ24":2701,"Ð½Ñı":2702,"ĠÑĤÐ°Ðº":2703,"è£":2704,"à¦¦":2705,"Ã©l":2706,"Ġmemb":2707,"aten":2708,"Ø§Ø²":2709,"Ġligger":2710,"esse":2711,"ĠSte":2712,"ĠPa":2713,"lev":2714,"ê°Ģ":2715,"Ġmot":2716,"Ð¸Ðµ":2717,"ÏģÎ±":2718,"à°Ĺ":2719,"ution":2720,"Ð¸ÑĩÐµ":2721,"Ġà¦¬":2722,"à°¸":2723,"åīį":2724,"éģĵ":2725,"ÑģÑĤÐ²ÐµÐ½":2726,"ç«ĭ":2727,"ative":2728,"Ø§ÙĤ":2729,"Ã¤nd":2730,"à¸·":2731,"äºĨ":2732,"à±ĩ":2733,"198":2734,"ious":2735,"Īëĭ¤":2736,"ÏĢÎ¿":2737,"De":2738,"30":2739,"Ð½Ð¾Ð¼":2740,"×ķ×Ĳ":2741,"ury":2742,"Ġsucc":2743,"Ġprop":2744,"ker":2745,"rol":2746,"Ch":2747,"Ġmaj":2748,"Ġmore":2749,"Ġtá»":2750,"ĠÑĨ":2751,"Ġhá»į":2752,"burg":2753,"Ã¶rd":2754,"Ġmay":2755,"èĥ":2756,"Ã¤h":2757,"ãĥ¡":2758,"æ³ķ":2759,"Ġoper":2760,"è¥":2761,"ĠMon":2762,"ilometer":2763,"Ġfoi":2764,"Ġ×Ĳ×ª":2765,"ãĥĹ":2766,"ias":2767,"áģ":2768,"Ġlong":2769,"Ġ2016":2770,"ital":2771,"ĠÐ¿ÑĢÐµ":2772,"èŃ":2773,"Ġà°ķ":2774,"ĠEst":2775,"à´±":2776,"ĠEin":2777,"Ġze":2778,"Ġce":2779,"ania":2780,"åħ¥":2781,"ako":2782,"Ġdat":2783,"ĠÃ¥":2784,"Ġroku":2785,"ÏīÎ½":2786,"Ġol":2787,"Ġwhen":2788,"way":2789,"ÙĪØ³":2790,"Ġbl":2791,"Un":2792,"Ġmost":2793,"ĠGer":2794,"aren":2795,"ìľ¼":2796,"ĠÄĳá»":2797,"ãĤı":2798,"iti":2799,"ude":2800,"Ġwird":2801,"è²":2802,"ange":2803,"ĠÑĪ":2804,"ĠAnd":2805,"ãĥĲ":2806,"ä½į":2807,"arl":2808,"à´ª":2809,"ĠcÃ³":2810,"ps":2811,"ëĵ":2812,"uh":2813,"æīĢ":2814,"Ð¼Ð°":2815,"omen":2816,"Ġwould":2817,"ased":2818,"sel":2819,"éĺ":2820,"ike":2821,"ÏģÎ¿":2822,"lex":2823,"Ġdon":2824,"Ã´ng":2825,"à¹Ħ":2826,"à¸¸":2827,"Ġ&":2828,"tag":2829,"ĠÐ¤":2830,"ãģĪ":2831,"sc":2832,"inen":2833,"Ġaux":2834,"Ġcer":2835,"leg":2836,"ĠHo":2837,"à¸ŀ":2838,"áĥł":2839,"Ø§Ø¡":2840,"à±Ģ":2841,"ĠFor":2842,"ty":2843,"Ð¸Ð¸":2844,"nen":2845,"Ġ188":2846,"å¤ļ":2847,"Ar":2848,"Ġyears":2849,"éķ·":2850,"Ġten":2851,"Ġjed":2852,"Ġsim":2853,"ĠaÃ±":2854,"ean":2855,"ĠWest":2856,"ĠÑģÐ¾ÑģÑĤ":2857,"èģ":2858,"ĠAug":2859,"Ġgroup":2860,"ãĥ¥":2861,"æĸ°":2862,"Ġcontin":2863,"ism":2864,"ÑĢÑı":2865,"ĠUS":2866,"ÙĦÙħ":2867,"anto":2868,"ĠÑĩÑĤÐ¾":2869,"Ð¾Ð½Ð°":2870,"ç¥":2871,"Ġ2000":2872,"iment":2873,"Ġsitu":2874,"ines":2875,"ĠDer":2876,"Ġmeg":2877,"ried":2878,"Ã¼l":2879,"ä»ĸ":2880,"Ġenc":2881,"Ġlater":2882,"Ġpublic":2883,"ator":2884,"ony":2885,"Æ°á»Ŀ":2886,"Ġlie":2887,"ĠLand":2888,"ÑĭÑħ":2889,"Ġport":2890,"Ġsing":2891,"etz":2892,"gel":2893,"Ġnord":2894,"éĸĵ":2895,"çŁ":2896,"Ġband":2897,"Ġ×Ĵ":2898,"áĥķ":2899,"Ġjo":2900,"inde":2901,"Ġ×¨":2902,"Ð°Ð»Ð°":2903,"ski":2904,"imo":2905,"Ġgra":2906,"tember":2907,"ÚĨ":2908,"Ã¡g":2909,"ĠNov":2910,"ense":2911,"é¡":2912,"oph":2913,"ÐĿ":2914,"osa":2915,"Ġkon":2916,"Ġwie":2917,"è®":2918,"quip":2919,"ĠnÄĥm":2920,"Ù¾":2921,"è§":2922,"Ġorigin":2923,"à°ª":2924,"ĠAng":2925,"ãĥĩ":2926,"ë¦¬":2927,"Ð³Ð°":2928,"æľĢ":2929,"Ġperson":2930,"Ġlat":2931,"ÐµÑĢÐ²":2932,"iter":2933,"Ġaan":2934,"iva":2935,"à®ķà®³":2936,"ì§Ģ":2937,"Ġnie":2938,"å±±":2939,"Ġsol":2940,"Ãły":2941,"Ġresp":2942,"nia":2943,"asi":2944,"ãĤµ":2945,"Ġsig":2946,"à´®":2947,"Ġexp":2948,"vent":2949,"itÃł":2950,"ÐºÑĤ":2951,"æ¬":2952,"zie":2953,"ket":2954,"éĸĭ":2955,"iáº¿":2956,"ĠOn":2957,"ëħĦ":2958,"Ð¾Ñı":2959,"ĠÐ¾Ñģ":2960,"Ġwhere":2961,"ë¥¼":2962,"Ġot":2963,"Ġpel":2964,"Ġmill":2965,"Ø±Ø¨":2966,"Ġeinen":2967,"ils":2968,"Ġstr":2969,"Ġconc":2970,"à¸µà¹Ī":2971,"Ġdesc":2972,"Ġvis":2973,"Ã¶l":2974,"aria":2975,"rough":2976,"è¥¿":2977,"gli":2978,"ween":2979,"ished":2980,"×ķ×¡":2981,"Ġett":2982,"iro":2983,"è¾":2984,"Ġclass":2985,"æ°ĳ":2986,"ĠØ¹ÙĦÙī":2987,"Ġty":2988,"æ©":2989,"Ãµ":2990,"present":2991,"sn":2992,"ĠÃ©tÃ©":2993,"Ġtak":2994,"à´µ":2995,"icos":2996,"tober":2997,"Ġpow":2998,"Ġx":2999,"ãģ«ãĤĪ":3000,"vÃ¤":3001,"çĻº":3002,"aar":3003,"Ġtrad":3004,"çī©":3005,"uta":3006,"Ġê°":3007,"ÑĭÐ¹":3008,"Ġagain":3009,"Ðľ":3010,"à®¨":3011,"è·":3012,"Ġformula":3013,"ãĥ£":3014,"ĠÃ¶ver":3015,"reich":3016,"ĠÚ©Ùĩ":3017,"Ġ×¢×ľ":3018,"Ġ2005":3019,"Ġbir":3020,"stra":3021,"ĠMo":3022,"Ø¸":3023,"ĠÐºÐ¾Ð½":3024,"áĥļ":3025,"ÑĥÐ¿":3026,"ÐºÐ¾":3027,"ĠGu":3028,"ades":3029,"ivo":3030,"à¹ĩ":3031,"Ġ22":3032,"rio":3033,"rem":3034,"Ã³l":3035,"ÑĢÐ°Ð·":3036,"ÅĤy":3037,"bar":3038,"ãĥĭ":3039,"Ġonly":3040,"åĭķ":3041,"ÑĭÐµ":3042,"ĠCan":3043,"zione":3044,"Ġinst":3045,"Ġses":3046,"ament":3047,"æĶ¿":3048,"×Ļ×§":3049,"da":3050,"Ġintern":3051,"Ð°Ð½Ð´":3052,"Ġdeux":3053,"ç½":3054,"orr":3055,"ãģ¦ãģĦãĤĭ":3056,"áº¡i":3057,"ä¸ĸ":3058,"Î²":3059,"ÙĬØ¯":3060,"Ġposs":3061,"ĠMan":3062,"ĠPer":3063,"ãĤ¨":3064,"uni":3065,"ÑģÑĤÐ²Ð°":3066,"ollow":3067,"ĠìĿ´":3068,"æı":3069,"ull":3070,"ĠkÃ¶":3071,"Ġteam":3072,"æĸĩ":3073,"arter":3074,"Ġ2004":3075,"opp":3076,"ours":3077,"Ġ187":3078,"Ġpra":3079,"do":3080,"ĠÅ":3081,"Ġduring":3082,"pril":3083,"æĦ":3084,"ahr":3085,"oma":3086,"ĠAt":3087,"ĠUniversity":3088,"ĠMit":3089,"ÑģÐºÐ¸Ñħ":3090,"Ġà¦ı":3091,"uto":3092,"ble":3093,"iene":3094,"Ġeff":3095,"ĠingÃ¥r":3096,"æĪ¦":3097,"áĢĻ":3098,"ÙħØ§":3099,"Ð¾ÑĢÐ¸":3100,"Ġhar":3101,"Ðŀ":3102,"ĠIng":3103,"ĠTra":3104,"Ġoder":3105,"åľĭ":3106,"Ä±r":3107,"Ġdue":3108,"ĠÏĦÎ·ÏĤ":3109,"aron":3110,"Ġ×¡":3111,"éĢļ":3112,"iÃªn":3113,"Ġ186":3114,"ĠÑģÐ¾":3115,"Ġcz":3116,"Ġáĥ¡":3117,"ĠÚ¯":3118,"Ġwurden":3119,"ival":3120,"ĠMus":3121,"ÙĩØ§ÛĮ":3122,"ĠMin":3123,"Ġpa":3124,"Ġimport":3125,"alia":3126,"Ġpun":3127,"ilt":3128,"×ķ×¤":3129,"isk":3130,"Ġont":3131,"à®£":3132,"áĥ¡":3133,"Ġclub":3134,"Ġmov":3135,"ĠUnited":3136,"Â»,":3137,"à¸¹":3138,"ield":3139,"Ġáĥĵ":3140,"à¤Ĺ":3141,"ission":3142,"Ġrep":3143,"åĮĸ":3144,"chn":3145,"ãĢİ":3146,"iano":3147,"ãĢı":3148,"ous":3149,"Ġ2017":3150,"à¹Ĥ":3151,"ä¸º":3152,"ible":3153,"èī":3154,"Ġnella":3155,"Ġà®ĩ":3156,"197":3157,"entes":3158,"ĠNe":3159,"ãĤīãĤĮ":3160,"ello":3161,"imm":3162,"ĠÐºÐ°Ðº":3163,"Ġconstru":3164,"ãĥł":3165,"Ľi":3166,"æĿ±":3167,"ìĽ":3168,"è¡¨":3169,"Ġeta":3170,"åĮĹ":3171,"Ġ×Ķ×Ĳ":3172,"Ð¸ÑĤÐµÐ»ÑĮ":3173,"à§Ģ":3174,"à§ĭ":3175,"Ġ23":3176,"ĠYork":3177,"ersch":3178,"ãģł":3179,"akan":3180,"Ġbetween":3181,"Ġgew":3182,"ĠÐ´Ð¾":3183,"áĢŀ":3184,"Ġthere":3185,"Ð±Ð¾ÑĤ":3186,"ìĸ":3187,"Ġmas":3188,"Î¼Î±":3189,"get":3190,"ieder":3191,"Ġë°":3192,"Ä±nd":3193,"ĠdÃ©c":3194,"kl":3195,"ĠPl":3196,"ierte":3197,"Ø±Ø¯":3198,"æ¼":3199,"este":3200,"Ġà°¸":3201,"Ġmeter":3202,"áĢĲ":3203,"æĹ¥æľ¬":3204,"áĢŃáĢ¯":3205,"inter":3206,"ĠÐ¾Ð´":3207,"Ã©p":3208,"×ĳ×¨":3209,"ature":3210,"ures":3211,"anc":3212,"ìļ":3213,"Ġhigh":3214,"æµ·":3215,"Ġap":3216,"idos":3217,"Ġdeb":3218,"ÑĳÐ½":3219,"esto":3220,"Ġarr":3221,"åħ¨":3222,"ÙĬÙĦ":3223,"ii":3224,"ĠÙħØ¹":3225,"á»Ł":3226,"Ġtamb":3227,"ating":3228,"Ġfound":3229,"Ãµes":3230,"æĸ¼":3231,"Ġmade":3232,"çī¹":3233,"ĠNach":3234,"Ġ×ª":3235,"amento":3236,"ãģ¨ãģª":3237,"Ġimp":3238,"ìĬ¤":3239,"ĠGre":3240,"Ġ()":3241,"ãĤĵ":3242,"ÑĥÑģ":3243,"åįĹ":3244,"Ġà®¤":3245,"ĠÑģÐ¿":3246,"ãģĿãģ®":3247,"Ġste":3248,"æķĻ":3249,"Ġseb":3250,"liche":3251,"Th":3252,"ough":3253,"ĠØ²":3254,"ãĤŃ":3255,"Ġ21":3256,"Ġrunt":3257,"×Ļ×Ĳ":3258,"áĢ¼":3259,"alah":3260,"ÑĤÐµ":3261,"çĪ":3262,"çı¾":3263,"enne":3264,"ismo":3265,"æ¥Ń":3266,"à¦ª":3267,"Ġcomme":3268,"ĠGro":3269,"Ð¾ÑĢÐ¾Ð´":3270,"åº¦":3271,"Ø¦":3272,"ĠÐ²Ð¾":3273,"ĠÐ£":3274,"ĠÎ¼Îµ":3275,"à°¿.":3276,"ĠSep":3277,"auf":3278,"ĠEd":3279,"ìĺ":3280,"Ġsuch":3281,"å¹³":3282,"Ġnam":3283,"ĠÐ´Ð»Ñı":3284,"ĠBrit":3285,"Ġthen":3286,"áĢĶ":3287,"iew":3288,"Ġsob":3289,"erst":3290,"ague":3291,"æīĭ":3292,"å°ı":3293,"à¸£à¸°":3294,"ĠNational":3295,"ÑĢÑĭ":3296,"ĠEm":3297,"×ļ":3298,"Ġthree":3299,"±Û":3300,"åĬł":3301,"ëĤ":3302,"Ġused":3303,"ĠGo":3304,"ender":3305,"Ã¤hr":3306,"Ġsem":3307,"Ġdelle":3308,"è¯":3309,"Ġocc":3310,"Ð³ÑĢÐ°":3311,"iego":3312,"Ġ26":3313,"Ð»Ð°Ð²":3314,"Å±":3315,"isi":3316,"met":3317,"ãĥĸ":3318,"Ø±ÙĪ":3319,"Ġprz":3320,"iger":3321,"ĠComm":3322,"Úº":3323,"ÑĥÐ½":3324,"ãĤº":3325,"ÐĶ":3326,"æĢ§":3327,"bor":3328,"Ġthan":3329,"ires":3330,"atu":3331,"Ð°Ð½Ð¸Ðµ":3332,"ÐµÐ½Ð°":3333,"Ġdev":3334,"ÑĤÐ¾ÑĢ":3335,"Ð½Ð¾Ðµ":3336,"åĨħ":3337,"ĠEx":3338,"ç¤¾":3339,"è»į":3340,"icas":3341,"ling":3342,"Ġìķ":3343,"epubl":3344,"las":3345,"ĠThis":3346,"Ø§Ø³Øª":3347,"Ġ28":3348,"irc":3349,"akt":3350,"ĠMal":3351,"Ġcommun":3352,"Ġdisp":3353,"rich":3354,"ius":3355,"ê¸°":3356,"×Ļ×Ł":3357,"ÑģÑĤÐ²Ð¾":3358,"Ġlang":3359,"ahl":3360,"ĠÐ¿ÐµÑĢÐµ":3361,"Ġabout":3362,"ye":3363,"Ġdass":3364,"Ġfut":3365,"ex":3366,"iÄĻ":3367,"ĠSc":3368,"Ġliv":3369,"ĠÂ»":3370,"éŁ":3371,"ĠCom":3372,"ĠÐµÐ³Ð¾":3373,"ink":3374,"Ġschool":3375,"uro":3376,"Ġnomb":3377,"cept":3378,"ê²":3379,"Ġ100":3380,"Ã¼nd":3381,"ih":3382,"æľŁ":3383,"Ġà®µ":3384,"Ġsuo":3385,"à¥ĩà¤Ĥ":3386,"Ġfinal":3387,"Ġfol":3388,"Ġset":3389,"Ġà¤µ":3390,"Ġthem":3391,"Ã¶g":3392,"aan":3393,"isten":3394,"Ġegy":3395,"Ġ27":3396,"ĠÑģÐµ":3397,"ederb":3398,"à´£":3399,"alif":3400,"uth":3401,"Ġconf":3402,"à¤Ł":3403,"ĠAugust":3404,"Ġtre":3405,"Î½Î±":3406,"ederbÃ¶rd":3407,"Ġrad":3408,"aÃ±":3409,"ĠAustr":3410,"à¸Ĥ":3411,"ĠMed":3412,"ãĥģ":3413,"ĠvÃ¤":3414,"Ð½Ð¸Ðº":3415,"iana":3416,"Ġrecord":3417,"Ġear":3418,"ÏĥÎ·":3419,"elm":3420,"val":3421,"ather":3422,"à¸Ĭ":3423,"Ġmy":3424,"ëıĦ":3425,"ois":3426,"ĠØ§ÙĦØ³":3427,"stell":3428,"ãģªãģ©":3429,"lect":3430,"ession":3431,"Ġà¤ľ":3432,"Ð¸Ð»ÑĮ":3433,"ĠAmerican":3434,"×Ļ×ĵ":3435,"unc":3436,"Ġgrup":3437,"Ġpopul":3438,"Ð·Ð°":3439,"çĲĨ":3440,"Ġfinns":3441,"çĽ®":3442,"Ġvu":3443,"idade":3444,"ÑĥÐ¶":3445,"lag":3446,"Ġbecame":3447,"unk":3448,"25":3449,"err":3450,"ÙĦÛĮ":3451,"Ð·Ñĭ":3452,"ĠslÃ¤":3453,"Â²":3454,"ÑģÐµ":3455,"wer":3456,"ĠpiÃ¹":3457,"Ġgeb":3458,"ĠWill":3459,"ave":3460,"esp":3461,"ĠØ§ÙĦØŃ":3462,"Ø§ØŃ":3463,"bol":3464,"Ġbar":3465,"icz":3466,"rei":3467,"uan":3468,"ischer":3469,"ject":3470,"Ġmain":3471,"áĥĶáĥļ":3472,"ĠÃº":3473,"Ġpresent":3474,"Ġsome":3475,"ãĥĬ":3476,"Î¿Ïį":3477,"Ġmilit":3478,"æĸ¯":3479,"ĠÐ¥":3480,"ĠSta":3481,"ÏĢÏĮ":3482,"Ø¹Ø¯":3483,"ĠÃ¡":3484,"orf":3485,"Ġrele":3486,"Der":3487,"ĠÐ¸Ð½":3488,"ÃŃn":3489,"Ġutil":3490,"kat":3491,"Ġmu":3492,"Ð¾ÑĢÐ°":3493,"Ġà®ħ":3494,"ä»»":3495,"Ġ%":3496,"ĠWar":3497,"à´³":3498,"ĠMay":3499,"eth":3500,"ä¸ī":3501,"Ġdest":3502,"Ġprze":3503,"ĠShe":3504,"ĠÙĦÙĦ":3505,"Ã«":3506,"stand":3507,"Ð³Ð¸":3508,"ĠBro":3509,"Ġaff":3510,"Ġinf":3511,"Ġihr":3512,"Ã¶s":3513,"cher":3514,"ĠWe":3515,"uper":3516,"Ã®":3517,"Ġhan":3518,"Ġfour":3519,"ÑģÐºÐ¾Ð¼":3520,"nych":3521,"ĠÐ´Ðµ":3522,"Ġlar":3523,"Ġdirect":3524,"ĠØ£ÙĨ":3525,"196":3526,"Ġà¤ħ":3527,"Ġsen":3528,"Ġknown":3529,"ÙħÙĦ":3530,"Ġ1990":3531,"imi":3532,"Ġli":3533,"Ġfollow":3534,"×Ļ×ķ×ª":3535,"ĠWorld":3536,"ht":3537,"Ġdelen":3538,"Ġess":3539,"ric":3540,"acional":3541,"Ġalle":3542,"ĠìĦ":3543,"ĠChrist":3544,"ãĤ§":3545,"çĶ±":3546,"Ġ×Ķ×©":3547,"Ġcall":3548,"hem":3549,"Ġbro":3550,"ĠÐ¾Ðº":3551,"Ġca":3552,"elf":3553,"Ð¸Ð»Ð¸":3554,"ĠØ§ÙĦÙĤ":3555,"ief":3556,"è»Ĭ":3557,"raph":3558,"vs":3559,"ä¹ĭ":3560,"à¯Ĩ":3561,"Ŀ¼":3562,"rab":3563,"Ġlocal":3564,"ÙĬØ§":3565,"ktet":3566,"ved":3567,"ë§":3568,"jet":3569,"Ġmil":3570,"ĠÐĹ":3571,"rij":3572,"ãģ¡":3573,"Ġparticip":3574,"aba":3575,"ham":3576,"una":3577,"los":3578,"Ġtor":3579,"ople":3580,"Ġfil":3581,"peratur":3582,"ĠEs":3583,"ë©":3584,"40":3585,"Ġgeh":3586,"adem":3587,"Ðĳ":3588,"Ġfamiljen":3589,"led":3590,"tÃ³":3591,"oli":3592,"è¦ģ":3593,"ĠÃ©ta":3594,"ava":3595,"ĠIntern":3596,"ĠSo":3597,"ĠSeptember":3598,"è¨Ń":3599,"schaft":3600,"Ø§Ø´":3601,"ĠJanu":3602,"ÑĨÐ°":3603,"æ©Ł":3604,"Ġtem":3605,"Ð°Ð½Ð°":3606,"ãģĵãģ®":3607,"ĠPart":3608,"eiten":3609,"Ġ2001":3610,"Ã³d":3611,"vi":3612,"Ġwell":3613,"ĠÐ²ÑĢÐµÐ¼":3614,"ØªÙĩ":3615,"Ġseason":3616,"ëł":3617,"mar":3618,"ĠcÃ¡c":3619,"ulo":3620,"ìľ¼ë¡ľ":3621,"ĠBl":3622,"ander":3623,"Ġdari":3624,"Ġsono":3625,"çº":3626,"à´¸":3627,"ä½ĵ":3628,"Ġalt":3629,"ester":3630,"Ġfac":3631,"Ġ2003":3632,"Ġà°µ":3633,"ĠØ¥ÙĦÙī":3634,"isen":3635,"ikan":3636,"Ġvi":3637,"gal":3638,"ĠLes":3639,"ĠHa":3640,"Ġur":3641,"çĦ":3642,"ëĲ":3643,"Ġ[":3644,"ĠSu":3645,"Ġgre":3646,"éĿ¢":3647,"Ġvari":3648,"Īĺ":3649,"velop":3650,"à¤ľ":3651,"åĬĽ":3652,"ÑĨÐ¸Ñı":3653,"mann":3654,"×ķ×ĳ":3655,"Ð´Ðµ":3656,"à¦¶":3657,"round":3658,"èĭ":3659,"uden":3660,"Ð²Ð¸":3661,"Ġ2002":3662,"à¥Ĥ":3663,"Ġta":3664,"ustr":3665,"Ð½Ð¾ÑģÑĤÐ¸":3666,"åĪ©":3667,"Ġgu":3668,"Ġgel":3669,"ÏĥÏĦ":3670,"à¤ļ":3671,"ĠFr":3672,"lement":3673,"Ġsul":3674,"æ®":3675,"ĠáĥĲáĥ":3676,"áĢ·":3677,"å¼ı":3678,"Ġ×ľ×Ĳ":3679,"åĮº":3680,"å¤ĸ":3681,"ogue":3682,"Ġanche":3683,"utt":3684,"ĠÎ³":3685,"Ġprogram":3686,"å·ŀ":3687,"Ġweit":3688,"ĠÑģÐ¾ÑģÑĤÐ°Ð²":3689,"ĠNo":3690,"ĠìĹ":3691,"ĠAuf":3692,"Ġ×ĳ×ŀ×":3693,"Ġchar":3694,"Ø¯Ø±":3695,"lia":3696,"igt":3697,"ãĥĵ":3698,"ĠJul":3699,"ouv":3700,"Ġadd":3701,"oren":3702,"ìĹĲìĦľ":3703,"Ġcentr":3704,"ison":3705,"Ġbeing":3706,"ä½¿":3707,"Ã¼d":3708,"åı¯":3709,"erste":3710,"à¯ĩ":3711,"ahn":3712,"Ġemp":3713,"Ġà®ļ":3714,"isp":3715,"amer":3716,"ÙħØ±":3717,"ĠMich":3718,"áĥĵ":3719,"ĠÐ¾Ð¿":3720,"Ġpat":3721,"Ġhavet":3722,"ãĥ¼ãĥ«":3723,"Ġkom":3724,"ãģªãģĦ":3725,"Ġ×ĵ":3726,"ĠSer":3727,"ĠÎŃ":3728,"ë¶":3729,"Ġang":3730,"ĠØ§ÙĨ":3731,"ĠBel":3732,"Ð½Ð¾ÑģÑĤÑĮ":3733,"Ġ29":3734,"åıĬ":3735,"lay":3736,"ultur":3737,"vin":3738,"×Ļ×ķ":3739,"ãĢĭ":3740,"ãĢĬ":3741,"ĠSie":3742,"Ġkan":3743,"ĠPo":3744,"å½ĵ":3745,"Ġstart":3746,"Ġlead":3747,"pis":3748,"ection":3749,"Ġrom":3750,"nya":3751,"cis":3752,"ĠApril":3753,"ĠNord":3754,"áĢķ":3755,"ĠLo":3756,"Ã¨me":3757,"for":3758,"icial":3759,"unty":3760,"ÐµÑĩ":3761,"ĠÐķ":3762,"ç±":3763,"Ġren":3764,"çŃī":3765,"Ġrece":3766,"Ġdar":3767,"ÑģÐºÐ°Ñı":3768,"ĠLond":3769,"Ġthrough":3770,"è¼":3771,"æĺİ":3772,"Ã©rie":3773,"ÃŃs":3774,"èĥ½":3775,"Ġmany":3776,"Ġê²":3777,"ĠLife":3778,"iÃ©n":3779,"åģ":3780,"Ġmm":3781,"amen":3782,"vis":3783,"Â·":3784,"Ġgrand":3785,"ĠÄĲ":3786,"alle":3787,"esi":3788,"ities":3789,"Ġneg":3790,"ÐºÑĥ":3791,"ÏģÎ¹":3792,"ĠAss":3793,"×Ļ×ĺ":3794,"å¾Ĺ":3795,"Ġshow":3796,"ìĿ¸":3797,"à¸ģà¸²à¸£":3798,"ĠØ§ÛĮÙĨ":3799,"ëĿ¼":3800,"ĠÛģ":3801,"imin":3802,"Ġperio":3803,"áº¥t":3804,"ĠSouth":3805,"ç·ļ":3806,"×Ļ×©":3807,"gio":3808,"ined":3809,"ĠSchool":3810,"Ã¤s":3811,"ÃŁen":3812,"iga":3813,"çł":3814,"ÑģÑĤÐ°Ð²":3815,"zia":3816,"Ġmun":3817,"cie":3818,"Ġeng":3819,"ĠslÃ¤ktet":3820,"Ġbeskre":3821,"å»º":3822,"ĠCatal":3823,"è¢":3824,"iche":3825,"ĠâĢľ":3826,"à´ļ":3827,"Ðĺ":3828,"owever":3829,"eben":3830,"urr":3831,"ĠÑĩÐ°":3832,"sa":3833,"ĠÑįÑĤ":3834,"Ġcond":3835,"Ð»Ñİ":3836,"áĢĽ":3837,"Ð°Ñħ":3838,"ĠÐ½Ð°Ñĩ":3839,"imes":3840,"Ð°Ð½Ð¾Ð²":3841,"Ġconsider":3842,"21":3843,"eck":3844,"Ġwaren":3845,"ÙģÙĬ":3846,"Ġben":3847,"Ġbeskrevs":3848,"Ġorganiz":3849,"ĠCor":3850,"opo":3851,"Ð»ÐµÐº":3852,"ves":3853,"enti":3854,"Ġcin":3855,"ides":3856,"Ġ×ĸ":3857,"ĠNovember":3858,"ĠPal":3859,"Ġpada":3860,"à±Ĩ":3861,"Ġ2018":3862,"Ġcho":3863,"·¸":3864,"van":3865,"czy":3866,"ìĭľ":3867,"Ð¢":3868,"Ġdurante":3869,"Ġlandet":3870,"bb":3871,"×Ļ×Ļ×Ŀ":3872,"ÙħÙĨ":3873,"iques":3874,"é¦":3875,"Ġterm":3876,"erson":3877,"Ð»Ð¾":3878,"Ġsm":3879,"Ġincluding":3880,"Ġrest":3881,"ĠFo":3882,"Ġsuccess":3883,"åĪĿ":3884,"Ð»Ð¾Ð²":3885,"Ġhand":3886,"staden":3887,"à¦ľ":3888,"åħ¶":3889,"Ġsy":3890,"Ġzwe":3891,"Ġpremi":3892,"uw":3893,"fe":3894,"Ġsoci":3895,"ĠRom":3896,"iat":3897,"Ġtri":3898,"ĠSal":3899,"lege":3900,"Ġhal":3901,"Ġ×ĳ×Ĳ":3902,"24":3903,"lass":3904,"Ġìĭ":3905,"Ġ50":3906,"ices":3907,"Ġpal":3908,"Ġpartic":3909,"ived":3910,"×ķ×§":3911,"ĠktÃ³":3912,"ĠØ·":3913,"Ġnombre":3914,"assa":3915,"Ð¸ÑĤÐµÐ»":3916,"Ġmem":3917,"Ġsobre":3918,"ìĸ´":3919,"ĠKon":3920,"Ãī":3921,"ĠØµ":3922,"éģ¸":3923,"Ġcontra":3924,"ÙĩØ±":3925,"ĠÐ¾Ð½":3926,"×ķ×¢":3927,"ĠPort":3928,"ney":3929,"áĢºáĢ¸":3930,"ĠØ§ÙĦØ¬":3931,"Ð¸ÑĤÑĮ":3932,"à±Ĥ":3933,"ĠÎ½":3934,"Ġ1999":3935,"Ġzosta":3936,"ØŃØ¯":3937,"ë°":3938,"Ġplan":3939,"Ð¼ÐµÐ½":3940,"ĠCity":3941,"ÐºÐµ":3942,"Ġba":3943,"ford":3944,"à¤£":3945,"23":3946,"vad":3947,"Ġfem":3948,"Ġespec":3949,"Ġini":3950,"ãĥŁ":3951,"Î½ÏĦ":3952,"Ġcomplet":3953,"×¤×¨":3954,"anti":3955,"ĠMag":3956,"×ķ×Ŀ":3957,"à¸³":3958,"ÑĨÐ¸Ð¾Ð½":3959,"ÙĪØ¨":3960,"ÑĪÐµ":3961,"Ġvilla":3962,"eri":3963,"×Ļ×¡":3964,"é£":3965,"Ġdesign":3966,"ĠZeit":3967,"Ãłnh":3968,"orge":3969,"Ġsystem":3970,"á»ĩ":3971,"ĠFrance":3972,"Ðĵ":3973,"Ã¶d":3974,"Ġagainst":3975,"Ġfait":3976,"à¤¶":3977,"è¶":3978,"åħ±":3979,"uel":3980,"Ġsl":3981,"ume":3982,"áĢħ":3983,"elijke":3984,"inden":3985,"áĢĬ":3986,"Ð°ÑĢÐ°":3987,"ÐµÑħ":3988,"ĠÏĦÎ·Î½":3989,"Ġplace":3990,"è·¯":3991,"het":3992,"Ġgovern":3993,"à¹Ģà¸Ľ":3994,"ÙģØ±":3995,"Ġbefore":3996,"Ġvom":3997,"ĠStates":3998,"Ġfig":3999,"Ġdevelop":4000,"ĠNorth":4001,"ago":4002,"ĠSaint":4003,"Ð¸ÑģÑĤ":4004,"ĠØ§ÙĦØ¨":4005,"ãģŁãĤģ":4006,"Ġgli":4007,"Ġprom":4008,"äºĮ":4009,"essa":4010,"ÎµÏĤ":4011,"Ġsowie":4012,"Ġcompos":4013,"à¦Ĺ":4014,"ae":4015,"ÑĢÑĥÐ³":4016,"Ġ1980":4017,"à´Ļ":4018,"ãģ¨ãģĦ":4019,"Ġhum":4020,"Ġà¦®":4021,"Ġsal":4022,"sak":4023,"ĠØ±Ø§":4024,"ÃŁe":4025,"Ġdoc":4026,"æł¡":4027,"otball":4028,"Ġproc":4029,"æķ°":4030,"lio":4031,"Å¼e":4032,"Ġseiner":4033,"ĠDas":4034,"ĠnÃły":4035,"off":4036,"áĢ¾":4037,"Äħc":4038,"Ġwhile":4039,"ĠÐŃ":4040,"prÃ¨s":4041,"Ġcour":4042,"ãĥĥãĤ¯":4043,"Ġlui":4044,"×Ļ×ĳ":4045,"ĠChar":4046,"teur":4047,"ĠØ¨Ø§ÙĦ":4048,"×ķ×©":4049,"Ġnu":4050,"ĠWh":4051,"Ġgener":4052,"Ġdengan":4053,"ĠKir":4054,"åĪ°":4055,"ÙĦÙĥ":4056,".,":4057,"imento":4058,"Ø§Ø¬":4059,"éĹ":4060,"ÑĬÑĢ":4061,"aison":4062,"Ġà¦¹":4063,"Ð¸ÑĢ":4064,"à¯ĭ":4065,"Ġci":4066,"ukt":4067,"Äģ":4068,"Ġarm":4069,"row":4070,"Ġref":4071,"ross":4072,"ists":4073,"åĵ¡":4074,"áĢ±áĢ¬":4075,"ãģ§ãģĤ":4076,"áº§u":4077,"Ġprzy":4078,"Ġnur":4079,"æ¬¡":4080,"nej":4081,"á»±":4082,"ãĥĳ":4083,"ØªÙħ":4084,"ĠStadt":4085,"åİŁ":4086,"å³":4087,"Ø³Ø¨":4088,"22":4089,"Î½Î¿":4090,"ĠÅĽ":4091,"Ã¤m":4092,"ĠÃī":4093,"à¦Ĥ":4094,"Ġcomb":4095,"Ġtil":4096,"ãĤ¹ãĥĪ":4097,"æ°´":4098,"Ð²ÐµÑĢ":4099,"Ġmehr":4100,"ÙĪÛĮ":4101,"ĠMc":4102,"imp":4103,"å²":4104,"On":4105,"ĠÑģÐ²Ð¾":4106,"xim":4107,"olf":4108,"upt":4109,"æĥ":4110,"åĪ¶":4111,"Ġ185":4112,"Ġà¤¨":4113,"ÎµÎ¯":4114,"gar":4115,"ĠØ§ÙĦÙĨ":4116,"ç®":4117,"Ġstat":4118,"ĠJap":4119,"Ġboth":4120,"194":4121,"Ġya":4122,"ĠVal":4123,"Ġok":4124,"ĠHol":4125,"áĥĽ":4126,"å·¥":4127,"ches":4128,"Ð¿Ð¸":4129,"äºİ":4130,"åĤ":4131,"itions":4132,"ĠFin":4133,"Ġhuvudstaden":4134,"à¸¨":4135,"ety":4136,"urt":4137,"ãģ¿":4138,"ĠDet":4139,"åħĥ":4140,"Ġbek":4141,"Ġwill":4142,"ĠÎ±ÏĢÏĮ":4143,"£¼":4144,"raft":4145,"ĠFre":4146,"ãĥ§":4147,"ĠÎĳ":4148,"è«":4149,"éĥ½":4150,"\"),":4151,"á»ĭ":4152,"Ġê³":4153,"Ġbus":4154,"Ð¸ÑģÑĮ":4155,"Ġelle":4156,"Ð½ÑĥÑİ":4157,"àµĭ":4158,"×Ĺ×¨":4159,"Am":4160,"issa":4161,"Ġprob":4162,"Ġtal":4163,"Ġ×Ķ×¨":4164,"ĠJos":4165,"entre":4166,"ĠComp":4167,"Ġuntil":4168,"æº":4169,"æ²»":4170,"zeit":4171,"ently":4172,"Ġunderarter":4173,"ĠÐ²Ð¾Ð·":4174,"rik":4175,"Ġdir":4176,"Ġarea":4177,"ĠAll":4178,"Ø³Ùħ":4179,"unn":4180,"ĠArt":4181,"Ã¼t":4182,"Ġprem":4183,"Ġì§":4184,"ĠInga":4185,"çİĭ":4186,"èĤ":4187,"è¢«":4188,"vert":4189,"Ġbij":4190,"àµĩ":4191,"ected":4192,"arna":4193,"Ġwrit":4194,"å¤©":4195,"annt":4196,"Ġao":4197,"Ġlistade":4198,"osp":4199,"áĥĲáĥĽ":4200,"adi":4201,"ĠLos":4202,"Ġë§":4203,"ĠUnter":4204,"ommun":4205,"onna":4206,"ĠDav":4207,"çĶ°":4208,"Ġname":4209,"Ã¡k":4210,"ĠprÃ©s":4211,"ellen":4212,"èº":4213,"gest":4214,"é»":4215,"ãĥªãĥ¼":4216,"Ġperform":4217,"Ġud":4218,"á»©":4219,"Ġà´ª":4220,"Å¼y":4221,"Ġwon":4222,"à¸²à¸¢":4223,"Ãªme":4224,"ĠFilm":4225,"ÐµÑĤÐ°":4226,"Î¾":4227,"íķ´":4228,"28":4229,"Ġtut":4230,"ĠÐ³Ð¾ÑĢÐ¾Ð´":4231,"ÛĮØ§":4232,"åı£":4233,"ÙĪØ§ÙĨ":4234,"à¤¡":4235,"Ġdisc":4236,"æŁ":4237,"Ã¯":4238,"vir":4239,"inder":4240,"Ġ1970":4241,"Ġmusic":4242,"Ġguer":4243,"ĠPhil":4244,"ÅŁt":4245,"Ð¼ÐµÑĢ":4246,"hi":4247,"Ġnoch":4248,"ĠÃ¥r":4249,"ãģĹãģ¦ãģĦãĤĭ":4250,"temperatur":4251,"Les":4252,"ĠDan":4253,"ĠMad":4254,"ï¼ļ":4255,"Ġrepresent":4256,"umb":4257,"à¦·":4258,"ĠKar":4259,"Ġfre":4260,"26":4261,"åı°":4262,"Ġcel":4263,"ĠÐ°ÑĢ":4264,"Ġà¤¬":4265,"Ð°ÑĢÐ¸":4266,"ampions":4267,"Ġext":4268,"Ð±ÑĢÑı":4269,"Ġbre":4270,"ska":4271,"lack":4272,"Ġappear":4273,"kilometer":4274,"ÙĬÙħ":4275,"ages":4276,"Ġhatte":4277,"Ġir":4278,"He":4279,"àµ¼":4280,"ĠÑĢÐ°Ð±Ð¾ÑĤ":4281,"×¨×Ĳ":4282,"Ġ1998":4283,"ĠFebru":4284,"à¸²à¸ĩ":4285,"uck":4286,"Î»Î¿":4287,"wie":4288,"æŃ£":4289,"åĽŀ":4290,"Æ°á»Ŀi":4291,"Ġnational":4292,"Ġnumber":4293,"Ġstand":4294,"27":4295,"Ð¸ÑĤÐµ":4296,"Ġjug":4297,"Ã§Ãµes":4298,"å¥³":4299,"ĠinvÃ¥n":4300,"ĠMart":4301,"åĸ":4302,"ĠSa":4303,"ÑĥÐ»ÑĮ":4304,"Ġdivers":4305,"veral":4306,"ĠáĥĴ":4307,"Ġcontinu":4308,"ĠinvÃ¥nare":4309,"ĠJo":4310,"conom":4311,"éĩį":4312,"ĠCatalogue":4313,"Ġseine":4314,"á»¯":4315,"uring":4316,"Î¹Î¿":4317,"yal":4318,"Ġtras":4319,"eten":4320,"han":4321,"ourn":4322,"ĠParis":4323,"ç³":4324,"rod":4325,"ĠmÃ¥n":4326,"Ġrealiz":4327,"×ķ×¦":4328,"ãģĦãģ¦":4329,"ç¾İ":4330,"à¹ģà¸¥":4331,"ãģĽ":4332,"temperaturen":4333,"Ġcal":4334,"Ġlib":4335,"èĢĮ":4336,"Û°":4337,"Ġbat":4338,"Ġtotal":4339,"Ġje":4340,"Ġsong":4341,"ĠHar":4342,"zw":4343,"íĸ":4344,"ĠÐ°Ð²":4345,"àµ½":4346,"Î¹ÎºÎ®":4347,"Ġopen":4348,"ĠrÃ©g":4349,"Ð³Ñĥ":4350,"Ġà¦ħ":4351,"aciones":4352,"ì¹":4353,"eltemperaturen":4354,"Ġpeople":4355,"ince":4356,"Ġ×Ķ×¢":4357,"kk":4358,"ĠDec":4359,"áĢ½":4360,"Ġcette":4361,"å¢":4362,"Ġpen":4363,"à¤·":4364,"Ġ×Ķ×ª":4365,"áº¯":4366,"Ùı":4367,"Ġinform":4368,"Ġ×ĳ×©":4369,"zeich":4370,"Ġ)":4371,"Ġnatur":4372,"ĠØ¹Ø§Ùħ":4373,"éĩĳ":4374,"ila":4375,"ĠGerman":4376,"áĥ¢":4377,"minist":4378,"ĠÛ±Û":4379,"ipp":4380,"Ġpub":4381,"Ġfam":4382,"zer":4383,"arch":4384,"åıĹ":4385,"ÅĽÄĩ":4386,"ratkilometer":4387,"uten":4388,"Ð¸Ð½Ð¸":4389,"Ġ2019":4390,"undo":4391,"Ø³ÛĮ":4392,"Ġprzez":4393,"Ġoc":4394,"Ä±l":4395,"ĠTer":4396,"Ġaber":4397,"à¤§":4398,"Ø±Ø©":4399,"Ġown":4400,"Ġà¤¦":4401,"Ùĳ":4402,"Ġcos":4403,"Ġges":4404,"ÑĢÐ°ÑĤ":4405,"zÄħ":4406,"ĠWilliam":4407,"ìĤ¬":4408,"Ø¹Ø©":4409,"æ¼Ķ":4410,"ãģ°":4411,"áĢ»":4412,"iller":4413,"å¯¾":4414,"elles":4415,"oni":4416,"ually":4417,"Ġline":4418,"ÑĢÑĥÐ¿":4419,"Ġjun":4420,"Ġ184":4421,"elen":4422,"ÑİÑī":4423,"keit":4424,"Ġëĭ":4425,"idd":4426,"ements":4427,"195":4428,"ÎºÎµ":4429,"pend":4430,"ĠÑĢÑĥ":4431,"Î¶":4432,"yle":4433,"vadratkilometer":4434,"Ġalg":4435,"à°ļ":4436,"ĠÑĢÐ°Ð¹":4437,"ãĤ»":4438,"åķ":4439,"Ġ40":4440,"Ã¤Ã¤":4441,"Ġuse":4442,"Ġko":4443,"Ġback":4444,"ĠLeague":4445,"ĠÑģÐ¾Ð²":4446,"Ġà°¨":4447,"Ġdam":4448,"Ġadalah":4449,"ÑĥÐ¼":4450,"à¸¶":4451,"Ġfur":4452,"Ġlu":4453,"à¯Ĭ":4454,"ê³¼":4455,"Æ°á»Ľ":4456,"Ġà°ī":4457,"istem":4458,"heit":4459,"Ġvid":4460,"hol":4461,"æ§":4462,"Ġà®¨":4463,"ĠTur":4464,"Ġjest":4465,"ĠStud":4466,"zel":4467,"hor":4468,"å½¢":4469,"ìĻ":4470,"Ġseries":4471,"haus":4472,"29":4473,"ruct":4474,"ÙĪØª":4475,"ãĥĥãĥĪ":4476,"other":4477,"éħ":4478,"éĽ»":4479,"Ġfra":4480,"Ġmes":4481,"ĠmÃ¥naden":4482,"ĠØ§ÙĦØ¥":4483,"Ġkar":4484,"åĵģ":4485,"ington":4486,"éĩĮ":4487,"ĠÐ§":4488,"tens":4489,"ĠCounty":4490,"Ġstate":4491,"rÃ³":4492,"éĤ":4493,"ÏİÎ½":4494,"ĠgÃ©n":4495,"Ġ31":4496,"eta":4497,"ĠØ¨Ø§":4498,"ÑģÐ°":4499,"Ġpot":4500,"Ġperm":4501,"ç§ĳ":4502,"ĠOc":4503,"nis":4504,"Ġgegen":4505,"tement":4506,"60":4507,"Ð½Ð°Ñĩ":4508,"è½":4509,"tsch":4510,"ĠDeutsch":4511,"ady":4512,"ç¸":4513,"ÑĥÐ»":4514,"æĴ":4515,"ÑĤÐ¸Ð²":4516,"à¤¬":4517,"aster":4518,"ĠBen":4519,"aya":4520,"snitt":4521,"ĠJahre":4522,"acht":4523,"ãģ«ãģª":4524,"iren":4525,"Ġresult":4526,"èĳ":4527,"çģ":4528,"Ã©k":4529,"ful":4530,"ĠGeme":4531,"Ġbuild":4532,"iven":4533,"Ġnom":4534,"Ġsuper":4535,"Ġans":4536,"iko":4537,"Ø±ÛĮ":4538,"ãĤĪãģĨ":4539,"Ġnaam":4540,"com":4541,"ĠStre":4542,"Ġarch":4543,"Ġ1996":4544,"Ø¥":4545,"Ġcat":4546,"Ġà¦¤":4547,"éĻ¢":4548,"áĥľ":4549,"ycz":4550,"ãĥ³ãĥī":4551,"stit":4552,"alla":4553,"\").":4554,"Ð´ÐµÐ»":4555,"cio":4556,"ĠngÆ°á»Ŀi":4557,"Ã¤ch":4558,"rs":4559,"Ġrun":4560,"Ġ1997":4561,"Ð¾ÑģÑģÐ¸":4562,"ĠÑĤÐ°ÐºÐ¶Ðµ":4563,"ÙĤØ¯":4564,"Ġzwei":4565,"ĠRec":4566,"asa":4567,"Ã¬nh":4568,"Ġany":4569,"Ġcaus":4570,"å¦":4571,"ĠDo":4572,"Ġeing":4573,"à¯į.":4574,"Ġvia":4575,"ãģĺ":4576,"Ġdit":4577,"iner":4578,"Ġ1960":4579,"ĠDes":4580,"è¨ĺ":4581,"enen":4582,"Ġfund":4583,"èªŀ":4584,"abl":4585,"ĠSk":4586,"ĠÛĮÚ©":4587,"Ġcalled":4588,"Ġ×Ķ×Ĺ":4589,"Ġà°®":4590,"Ġmol":4591,"ãģ¾ãģŁ":4592,"ìŀĲ":4593,"Ġcontr":4594,"nik":4595,"ws":4596,"ĠÎºÎ±":4597,"å·Ŀ":4598,"æĿ¥":4599,"Ä±nda":4600,"Ġreleased":4601,"Ġdalla":4602,"ãģ¨ãģĦãģĨ":4603,"ãĥ¼ãĥĪ":4604,"áĥĲáĥĵ":4605,"Ġger":4606,"Ġmuch":4607,"æľĥ":4608,"Ġplayed":4609,"ece":4610,"ĠÄĳÃ£":4611,"omsnitt":4612,"Ġsame":4613,"×ķ×Ĵ":4614,"á»¥":4615,"insi":4616,"anie":4617,"ĠrÃ©s":4618,"Ġà¦ķà¦°":4619,"ãĥ³ãĤ°":4620,"ĠÐ¿Ð¾ÑģÑĤ":4621,"Ġà¤°":4622,"arn":4623,"Ġpopulation":4624,"Ġìĺ":4625,"ĠOl":4626,"nek":4627,"à¦ĩ":4628,"Ġmunicip":4629,"à¸²à¸ģ":4630,"Ġfamily":4631,"ĠØº":4632,"ĠnederbÃ¶rd":4633,"leich":4634,"ÑĭÐ¼":4635,"Ġdalam":4636,"éĢ£":4637,"Ġrev":4638,"Ġ1992":4639,"åŁº":4640,"Or":4641,"Ġterrit":4642,"ëĤĺ":4643,"åĿ":4644,"ĠPark":4645,"Ġsous":4646,"ivil":4647,"kon":4648,"å®ī":4649,"Ð°Ð¿":4650,"èĲ":4651,"Ø§ÙĬ":4652,"Ġmajor":4653,"anda":4654,"Im":4655,"Ġens":4656,"Ġalc":4657,"kow":4658,"isc":4659,"à¦¹":4660,"atan":4661,"Ġà´ķ":4662,"Ġtelev":4663,"ìĿ¼":4664,"Ġonder":4665,"uito":4666,"Ġeste":4667,"aff":4668,"ĠÐ´Ð²":4669,"chi":4670,"Ã§ais":4671,"Ġuntuk":4672,"uÃŁ":4673,"Ø¨ÙĦ":4674,"Ġhel":4675,"ë³":4676,"ammen":4677,"ļáĥĺ":4678,"omas":4679,"inh":4680,"Ġactiv":4681,"Ġ1994":4682,"ĠÐ¿ÐµÑĢÐ²":4683,"Ġnow":4684,"áºŃt":4685,"ĠAir":4686,"ç¦":4687,"ÙĩÙħ":4688,"Ġtod":4689,"Ġcompet":4690,"ares":4691,"ower":4692,"ĠCamp":4693,"ãĥı":4694,"ÙĥØ§ÙĨ":4695,"ãĥĢ":4696,"ĠÑģÐ°Ð¼":4697,"å¹´ãģ«":4698,"elijk":4699,"etti":4700,"ionen":4701,"ĠHen":4702,"ivid":4703,"west":4704,"Ġcui":4705,"Ġ$":4706,"ĠRuss":4707,"ëŀ":4708,"izz":4709,"Ã©ri":4710,"ĠÐ¸ÑģÐ¿":4711,"35":4712,"Ġcrit":4713,"Ã¡m":4714,"yp":4715,"Ġdid":4716,"ëĮĢ":4717,"çĲĥ":4718,"Ġ1995":4719,"Ġseveral":4720,"Ġfun":4721,"Ġcity":4722,"è¦ĭ":4723,"Ð°ÑĤÐµÐ»ÑĮ":4724,"ãĤĤãģ®":4725,"Ġfamilie":4726,"beit":4727,"Ġearly":4728,"anno":4729,"åĢĭ":4730,"èĬ":4731,"niej":4732,"ĠSoci":4733,"à®´":4734,"lung":4735,"ÐµÐµ":4736,"Ġkvadratkilometer":4737,"çľĮ":4738,"ĠÑģÐ»":4739,"gn":4740,"èº«":4741,"gent":4742,"ìĥ":4743,"Ġblev":4744,"ĠØ§ÙĦÙĥ":4745,"çķĮ":4746,"alk":4747,"Ġmak":4748,"ĠØ§ÙĦØ´":4749,"çĶ»":4750,"ë¬":4751,"ĠDiv":4752,"rid":4753,"ĠÐ¨":4754,"ĠØ¢ÙĨ":4755,"80":4756,"ÑģÐºÐ¸Ðµ":4757,"agen":4758,"asse":4759,"ology":4760,"ĠëĮĢ":4761,"äº¬":4762,"Ú¾":4763,"Ġatta":4764,"ÌĪ":4765,"Ġsolo":4766,"ãģ¸":4767,"çµĦ":4768,"Ġequip":4769,"ÑıÐ²":4770,"atr":4771,"Ġdeutsch":4772,"Æ°Æ¡":4773,"Ġ1991":4774,"ikt":4775,"gu":4776,"Ġsyd":4777,"Ġpap":4778,"ĠØ¹ÙĨ":4779,"Ġsupport":4780,"eros":4781,"ĠBra":4782,"Ø§Ø·":4783,"éĸ¢":4784,"ĠaÃ±os":4785,"Ð·Ð²":4786,"Ġvez":4787,"ives":4788,"Ð¸Ð±":4789,"å£«":4790,"ĠÐ¼Ñĥ":4791,"ĠSec":4792,"Ġgeneral":4793,"æ´»":4794,"Ġthese":4795,"nak":4796,"ĠLu":4797,"teil":4798,"Ġoli":4799,"Ġprima":4800,"ĠMor":4801,"ĠÐ²Ð¾Ð¹":4802,"Ġinfl":4803,"ĠArm":4804,"Ġstation":4805,"eden":4806,"é§":4807,"ogen":4808,"fin":4809,"ĠÐ¾Ð±Ð»Ð°":4810,"åĦ":4811,"ĠÃ§":4812,"enta":4813,"lieÃŁ":4814,"Ġê·¸":4815,"Ġrelig":4816,"Ġmal":4817,"×Ļ×¢":4818,"Ġwet":4819,"éĢ²":4820,"æĮĩ":4821,"Das":4822,"Ġbere":4823,"nah":4824,"êµŃ":4825,"elo":4826,"Ġsoort":4827,"ĠÙĩÙĪ":4828,"ĠÐ½Ð¾":4829,"ĠtambiÃ©n":4830,"åŀ":4831,"heim":4832,"ograf":4833,"ÏĦÎ¹":4834,"acter":4835,"Ġtur":4836,"×ł×Ļ":4837,"çĽ¸":4838,"Ġìľ":4839,"ĠIr":4840,"ĠVol":4841,"ĠÐ±ÑĭÐ»Ð°":4842,"Ġprincipal":4843,"Ġlim":4844,"Ġgame":4845,"ĠÏĥÏĦÎ·":4846,"pre":4847,"Ġhon":4848,"æĶ¾":4849,"ĠUm":4850,"ÙĬØ³":4851,"aÃ§Ã£o":4852,"ĠBritish":4853,"Ã¼h":4854,"ãģķãĤĮãĤĭ":4855,"ĠÐ±ÑĭÐ»Ð¸":4856,"Ġuno":4857,"ĠÃĸ":4858,"eles":4859,"ey":4860,"Ġpost":4861,"press":4862,"Î»Î»":4863,"asc":4864,"Ã¤ter":4865,"ĠØ§ÙĦØ¯":4866,"loss":4867,"Ġfond":4868,"wick":4869,"enz":4870,"ãĥ¢":4871,"ĠDr":4872,"ael":4873,"ody":4874,"Ġvá»Ľi":4875,"tal":4876,"ÙħØ§ÙĨ":4877,"Æ°Æ¡ng":4878,"ÐĽ":4879,"Ð»Ð°Ñģ":4880,"å³¶":4881,"Ġà¤Ĩ":4882,"ãĥĻ":4883,"mes":4884,"ÛĮØª":4885,"Ġêµ":4886,"ç³»":4887,"å¡":4888,"áĥĲáĥłáĥ":4889,"Ġá»Ł":4890,"à¸²à¸¡":4891,"onia":4892,"ÐµÐ½Ð¸Ð¸":4893,"ĠTor":4894,"agy":4895,"iff":4896,"ĠMarch":4897,"Ã¡ng":4898,"à¹ģà¸¥à¸°":4899,"lymp":4900,"Ã³ÅĤ":4901,"Ġbegan":4902,"ĠGeb":4903,"à®ªà®Ł":4904,"ĠÃ©l":4905,"Ã¨res":4906,"asta":4907,"adre":4908,"iu":4909,"ÑĢÐ¾Ð¼":4910,"rodu":4911,"kar":4912,"ç¥ŀ":4913,"×ķ×Ĺ":4914,"à®Ļ":4915,"Ġmel":4916,"ograph":4917,"nym":4918,"ìķĦ":4919,"Ġnorth":4920,"endant":4921,"åıĸ":4922,"ĠWil":4923,"ĠDies":4924,"ĠloÃłi":4925,"Ã³s":4926,"isation":4927,"tes":4928,"Ġinte":4929,"ĠÎ·":4930,"Ġmeng":4931,"á»Ļc":4932,"ĠSpiel":4933,"ired":4934,"Ġà¦¨":4935,"lands":4936,"Ġric":4937,"ĠDep":4938,"erg":4939,"ÅĦsk":4940,"Ġide":4941,"Ġeines":4942,"ĠÃ©t":4943,"Ġwest":4944,"Ġzwischen":4945,"Ġcontro":4946,"Ġ1993":4947,"usta":4948,"íĻ":4949,"dz":4950,"ë¶Ģ":4951,"é¢":4952,"yw":4953,"Ġà°Ĺ":4954,"ĠÐ¼ÐµÑģÑĤ":4955,"wards":4956,"Ġnear":4957,"ĠìĤ¬":4958,"à¦¡":4959,"bra":4960,"å§ĭ":4961,"iciÃ³n":4962,"eli":4963,"ility":4964,"Ð¾Ð½Ðµ":4965,"Ùİ":4966,"Ã§a":4967,"Ġworden":4968,"ÏĥÎµ":4969,"à¦ļ":4970,"Ġopp":4971,"ierung":4972,"ville":4973,"áĢ¬áĢ¸":4974,"Ġkl":4975,"ĠÐ¿ÑĢÐ°Ð²":4976,"idades":4977,"Ġza":4978,"ĠnÃ©":4979,"ĠOk":4980,"ÙĶ":4981,"ãĤ¬":4982,"oto":4983,"Ġkol":4984,"æĮģ":4985,"Ġju":4986,"Î¯Î½":4987,"Mar":4988,"leh":4989,"ites":4990,"åĽł":4991,"ĠPaul":4992,"Ġeg":4993,"ĠÎ£":4994,"iska":4995,"åŁİ":4996,"ielt":4997,"ä¸ª":4998,"enschapp":4999,"Ġunivers":5000,"Ġtown":5001,"ĠÐ¾ÑĢ":5002,"ĠIII":5003,"Ġook":5004,"oks":5005,"Ġformer":5006,"Ġsingle":5007,"Ð¾ÑģÑĮ":5008,"Ø¬Ùħ":5009,"ĠTo":5010,"Ġ×Ķ×ŀ":5011,"åĲĳ":5012,"ussi":5013,"ided":5014,"irk":5015,"ĠKing":5016,"Ġtour":5017,"Ġanni":5018,"ëĵ¤":5019,"Ð¿ÑĢÐ°Ð²":5020,"Ġamb":5021,"ema":5022,"Ġoraz":5023,"Ġtah":5024,"¨áĥĺ":5025,"Ø§Ø±ÛĮ":5026,"ommen":5027,"×ł×ª":5028,"Ð¾Ð»ÑĮÑĪ":5029,"ĠÙĥØ§ÙĨ":5030,"apt":5031,"æĦı":5032,"maste":5033,"ift":5034,"ãĤ¿ãĥ¼":5035,"Ġ×ĳ×¢":5036,"Ġqual":5037,"estig":5038,"neh":5039,"uge":5040,"Ġ×Ķ×§":5041,"Ãºn":5042,"Ġhistor":5043,"Ġwieder":5044,"war":5045,"ĠÎľ":5046,"Ġpremier":5047,"ress":5048,"à¥ĭà¤Ĥ":5049,"Åº":5050,"ĠÐ±ÑĭÐ»Ð¾":5051,"Ġtop":5052,"æĵ":5053,"ĠPres":5054,"åĭĻ":5055,"×ķ×ŀ":5056,"]]":5057,"very":5058,"ĠAz":5059,"Ġeerst":5060,"ìĿ´ëĭ¤":5061,"ãĤ½":5062,"alian":5063,"Ġà¤¤":5064,"ĠAc":5065,"Ġprote":5066,"Ġâ":5067,"Ġled":5068,"aro":5069,"æģ":5070,"Ġappro":5071,"vor":5072,"ÙĪØ²":5073,"alls":5074,"Ġnem":5075,"ç½®":5076,"ĠÐ¾ÑģÐ½Ð¾Ð²":5077,"çĿ":5078,"ots":5079,"ĠMet":5080,"gesch":5081,"å¾·":5082,"ĠSen":5083,"Ġà¤²":5084,"ĠÃ¤":5085,"çµĲ":5086,"Ġdesde":5087,"Ġsent":5088,"ĠHet":5089,"ova":5090,"ëĲĺ":5091,"Ð°Ð³":5092,"band":5093,"ouis":5094,"ĠÐ²ÑĢÐµÐ¼Ñı":5095,"mas":5096,"áĥĶáĥľ":5097,"áĢľ":5098,"Ġdro":5099,"Ġlet":5100,"ĠfranÃ§ais":5101,"Ġgrande":5102,"áĥĲáĥķ":5103,"Ġcirc":5104,"àµģà´Ĥ":5105,"ÎµÏĦ":5106,"ÛĶ":5107,"Ø±Ùģ":5108,"Ġven":5109,"ards":5110,"åħĭ":5111,"raw":5112,"yer":5113,"Ġker":5114,"31":5115,"Ð¸Ð»Ð°":5116,"ustri":5117,"Ġmodern":5118,"ĠØ¨ÙĨ":5119,"ĠLondon":5120,"ÙĪØ¬":5121,"Ã¤d":5122,"Ð½ÑĭÐ¼Ð¸":5123,"Ġroz":5124,"å¿ĥ":5125,"ĠBa":5126,"áĢģ":5127,"Ã¡ny":5128,"Ġà§":5129,"Ġbase":5130,"ĠRich":5131,"Ġdesp":5132,"Ġexper":5133,"Ġchild":5134,"ÑĤÑĮ":5135,"Ġhabit":5136,"ause":5137,"Ġ1945":5138,"ĠJac":5139,"rot":5140,"Ġred":5141,"Ġleur":5142,"Ã¤ll":5143,"iá»ģ":5144,"Ð·Ð¾Ð²":5145,"ily":5146,"Ġà¦¦":5147,"ĠÑĥÑĩÐ°":5148,"Ġident":5149,"ÛĮØ¯":5150,"Ġevent":5151,"áĥĲáĥ¡":5152,"estival":5153,"ogy":5154,"æĶ¹":5155,"áº·":5156,"Ġsouth":5157,"Î±Ïģ":5158,"ĠSw":5159,"Ġgran":5160,"ÙĪÙĬ":5161,"åºľ":5162,"ÐµÑĤÐ¾":5163,"Ġ×ľ×Ķ×":5164,"Ð¼Ñĥ":5165,"try":5166,"ĠEsp":5167,"37":5168,"à¤¥":5169,"à¦§":5170,"Ġë¶":5171,"Ġ×Ķ×ķ×Ĳ":5172,"ĠÐ¿ÑĢÐ¾ÑĤ":5173,"æł¼":5174,"èĹ":5175,"ampionship":5176,"ĠëĤ":5177,"ĠÏĥÏħ":5178,"Ġlors":5179,"the":5180,"gs":5181,"ĠÙħØŃ":5182,"Ġfer":5183,"uÃ©s":5184,"uent":5185,"à±Ī":5186,"Ġvier":5187,"kin":5188,"Ġgovernment":5189,"nes":5190,"Ġdieser":5191,"à¦¼à§ĩ":5192,"nego":5193,"ĠÄĳáº§u":5194,"åįģ":5195,"ĠCap":5196,"Ġgeld":5197,"áº§n":5198,"elli":5199,"Sch":5200,"atta":5201,"ĠJune":5202,"Ġai":5203,"ĠÐ¸Ð»Ð¸":5204,"æµģ":5205,"Ġsci":5206,"ionale":5207,"idente":5208,"iÄħ":5209,"adores":5210,"Ġwaar":5211,"Ð¤":5212,"Ġtest":5213,"ĠÐĿÐ°":5214,"Ġrepr":5215,"Ġseu":5216,"Ġ1989":5217,"Ð°Ð½Ð¸Ð¸":5218,"Ġanim":5219,"Ġà®Ĩ":5220,"Ġsv":5221,"ĠThey":5222,"ieren":5223,"ĠPe":5224,"Ġsold":5225,"yc":5226,"oca":5227,"ĠGeneral":5228,"ĠÎļ":5229,"Â«":5230,"Ġ;":5231,"Ġoriginal":5232,"ĠaÃ±o":5233,"ĠÐ½Ð°Ñģ":5234,"Ġsince":5235,"ãģ³":5236,"ÑĥÑħ":5237,"å¤§åŃ¦":5238,"íĺ":5239,"ãģ¾ãģ§":5240,"éŁ³":5241,"ĠRad":5242,"ĠDem":5243,"inning":5244,"ÑģÑĤÑĥÐ¿":5245,"ç©º":5246,"Ġhasta":5247,"éģĭ":5248,"etto":5249,"Ġhá»įc":5250,"Ð¾ÑĤÐ¾":5251,"èĩ³":5252,"ĠÚ©ÛĮ":5253,"eln":5254,"Ġtrab":5255,"èĪĩ":5256,"ĠÃ©gal":5257,"Ġstato":5258,"itÃ¤t":5259,"ĠFrank":5260,"ĠgehÃ¶r":5261,"ĠSam":5262,"ĠCent":5263,"Ġfa":5264,"ijd":5265,"oung":5266,"osi":5267,"ĠJahren":5268,"aliforn":5269,"ized":5270,"ended":5271,"eph":5272,"itte":5273,"Se":5274,"ĠCollege":5275,"oz":5276,"ä¹Ł":5277,"ĠÏĩ":5278,"Ġlog":5279,"ĠAfter":5280,"36":5281,"owaÅĤ":5282,"ĠSm":5283,"Ġreturn":5284,"Ġcant":5285,"ĠkÃ¶z":5286,"ÑĳÑĤ":5287,"Ġversch":5288,"ĠElle":5289,"éĽĨ":5290,"dem":5291,"ä¿Ŀ":5292,"utes":5293,"Ġrefer":5294,"ideo":5295,"ows":5296,"Ġmis":5297,"ÐµÐ¶Ð´":5298,"ÄĻp":5299,"Ġ1950":5300,"Ġhouse":5301,"åĲİ":5302,"ĠJanuary":5303,"Ġhead":5304,"×©×¨":5305,"ÎŃÏĤ":5306,"cias":5307,"udad":5308,"oir":5309,"Ġnaar":5310,"rea":5311,"Ġ×Ķ×¤":5312,"Ġà°ħ":5313,"ãĥ¼ãĥł":5314,"ĠÐ³ÑĢÐ°":5315,"ered":5316,"ĠMont":5317,"ops":5318,"Ð¸ÑĨ":5319,"äº¤":5320,"eva":5321,"Ġfuer":5322,"ĠÐ·Ð°Ð¿":5323,"Ġsud":5324,"Ġtid":5325,"Ġsix":5326,"åŃ¸":5327,"åŀĭ":5328,"ĠBas":5329,"teri":5330,"ĠOctober":5331,"Ð¸Ð»ÑģÑı":5332,"ĠPre":5333,"ĠZw":5334,"38":5335,"Ġlug":5336,"è´":5337,"ĠØ§ÙĦØ±":5338,"Ð¾Ð»Ð¾Ð³":5339,"ĠÃ©tait":5340,"70":5341,"90":5342,"ĠBre":5343,"Ġhom":5344,"ĠMac":5345,"giv":5346,"èŃ°":5347,"Ġ/":5348,"Ġkun":5349,"ĠestÃ¡":5350,"Ġsmall":5351,"ota":5352,"Ġcost":5353,"Ġvir":5354,"ÐµÐ½ÑĮ":5355,"Ġrequ":5356,"Ġpob":5357,"×Ļ×¤":5358,"ump":5359,"Ġà´¸":5360,"ĠJuly":5361,"ĠáĥĵáĥĲ":5362,"åı·":5363,"à¸·à¹Ī":5364,"34":5365,"jÄħ":5366,"Ġ×ķ×Ķ×":5367,"useum":5368,"ÑĤÑĥ":5369,"As":5370,"Ġsqu":5371,"hund":5372,"Ġwetenschapp":5373,"Ġvillage":5374,"ects":5375,"Ġdont":5376,"ĠnÃ¤r":5377,"Ġsistem":5378,"unter":5379,"Ġëı":5380,"osto":5381,"Pr":5382,"owej":5383,"Ø§Ø®":5384,"utz":5385,"ãĥ³ãĥĪ":5386,"Ġseit":5387,"lav":5388,"cul":5389,"ÑıÐ½":5390,"Ġziren":5391,"ĠHis":5392,"Ġpopular":5393,"Ġni":5394,"à°¿à°Ĥ":5395,"×£":5396,"itor":5397,"Ġà¤Ĺ":5398,"ĠNa":5399,"Ġmater":5400,"ëį":5401,"Ġprofess":5402,"ëª":5403,"ÙĦØ§":5404,".)":5405,"Ġrap":5406,"Ġris":5407,"ĠKan":5408,"cel":5409,"adu":5410,"unda":5411,"ĠÃ©galement":5412,"Ġpriv":5413,"fic":5414,"etta":5415,"oper":5416,"enso":5417,"ĠGes":5418,"éļĬ":5419,"ĠBay":5420,"à´¦":5421,"ĠHigh":5422,"ĠÏĮ":5423,"Ġpero":5424,"ë²":5425,"ÐµÐ»Ð¾Ð²":5426,"alen":5427,"ĠØ§Ø³":5428,"æĽ¸":5429,"ãĥ¼ãĥī":5430,"usammen":5431,"ĠSz":5432,"sche":5433,"bel":5434,"ĠÏĥÏĦÎ¿":5435,"ĠAnt":5436,"Ġprime":5437,"orks":5438,"Ġalong":5439,"ensis":5440,"Ġsett":5441,"ĠÚĨ":5442,"ĠMil":5443,"Ġë³":5444,"Ġ(*":5445,"ÃŃan":5446,"ĠmÃªme":5447,"Ġdiffer":5448,"ager":5449,"Ġka":5450,"Ġeach":5451,"ĠRes":5452,"ĠBerlin":5453,"Ġconn":5454,"atro":5455,"èĻ":5456,"Ġbra":5457,"æ¡":5458,"Ġay":5459,"ieg":5460,"Ø³ØªØ§ÙĨ":5461,"iker":5462,"Ġmember":5463,"ize":5464,"ĠKr":5465,"çĤ¹":5466,"Ġny":5467,"ĠClub":5468,"cent":5469,"rict":5470,"Ġmond":5471,"Ð¾Ð´Ð°":5472,"ĠoÃ¹":5473,"ĠÎł":5474,"Ġforma":5475,"ĠZe":5476,"ĠÙħØ±":5477,"à¦£":5478,"ÙħØ¯":5479,"ãĤ¡":5480,"Ġ×ŀ×©":5481,"39":5482,"iy":5483,"Ġmatch":5484,"ologie":5485,"ĠGra":5486,"Ø§Øµ":5487,"ĠÑģÐ¾Ð±":5488,"èµ·":5489,"Ġtook":5490,"Ġbrit":5491,"Ġ×Ķ×¡":5492,"ãĥĿ":5493,"æħ":5494,"Ð°Ð±":5495,"ĠLi":5496,"pa":5497,"Ġku":5498,"Ġà¦Ĩ":5499,"ĠJoh":5500,"Ġtrakten":5501,"ords":5502,"BC":5503,"Ġperiod":5504,"Ġ×¦":5505,"Ġspe":5506,"Ġcomun":5507,"gl":5508,"Ġcult":5509,"ĠØ³Ø§ÙĦ":5510,"stitu":5511,"Ġà¤ī":5512,"à±ģà°Ĥ":5513,"ÑģÐºÐ°":5514,"Ġ1988":5515,"ÐµÐ¿":5516,"å®Ł":5517,"aler":5518,"ĠÎµÏĢ":5519,"iness":5520,"à¦¥":5521,"ĠÃħ":5522,"ĠTeil":5523,"Ġfollowing":5524,"Ġremain":5525,"Ð£":5526,"ÑĳÐ»":5527,"ì²":5528,"uses":5529,"kel":5530,"Ġworld":5531,"Ð°ÑĤÐµÐ»":5532,"åĥ":5533,"ç´Ħ":5534,"Ġtahun":5535,"å¸¸":5536,"fÃ¼hr":5537,"ĠState":5538,"Ġsá»ĳ":5539,"Ð¾Ð³ÑĢÐ°":5540,"à¦¼à¦¾":5541,"ĠÙħØª":5542,"è¨Ģ":5543,"Ġlocated":5544,"Ġiss":5545,"Ġdonde":5546,"Ġlarge":5547,"Ġà´µ":5548,"onde":5549,"alist":5550,"Ġfel":5551,"agn":5552,"Å«":5553,"ĠÑıÐ²":5554,"mark":5555,"ãĤıãĤĮ":5556,"Ġjust":5557,"éĩİ":5558,"anh":5559,"ë¯":5560,"è¿ĳ":5561,"Ġcare":5562,"ĠdÃ¥":5563,"ments":5564,"ï¼īãĢĤ":5565,"pol":5566,"iceerd":5567,"Ġmort":5568,"Ġthu":5569,"Ð½Ð¸ÐºÐ°":5570,"ĠGl":5571,"éĢģ":5572,"otta":5573,"Ġanno":5574,"Ġ60":5575,"Ġgest":5576,"Ġcould":5577,"ĠÐ²ÑģÐµ":5578,"'d":5579,"ÃŃnh":5580,"Ġserie":5581,"ĠPet":5582,"Ġak":5583,"èı":5584,"ĠØ¨ÙĪØ¯":5585,"×ķ×Ľ":5586,"Ġindivid":5587,"vÃ¤st":5588,"çŁ¥":5589,"ĠÐ´Ð°":5590,"á»ĵ":5591,"Ġcompany":5592,"ç¿":5593,"undes":5594,"ĠØ§ÙĦÙģ":5595,"Ġdegli":5596,"ĠÄĳá»Ļ":5597,"Ġcompr":5598,"ĠÎ½Î±":5599,"cha":5600,"cks":5601,"ĠJean":5602,"ÑģÑģ":5603,"ĠnÃ£o":5604,"ç¯":5605,"ĠÐ¿ÑĢÐ¾Ð²":5606,"etzt":5607,"Ġgepubl":5608,"iá»ĥ":5609,"ĠÙģØ±":5610,"Ġnav":5611,"ç±³":5612,"à¸±à¹ī":5613,"Ġkall":5614,"Ġà¦ľ":5615,"ĠVor":5616,"Ġbeh":5617,"ĠÑģÑĬ":5618,"íĬ":5619,"Ġage":5620,"Ã©ny":5621,"ãĥį":5622,"Ã¤Ã¤n":5623,"à°¶":5624,"ardo":5625,"Ã¤hrend":5626,"áĥĲáĥļ":5627,"ilar":5628,"Ġheld":5629,"Ø´Ø±":5630,"ĠInternational":5631,"ivi":5632,"éĮ":5633,"ĠÃľ":5634,"Ġcual":5635,"esti":5636,"allen":5637,"ÙĦØ©":5638,"ĠOb":5639,"ÑģÐºÐ¾Ðµ":5640,"entlich":5641,"æĽ²":5642,"ìĻĢ":5643,"Ð°ÑģÑĮ":5644,"ãĥ´":5645,"izi":5646,"ĠDecember":5647,"odo":5648,"Î¹ÎºÏĮ":5649,"ĠCast":5650,"íĥ":5651,"Ġaussi":5652,"à¦Ľ":5653,"çį":5654,"ĠAlex":5655,"Ġtv":5656,"áºŃn":5657,"Ġhuvudsak":5658,"Ø§Ø±Ø¯":5659,"Ġvolt":5660,"æŃ¤":5661,"ãģķãĤĮãģ¦ãģĦãĤĭ":5662,"Ã¤ngen":5663,"ìĽĶ":5664,"ĠÐ¾Ð±ÑĢÐ°Ð·":5665,"lÄ±":5666,"ĠÐ·Ð°Ð²":5667,"Ġwetenschappelijke":5668,"Ġgepubliceerd":5669,"ìłģ":5670,"åĭĿ":5671,"Ø¢":5672,"Ġerh":5673,"Ġid":5674,"imat":5675,"anta":5676,"áĥĺáĥľ":5677,"Ġgl":5678,"ajo":5679,"atre":5680,"Ġprot":5681,"Ð¾Ð»ÑĮÐºÐ¾":5682,"ĠÚ©ÛĴ":5683,"Ġpuis":5684,"ìĨ":5685,"alth":5686,"Ġgeme":5687,"Ø§Ùĥ":5688,"Ġmom":5689,"Ġ×ĳ×ª":5690,"ĠØ°":5691,"owy":5692,"éĢł":5693,"ï¼īï¼Į":5694,"Ø¯Ùħ":5695,"ĠØ£ÙĪ":5696,"weise":5697,"ociation":5698,"Ð¼Ðµ":5699,"ĠÑĢÐ°ÑģÐ¿":5700,"ĠFamil":5701,"rad":5702,"à¦Ń":5703,"erein":5704,"Ġestabl":5705,"ĠMat":5706,"esc":5707,"ëŁ":5708,"Ġëª":5709,"Ġáĥ¨":5710,"ances":5711,"serv":5712,"ä¿¡":5713,"zn":5714,"ä¸İ":5715,"Ġáĥ¬":5716,"hof":5717,"Em":5718,"ÐºÐ°Ð·":5719,"Ġmor":5720,"ĠFra":5721,"ãģļ":5722,"×Ļ×ŀ":5723,"ering":5724,"rÃ¤":5725,"Ġhome":5726,"Ġwater":5727,"Ġà®İ":5728,"áĥĲáĥł":5729,"Pro":5730,"Ð¾Ð·Ð´":5731,"agai":5732,"Ġservice":5733,"ĠXV":5734,"Ð²Ð¾Ð´":5735,"izione":5736,"Con":5737,"rig":5738,"Ġersten":5739,"cho":5740,"folg":5741,"Ġdia":5742,"tor":5743,"Ġáĥł":5744,"Ġainsi":5745,"Ġamer":5746,"Ġnue":5747,"é¤":5748,"Ġfootball":5749,"Ġgeldig":5750,"ĠspÃ¤ter":5751,"Ġalors":5752,"Ġhier":5753,"ining":5754,"idas":5755,"Ġjedoch":5756,"ĠÐ¸ÑģÑĤ":5757,"isa":5758,"Ġesta":5759,"Ġnaz":5760,"Ġkle":5761,"heten":5762,"isto":5763,"èĭ±":5764,"33":5765,"Ð°Ð»ÑģÑı":5766,"Ġtar":5767,"unkt":5768,"Ġmiej":5769,"rac":5770,"ĠÐºÐ¾Ð»":5771,"æ·":5772,"ĠDel":5773,"ights":5774,"Ð²ÐµÑĤ":5775,"Ġdown":5776,"ĠHan":5777,"zet":5778,"iembre":5779,"Ġdom":5780,"ĠhÃ¤n":5781,"ĠÐ¿Ð¾Ð»ÑĥÑĩ":5782,"ĠMer":5783,"ecut":5784,"andid":5785,"ĠaprÃ¨s":5786,"Ġdopo":5787,"çĽ´":5788,"åĪĹ":5789,"Ġcs":5790,"Ð¸ÑĢÐ¾Ð²":5791,"ĠÐºÐ¾ÑĢ":5792,"ÐĹ":5793,"III":5794,"à°¬":5795,"Ġ1987":5796,"ĠVen":5797,"å½±":5798,"Ġ1986":5799,"ìĺĢ":5800,"Ġkap":5801,"Ġeduc":5802,"Ġerst":5803,"ically":5804,"Ġexist":5805,"awa":5806,"æĭī":5807,"ĠJapan":5808,"×ķ×ŀ×":5809,"ÙĪÙĤ":5810,"lic":5811,"Ġata":5812,"Ġtermin":5813,"AS":5814,"ĠWelt":5815,"ç¨®":5816,"Ġkonn":5817,"æ¯Ķ":5818,"ë¦":5819,"ises":5820,"ãĥ¯":5821,"istas":5822,"Ġinternational":5823,"rÃ©":5824,"ÐµÐ½Ñĭ":5825,"á»ĳc":5826,"ĠFrancis":5827,"gin":5828,"è¨Ī":5829,"Ġmembers":5830,"ĠÑİ":5831,"Ġestado":5832,"Ġepis":5833,"ĠvÃło":5834,"ĠOs":5835,"Ġair":5836,"aja":5837,"è±":5838,"ush":5839,"Ġ×ľ×ŀ×":5840,"Ġ180":5841,"à¯Ĥ":5842,"ÑħÐ¾Ð´Ð¸ÑĤ":5843,"aki":5844,"Ġaround":5845,"á»ķ":5846,"ĠRiver":5847,"mal":5848,"Ã¡z":5849,"iale":5850,"Ð°Ð½ÑĤ":5851,"Ġbesch":5852,"×ĵ×Ļ":5853,"à¸ĸ":5854,"Ġaver":5855,"32":5856,"Ġsocial":5857,"Ġital":5858,"odes":5859,"yst":5860,"ÑĢÐ¾Ð½":5861,"iar":5862,"ĠáĥĻ":5863,"¡°":5864,"ĠCal":5865,"apa":5866,"Ġà¤¯":5867,"nder":5868,"Ġpri":5869,"imon":5870,"ÑģÑĤÑĢÐ°":5871,"ÑĢÐ¾Ð¿":5872,"ĠÐ²ÐµÑĢ":5873,"Ġgesch":5874,"ria":5875,"áº¿n":5876,"ĠÐ¿Ð°ÑĢ":5877,"ãĤ±":5878,"Ġtu":5879,"ĠÙħØ³":5880,"ĠÐ´ÑĢÑĥÐ³":5881,"ĠÏĦÎ¿Î½":5882,"Par":5883,"ĠHowever":5884,"Ð½ÐµÐ¹":5885,"×ľ×Ķ":5886,"åı¸":5887,"duc":5888,"weg":5889,"ĠNor":5890,"ìŀ¥":5891,"Ġinde":5892,"Ġru":5893,"ĠCup":5894,"×Ļ×¦":5895,"Ã¶t":5896,"Ġlast":5897,"ĠLake":5898,"ationale":5899,"Er":5900,"Ġville":5901,"Ġnorm":5902,"iki":5903,"Ġà´ħ":5904,"ìłķ":5905,"Ġborn":5906,"Ġpartir":5907,"encia":5908,"Ã¸r":5909,"çľģ":5910,"ĠDavid":5911,"ĠSel":5912,"ĠhÃ¶g":5913,"ĠÐºÐ¾Ð¼Ð¿":5914,"Ġ1984":5915,"bro":5916,"Ġkho":5917,"earch":5918,"å°Ķ":5919,"Ø¨ÙĬ":5920,"ÑĥÐ»ÑĮÑĤ":5921,"Ġva":5922,"des":5923,"amt":5924,"ampion":5925,"Ġtyp":5926,"acji":5927,"Ġbuilt":5928,"vat":5929,"Î¼Î¿":5930,"à¹Ħà¸Ķ":5931,"æĹ¶":5932,"oden":5933,"ÑģÐ¾Ð²":5934,"ÏĦÎ¬":5935,"Ġnamed":5936,"ãĥİ":5937,"ienne":5938,"Ð¾Ð»Ð¶":5939,"Ġadminist":5940,"Ð±Ð¾ÑĢ":5941,"iele":5942,"ÑģÑĤÐ°":5943,"aften":5944,"Ġà¤Ń":5945,"Ġjanu":5946,"Ġà°¦":5947,"erde":5948,"ode":5949,"å±ŀ":5950,"ĠAg":5951,"zon":5952,"ĠJames":5953,"ĠÑĥÑĩ":5954,"ĠÎ²":5955,"Fran":5956,"richt":5957,"Î¸Î·":5958,"Ġ1985":5959,"ìĹĪëĭ¤":5960,"ĠzostaÅĤ":5961,"è§£":5962,"Ġà¤ı":5963,"Ġpela":5964,"ellt":5965,"Ã¶ff":5966,"iles":5967,"ĠÙĪØª":5968,"though":5969,"ĠGeorge":5970,"uter":5971,"ĠInter":5972,"ĠÑģÑĢÐµÐ´":5973,"var":5974,"ĠÑĩÐµÐ»Ð¾Ð²":5975,"lac":5976,"ÏīÏĤ":5977,"vet":5978,"ads":5979,"æĿĳ":5980,"Ġwel":5981,"áĢ¡":5982,"Ġprod":5983,"utta":5984,"untry":5985,"Ġtip":5986,"Ð¸Ð¿":5987,"ĠGar":5988,"Ġreport":5989,"åı¤":5990,"ÙĪØ¹":5991,"Ġtempor":5992,"ĠMex":5993,"Ġserved":5994,"...":5995,"é¦¬":5996,"Ġoleh":5997,"ĠMos":5998,"Ġsport":5999,"ĠOt":6000,"ĠÐłÐ¾ÑģÑģÐ¸":6001,"Ð°ÑĪ":6002,"ãĥ©ãĤ¤":6003,"ĠÎ¤":6004,"ÐµÐ½Ð¸Ð¹":6005,"ript":6006,"Ġreceived":6007,"itar":6008,"ĠÑıÐ²Ð»Ñı":6009,"bach":6010,"Ãºbl":6011,"Ð¸ÑĢÐ°":6012,"Ø¹ÙĦ":6013,"ĠGrand":6014,"Æ°á»Ŀng":6015,"iri":6016,"Ġzen":6017,"ãģĵãĤĮ":6018,"ĠBy":6019,"Ġtek":6020,"Ġniet":6021,"Ġnog":6022,"sol":6023,"ĠRepubl":6024,"Î»Î·":6025,"ams":6026,"ĠØ§ÙĦØªÙĬ":6027,"ç§°":6028,"ĠBras":6029,"Ġprev":6030,"¤ĳ":6031,"Sp":6032,"Ð¿Ð¾Ð»":6033,"Ġtw":6034,"Ġzn":6035,"ĠÐ¿Ð»":6036,"×ľ×Ĳ":6037,"Ãºs":6038,"ÑĥÐº":6039,"ichte":6040,"Æ°á»Ľc":6041,"uts":6042,"Ã¢y":6043,"Ġget":6044,"æ£":6045,"hat":6046,"çĭ":6047,"ĠAls":6048,"ateur":6049,"ÐµÑĨ":6050,"Ġpet":6051,"ĠUr":6052,"key":6053,"Ø§ÙĨÛĮ":6054,"ÐµÑĢÐ¶":6055,"iá»ĩn":6056,"zent":6057,"Ġdrei":6058,"Ġjus":6059,"Ġcab":6060,"à¹ĥà¸Ļà¸":6061,"ãĥĦ":6062,"ziaÅĤ":6063,"CA":6064,"ĠÙĩØ°":6065,"'t":6066,"lor":6067,"íĬ¸":6068,"ummer":6069,"ĠÐĲÐ½":6070,"Ġday":6071,"ĠCre":6072,"ĠìĪĺ":6073,"àµĢ":6074,"ĠWo":6075,"Ġì§Ģ":6076,"æıĲ":6077,"Ġleft":6078,"ÑĥÑĪ":6079,"azioni":6080,"Ġrend":6081,"Åį":6082,"Ġkam":6083,"ĠRed":6084,"Ã¥ng":6085,"Ġ×Ķ×ł":6086,"Ġgio":6087,"ints":6088,"Ġincre":6089,"ĠÐ¿ÑĢÐ¾Ð¸Ð·":6090,"ĠEngl":6091,"Ġtan":6092,"iáº¿n":6093,"born":6094,"onne":6095,"Ġnome":6096,"Ð¾Ð²Ð°":6097,"ĠpremiÃ¨re":6098,"ĠLouis":6099,"ised":6100,"ãģ£ãģ¦ãģĦãĤĭ":6101,"ĠRos":6102,"Ġetwa":6103,"ĠBes":6104,"ĠÙħÛĮÚº":6105,"uff":6106,"ĠForm":6107,"ored":6108,"Ġ1940":6109,"ring":6110,"gew":6111,"ĠìŀĪ":6112,"ÑİÑĤÑģÑı":6113,"chter":6114,"bes":6115,"éĩı":6116,"éģİ":6117,"æ¶":6118,"Ġ1982":6119,"ìĦ±":6120,"igr":6121,"ĠRev":6122,"Ġcentury":6123,"entral":6124,"45":6125,"Ġcla":6126,"áº£i":6127,"Ġà´®":6128,"ĠØ§ÙĦÙħØª":6129,"æĺŁ":6130,"çĻ¼":6131,"Ġkat":6132,"Ġbecause":6133,"Ġeven":6134,"ope":6135,"ĠÐºÐ°":6136,"éļĽ":6137,"Ġbased":6138,"ĠTour":6139,"ĠÃª":6140,"ë©°":6141,"unta":6142,"áĥ®":6143,"áĢŀáĢĬ":6144,"å¸ĥ":6145,"×ĺ×¨":6146,"ãĥľ":6147,"áº£n":6148,"Ġ1944":6149,"Ġ1975":6150,"ÑĤÐ¾ÑĢÐ¸":6151,"ĠStra":6152,"ĠÃ©p":6153,"ording":6154,"upakan":6155,"Ġsek":6156,"Ù¹":6157,"ĠÎķ":6158,"ÏĦÎ±Î½":6159,"ovo":6160,"Ġpier":6161,"åı²":6162,"Ð½Ð°Ðº":6163,"Ph":6164,"Ġsegu":6165,"áĥĿáĥĽ":6166,"Î¯Î±ÏĤ":6167,"hin":6168,"Ġ1930":6169,"ĠØ´Ø¯Ùĩ":6170,"çĬ":6171,"athol":6172,"illes":6173,"alm":6174,"otto":6175,"egr":6176,"rieb":6177,"ĠDa":6178,"ĠMaria":6179,"ĠEngland":6180,"Ð»ÑİÑĩ":6181,"Ġwithin":6182,"ÙĤØ©":6183,"Ġhac":6184,"íķĻ":6185,"Ġhogy":6186,"ĠfÃ¼hr":6187,"æ¸¯":6188,"Ã©v":6189,"Ġprovins":6190,"Ġà´¨":6191,"à¸ĭ":6192,"ĠAut":6193,"Ġcontrol":6194,"å¤ª":6195,"rian":6196,"Ġ1983":6197,"ĠÐ¿Ð¾ÑģÐ»Ðµ":6198,"åŁŁ":6199,"ĠKre":6200,"çĶº":6201,"ĠÃ©c":6202,"ãĤ·ãĥ§":6203,"anse":6204,"æĶ¯":6205,"Ã¹ng":6206,"æİ¥":6207,"ç®¡":6208,"×Ļ×ŀ×":6209,"éľ":6210,"¹Ħ":6211,"ĠØ§ÙĦØ®":6212,"jÄĻ":6213,"Ġpoint":6214,"×Ļ×Ĺ":6215,"Ġfolg":6216,"Ġfav":6217,"Ð»Ð°Ð´":6218,"Ð¾ÑģÑĤÐ¸":6219,"uns":6220,"ç¾©":6221,"ĠÐ½Ð¾Ð²":6222,"Ġmerupakan":6223,"Ġtá»«":6224,"Ġciudad":6225,"Ġ×Ķ×Ĵ":6226,"å®ĺ":6227,"ieron":6228,"Ġakt":6229,"ĠSant":6230,"Ġà®ī":6231,"iers":6232,"Ð¾ÑģÐº":6233,"ĠÐ·Ð°Ðº":6234,"rench":6235,"cji":6236,"ÅĤad":6237,"iek":6238,"ĠÑĩÐµÐ¼":6239,"Ġtwe":6240,"Ġexpl":6241,"Ġconta":6242,"Ġkw":6243,"ĠCharles":6244,"Ã¶tt":6245,"ences":6246,"ÑĦÐ¾ÑĢ":6247,"ris":6248,"Ġeurop":6249,"Ġast":6250,"Ġ1972":6251,"ĠFebruary":6252,"ÙĥÙĨ":6253,"Ð³Ð¾Ð²":6254,"ĠÏĢÎ¿Ïħ":6255,"ĠDon":6256,"Ġ1979":6257,"75":6258,"part":6259,"ĠTop":6260,"åįĢ":6261,"ĠÑįÐº":6262,"ĠthÃłnh":6263,"isiÃ³n":6264,"Ð²ÐµÐ´":6265,"nung":6266,"Ġzo":6267,"Ġdig":6268,"ê²Į":6269,"ì£¼":6270,"áĥłáĥ":6271,"skiego":6272,"ittel":6273,"bau":6274,"Ġ2020":6275,"Ġkur":6276,"uks":6277,"ï¼īãĢģ":6278,"åĽĽ":6279,"Ġfort":6280,"dy":6281,"Ġpes":6282,"attle":6283,"Ġprovin":6284,"angan":6285,"ä¸¦":6286,"Ġ1920":6287,"osten":6288,"Åĳl":6289,"igkeit":6290,"ĠSil":6291,"roc":6292,"ÎµÎ½":6293,"Ġsoll":6294,"Ġtradition":6295,"ĠÃģ":6296,"ĠRobert":6297,"ãĤ®":6298,"fÃ¶r":6299,"ped":6300,"Ġsaid":6301,"ĠmÃ©d":6302,"uve":6303,"ries":6304,"ØªÙĬ":6305,"Ġmind":6306,"partement":6307,"oko":6308,"ĠAf":6309,"dom":6310,"atter":6311,"agne":6312,"Ð¨":6313,"ĠGesch":6314,"å°ĳ":6315,"Ġìĭľ":6316,"imeter":6317,"ĠfrÃ¥n":6318,"à¸Ĥà¸Ńà¸ĩ":6319,"aman":6320,"ìĪĺ":6321,"Ġstill":6322,"ãĥ¼ãĤ¹":6323,"çķª":6324,"åĳ½":6325,"Ġmai":6326,"ieurs":6327,"ĠÐ¶Ðµ":6328,"anten":6329,"ØªÛĮ":6330,"riend":6331,"ĠOber":6332,"Ð»ÐµÐ½Ð¸Ñı":6333,"çµ±":6334,"ĠMel":6335,"Ġ×©×ł":6336,"Ġà¤Ķ":6337,"Ã³g":6338,"ĠgÃ©nÃ©r":6339,"ØªØ¨":6340,"nic":6341,"ÐµÐºÐ°":6342,"ÑıÐ·":6343,"Nel":6344,"ÑĦÐ¸":6345,"ĠTV":6346,"à¤¾à¤Ĥ":6347,"ĠÃªtre":6348,"ÏģÎ¬":6349,"imiento":6350,"Ġmi":6351,"ĠNav":6352,"ĠØ´Ø¯":6353,"zu":6354,"ÑģÐºÐ¸Ð¼":6355,"ĠVir":6356,"Ġtechn":6357,"ÐµÐ»Ð¸":6358,"Ġ1974":6359,"yed":6360,"Ð¾Ð»ÐµÐµ":6361,"acc":6362,"Ð¿Ð¸Ñģ":6363,"Ġif":6364,"ked":6365,"atie":6366,"ĠÐ¸Ñİ":6367,"ãģ«ãģĬ":6368,"×ľ×Ļ":6369,"Ġ35":6370,"áĥĺáĥĹ":6371,"itÃ©s":6372,"Ð¾ÑĢÐµ":6373,"ibt":6374,"Ð¾Ð³Ð´Ð°":6375,"Ġ1981":6376,"FA":6377,"ĠÐ¿Ð¾Ðº":6378,"±c":6379,"ÏģÎ¯":6380,"Ġprocess":6381,"ĠzurÃ¼ck":6382,"ÐµÐ½Ð¾":6383,"ç¤º":6384,"ëĵľ":6385,"ention":6386,"Ġkor":6387,"ÙĪØ§":6388,"Ġê°Ģ":6389,"ìłĦ":6390,"Ġ1976":6391,"Ġwordt":6392,"ĠJahrhund":6393,"inger":6394,"anden":6395,"çŁ³":6396,"ged":6397,"mit":6398,"ÑĥÑīÐµ":6399,"wood":6400,"Ġkann":6401,"ĠnÃ¤rheten":6402,"ĠÐ»ÐµÑĤ":6403,"ĠkÃ¶n":6404,"amin":6405,"ĠÏĦÏīÎ½":6406,"ĠPri":6407,"ote":6408,"Ġà¤ĩ":6409,"ĠFried":6410,"Ġintrodu":6411,"ÑĢÑĥÐ¿Ð¿":6412,"ĠJan":6413,"×¨×Ľ":6414,"Ġdistrict":6415,"unde":6416,"Ä±m":6417,"ĠnÃ¤":6418,"ĠMod":6419,"tak":6420,"Ġban":6421,"Ġsort":6422,"ä½Ĩ":6423,"áĥĶáĥł":6424,"áĢ®":6425,"æľĿ":6426,"Ġcontre":6427,"ĠMann":6428,"Ġpartie":6429,"erin":6430,"åıį":6431,"æĹ¥ãģ«":6432,"owany":6433,"Ġtrat":6434,"azz":6435,"Ġ179":6436,"ĠAnton":6437,"ä¸ĸçķĮ":6438,"åıĤ":6439,"Ġestud":6440,"çµĮ":6441,"ÑģÑĤÐ²Ð¾Ð²":6442,"Ġ1978":6443,"Ġsep":6444,"dic":6445,"ĠÐĶÐ¶":6446,"ĠdÃ©b":6447,"2007":6448,"Ø¤":6449,"Ġviol":6450,"Ġces":6451,"ĠtvÃ¥":6452,"×ķ×ĳ×":6453,"ĠÐ¿ÑĢÐ¾Ð´":6454,"ogo":6455,"ĠCaliforn":6456,"çĦ¡":6457,"Ġ1968":6458,"ĠRa":6459,"åĨį":6460,"aga":6461,"Ġmayor":6462,"Ã¡ban":6463,"æŀľ":6464,"Ġinclude":6465,"×ĵ×¨":6466,"2009":6467,"åŃĺ":6468,"çłĶ":6469,"Ġ×ĺ":6470,"ĠSanta":6471,"rito":6472,"orno":6473,"Ġseinem":6474,"ĠNam":6475,"heid":6476,"ÙĨØ©":6477,"Ġeconom":6478,"Ð¼ÐµÑģÑĤ":6479,"Ġpeut":6480,"oten":6481,"à¸Ļà¸Ĺ":6482,"Ġ80":6483,"ÑĢÐ¾Ð´":6484,"Ã¶m":6485,"Ġwoj":6486,"ĠEurope":6487,"æ±º":6488,"Ġà¤Ķà¤°":6489,"á»¯ng":6490,"iera":6491,"ĠSur":6492,"ĠFC":6493,"roll":6494,"isme":6495,"Ġfive":6496,"ĠFern":6497,"áĥĿáĥĳ":6498,"ĠØ§ÙĦØµ":6499,"ĠBau":6500,"line":6501,"organ":6502,"Î»Îµ":6503,"Ä±ÅŁ":6504,"èī²":6505,"Ġradio":6506,"unden":6507,"atus":6508,"æ¢":6509,"Ð²Ð°ÑĢ":6510,"Ġbien":6511,"Ġbed":6512,"oco":6513,"×ķ×ł×Ķ":6514,"ÑĩÐ¸":6515,"ser":6516,"jan":6517,"ader":6518,"Ġ1973":6519,"Ġ×¢×Ŀ":6520,"tek":6521,"Ġdefin":6522,"nÄħ":6523,"aram":6524,"Ġ×Ķ×¦":6525,"ĠHouse":6526,"Ġfar":6527,"é¦ĸ":6528,"êµ¬":6529,"rak":6530,"¹Û":6531,"ä½¿çĶ¨":6532,"Ġold":6533,"Ġcommer":6534,"ĠProf":6535,"yk":6536,"Ġessere":6537,"Ġoffic":6538,"ĠnhÆ°":6539,"Ġquando":6540,"ĠQue":6541,"ÛĮÙħ":6542,"Ġeigen":6543,"Ġê¸°":6544,"It":6545,"eft":6546,"tel":6547,"Ã©tÃ©":6548,"ÐµÐ²ÐµÑĢ":6549,"Ġmult":6550,"ĠBur":6551,"å±Ģ":6552,"ĠAfr":6553,"ril":6554,"Ġjuli":6555,"apat":6556,"ĠthÃ¡ng":6557,"ĠÏĥÏĦÎ·Î½":6558,"istan":6559,"Ġsite":6560,"Ad":6561,"Ġaug":6562,"lection":6563,"ĠpaÃŃs":6564,"zk":6565,"ĠXI":6566,"ĠChampionship":6567,"Ġeller":6568,"ìĽĲ":6569,"48":6570,"rÃ¥":6571,"Ġverw":6572,"Ġlan":6573,"åĲĦ":6574,"ÙĦÙģ":6575,"jÃ¤r":6576,"à°·":6577,"ĠbyÅĤ":6578,"ivat":6579,"NA":6580,"Ġbeste":6581,"Ġlife":6582,"ĠGemeinde":6583,"ĠØ§ÙĦØ°":6584,"á»ģ":6585,"lad":6586,"ĠÐ¼Ð°ÑĤ":6587,"Ġsyn":6588,"ĠhÃ¶gsta":6589,"Ġcontrib":6590,"Ġcurr":6591,"ĠKo":6592,"Ġwat":6593,"ving":6594,"åĶ":6595,"ÑĥÐ±Ð»Ð¸":6596,"Ġreal":6597,"anya":6598,"irm":6599,"Ġkommun":6600,"æį":6601,"field":6602,"ìĹ¬":6603,"thers":6604,"à¥Īà¥¤":6605,"ĠThere":6606,"ĠÃ©v":6607,"Ġjul":6608,"Ġprovinsen":6609,"cciÃ³n":6610,"Å¡":6611,"Ġ1977":6612,"Ġdebut":6613,"ĠØ«":6614,"Ġdeath":6615,"Ġlike":6616,"Ġdecl":6617,"Ã±o":6618,"Ġmass":6619,"Ãłn":6620,"Ġbuilding":6621,"ĠìłĦ":6622,"ĠArch":6623,"Ġjanuari":6624,"ĠSport":6625,"Ġcast":6626,"ĠBet":6627,"iding":6628,"uvo":6629,"ÐµÐ½Ð¸ÐµÐ¼":6630,"bil":6631,"Ġà°°":6632,"Ġproduct":6633,"Ð¿ÑĢÐ¸":6634,"ĠcrÃ©":6635,"Ġpublished":6636,"ĠÑģÐµÐ¼":6637,"ĠPor":6638,"ë¥´":6639,"Ġchang":6640,"Ġseinen":6641,"ãĥªãĤ¢":6642,"enza":6643,"Ø±Ùĥ":6644,"Ġsignific":6645,"oka":6646,"ĠÑĢÐ¾Ð´":6647,"à¤¼":6648,"indet":6649,"owych":6650,"atic":6651,"ÃŃo":6652,"×ŀ×Ķ":6653,"×Ļ×Ľ":6654,"Ġvery":6655,"ĠÏĥÎµ":6656,"ãĥ³ãĤ¹":6657,"Ø³ÙĬ":6658,"Ġincluded":6659,"ness":6660,"igu":6661,"ç¹":6662,"onte":6663,"ĠHall":6664,"ÃŃas":6665,"Ġ1971":6666,"riz":6667,"Ġmaar":6668,"cted":6669,"Ġpersonn":6670,"Ġdistrib":6671,"Ġautor":6672,"Ġverb":6673,"ãģĬãĤĬ":6674,"ĠBand":6675,"æĹı":6676,"áĥĴ":6677,"ÙĨÚ¯":6678,"Ġhor":6679,"aks":6680,"ÑĨÑĭ":6681,"Ġhem":6682,"Ġ×Ķ×ĳ":6683,"ĠÐ¾ÑģÑĤ":6684,"ĠAv":6685,"ĠEnglish":6686,"ĠWal":6687,"ĠPf":6688,"ÑĮÑİ":6689,"uren":6690,"ÑĳÐ¼":6691,"Ġsebagai":6692,"ĠBundes":6693,"Ġfact":6694,"ĠIsland":6695,"Ġpelo":6696,"Ġlarg":6697,"é§ħ":6698,"illo":6699,"Gr":6700,"upe":6701,"Ġihm":6702,"ĠstÃ¶r":6703,"ĠRep":6704,"ĠÛģÛĴ":6705,"Ġdall":6706,"nam":6707,"ĠSol":6708,"Ġbul":6709,"Ġthird":6710,"oman":6711,"à¯ģ.":6712,"íĻĶ":6713,"ĠÐ°Ð½":6714,"åŃĹ":6715,"itel":6716,"áº±":6717,"à¯į,":6718,"Ġgab":6719,"ãĥĨãĤ£":6720,"à°£":6721,"embre":6722,"aka":6723,"Ġej":6724,"ÑĤÐ¾Ð¼":6725,"pi":6726,"ĠÐ²Ð¸Ð´":6727,"ĠÐ½Ð°ÑĩÐ°Ð»":6728,"Ġpubbl":6729,"ĠFrench":6730,"à´·":6731,"ÐµÐ¶":6732,"áĥĶáĥ¡":6733,"Ġsug":6734,"ĠBern":6735,"Ð¡Ðł":6736,"ÏģÎ³":6737,"ĠDar":6738,"Ġdim":6739,"ĠTel":6740,"æ¹":6741,"ĠSeg":6742,"Ġ1941":6743,"ÑĢÐ°Ð¶":6744,"ÐµÐ½Ð¸Ñİ":6745,"lu":6746,"å¼ķ":6747,"Ġsym":6748,"riff":6749,"iw":6750,"Ġrespons":6751,"×ķ×ĸ":6752,"×Ļ×Ĵ":6753,"Ġëĵ":6754,"ãģĮãģĤãĤĭ":6755,"×ŀ×¨":6756,"Ã¡p":6757,"anza":6758,"onen":6759,"Re":6760,"à¸²à¸Ļ":6761,"Ġweek":6762,"§à§":6763,"Ġspecial":6764,"ìĥģ":6765,"å§Ķ":6766,"yar":6767,"uah":6768,"eko":6769,"Ġpower":6770,"Ġdepart":6771,"ĠAk":6772,"Ġconserv":6773,"Ġìĥ":6774,"ãģ¦ãģĦãģŁ":6775,"ĠSuper":6776,"oso":6777,"inte":6778,"Sh":6779,"Ġversion":6780,"Ġwin":6781,"Ġ×ŀ×Ĳ":6782,"Ġáĥ¡áĥĲáĥ":6783,"Ġnell":6784,"áĢºáģ":6785,"Ġ1939":6786,"enda":6787,"à®µà®°":6788,"Î¿Î»":6789,"ciones":6790,"Ð¾Ð½Ñĩ":6791,"Ġlate":6792,"Ġ1969":6793,"ĠÛĮ":6794,"Ġviene":6795,"omo":6796,"Ŀi":6797,"çĹ":6798,"ĠMitgli":6799,"uncil":6800,"ĠGuer":6801,"ĠThomas":6802,"Ø®Ø±":6803,"Ġallem":6804,"onder":6805,"Ġloro":6806,"Ġnec":6807,"Ð½Ð¸Ð¼":6808,"ãģ§ãģį":6809,"Ġwa":6810,"Ġpropos":6811,"2010":6812,"atore":6813,"Ġliegt":6814,"è£½":6815,"uppe":6816,"æ²³":6817,"ĠannÃ©es":6818,"Âº":6819,"ĠOlymp":6820,"udo":6821,"Ġbeim":6822,"×Ĳ×©":6823,"werk":6824,"yo":6825,"ĠÙħØ¯":6826,"ĠÑģÐµÐ»":6827,"Ġps":6828,"ĠAct":6829,"ãģ§ãģĤãģ£ãģŁ":6830,"ç¨ĭ":6831,"ÑĥÑİÑī":6832,"Ã§o":6833,"íķĺìĺĢ":6834,"iá»ģu":6835,"Î¹Ïĥ":6836,"çīĪ":6837,"ÑĢÐ°Ñģ":6838,"ÐºÐ°Ð½":6839,"ÑģÑĤÐ²Ðµ":6840,"ĠtambÃ©m":6841,"ĠJuli":6842,"ured":6843,"à°ľ":6844,"yj":6845,"Ġmach":6846,"owo":6847,"work":6848,"istor":6849,"chts":6850,"Ġdifferent":6851,"àµ»":6852,"Ġsex":6853,"Ġ70":6854,"Ġà¹Ģà¸":6855,"liga":6856,"Ġgef":6857,"Ġproduction":6858,"befol":6859,"yan":6860,"eiter":6861,"idge":6862,"åĻ":6863,"ä¸ŃåĽ½":6864,"cu":6865,"Ġ45":6866,"Ø§Ø¯Ùĩ":6867,"Ġ×Ĳ×ľ":6868,"åŃ¦æł¡":6869,"ossa":6870,"ÑĢÐ¾Ñģ":6871,"Ġpil":6872,"å°±":6873,"Ġdann":6874,"Ġill":6875,"Ġdiese":6876,"ĠIndia":6877,"reb":6878,"Ġregion":6879,"uda":6880,"Ġ1967":6881,"Ġprimer":6882,"åĪ¥":6883,"à±Ĭ":6884,"rip":6885,"via":6886,"isl":6887,"Ġposition":6888,"ĠØ¨Ø¹Ø¯":6889,"ĠMas":6890,"Ġmake":6891,"Ġà¤¶":6892,"ourt":6893,"Ġà¦°":6894,"ĠHand":6895,"Ġpunkten":6896,"Ġaddition":6897,"Ġtrois":6898,"lage":6899,"ĠÐºÐ°ÑĤ":6900,"ÛĮÙĦ":6901,"Ø§Ø¶":6902,"Tr":6903,"éŃ":6904,"ĠÐ¼ÐµÐ¶Ð´":6905,"ĠÐ¿Ð¾Ð²":6906,"65":6907,"ĠktÃ³ry":6908,"Ġkilometer":6909,"Ġrit":6910,"Ġrock":6911,"eland":6912,"Ä«":6913,"Ġanother":6914,"ĠÑģÑĤÐ°Ð»":6915,"Ġsepar":6916,"Ġstor":6917,"ãģ«ãĤĪãĤĭ":6918,"ught":6919,"ĠÅĽw":6920,"ÑĤÐ¾Ð²":6921,"ÑĳÑĢ":6922,"à¯Ģ":6923,"ningarna":6924,"abb":6925,"ship":6926,"Ġà¦¯":6927,"ĠÃ¡l":6928,"Ġthose":6929,"ural":6930,"tera":6931,"ĠJohann":6932,"ãģ¨ãģªãģ£ãģŁ":6933,"Ro":6934,"ogn":6935,"Ġmoved":6936,"Ġcitt":6937,"ĠPat":6938,"rift":6939,"Ġsho":6940,"esa":6941,"ãĤ¤ãĥ³":6942,"erna":6943,"áºŃp":6944,"iser":6945,"ĠTrans":6946,"ÙħØ¹":6947,"eds":6948,"×¨×ĳ":6949,"Ġsj":6950,"oor":6951,"Ġandere":6952,"arse":6953,"bild":6954,"ĠÄ°":6955,"ĠLas":6956,"Ġbi":6957,"itÃ¤":6958,"ĠÎ³Î¹Î±":6959,"ç«Ļ":6960,"ĠkhÃ´ng":6961,"ĠOp":6962,"chÃ©":6963,"Ġnomin":6964,"ĠPeter":6965,"Ð¾ÑģÑĥÐ´":6966,"fen":6967,"ĠØªØŃ":6968,"èĦ":6969,"ĠKh":6970,"ĠMill":6971,"lah":6972,"olk":6973,"ĠCons":6974,"col":6975,"ĠÐ¿ÑĢÐµÐ´ÑģÑĤÐ°Ð²":6976,"uls":6977,"ĠLeg":6978,"ĠCanada":6979,"Ġliter":6980,"èį":6981,"ouw":6982,"ĠìķĦ":6983,"Ġ1943":6984,"ÃŃst":6985,"Ã¡ri":6986,"ĠÐ¼Ð°ÑĢ":6987,"inos":6988,"ĠÑģÐº":6989,"ebr":6990,"angen":6991,"uso":6992,"à¤ı":6993,"Ġtáº£":6994,"befolkat":6995,"Ġshort":6996,")\"":6997,"Ġagr":6998,"ÙĲ":6999,"ç©¶":7000,"Ġig":7001,"åħī":7002,"viron":7003,"Ġefter":7004,"Ġoften":7005,"Ð½Ð¸ÐºÐ¾Ð²":7006,"Ġpan":7007,"rest":7008,"ĠÏħ":7009,"ĠÑĨÐµÐ½ÑĤ":7010,"Ġihre":7011,"Ġ1964":7012,"Ġparti":7013,"ying":7014,"ÙĪÙģ":7015,"Ġelec":7016,"atori":7017,"Ġchildren":7018,"ĠTrakten":7019,"olit":7020,"Å©":7021,"Ġlev":7022,"è°":7023,"irtsch":7024,"ãĢģãĢĮ":7025,"Ġgia":7026,"ĠìŀĪëĭ¤":7027,"æŃ»":7028,"ÙħØ§ÙĦ":7029,"Î»Î±":7030,"ãģ»":7031,"Ġà°Ĩ":7032,"ĠSing":7033,"iente":7034,"ified":7035,"Ø§ÙĨÙĬ":7036,"Ġsw":7037,",\"":7038,"×ķ×ĺ":7039,"ç¶ļ":7040,"85":7041,"Ġ1942":7042,"Ġinvol":7043,"ape":7044,"ĠUSA":7045,"Ġki":7046,"Ġsimp":7047,"aient":7048,"icol":7049,"cos":7050,"Ġcop":7051,"ĠÄĳáº¿n":7052,"æŀĹ":7053,"ĠÐ¯":7054,"Ġdomin":7055,"æĽ´":7056,"à±ģ.":7057,"íĦ":7058,"aly":7059,"bst":7060,"ohl":7061,"ç§»":7062,"rach":7063,"Ã¼k":7064,"ÏģÏĮ":7065,"tres":7066,"ìłľ":7067,"ĠDire":7068,"×ŀ×ł":7069,"á»ĳi":7070,"ĠÐ¿ÑĢÐ¾ÑĤÐ¸Ð²":7071,"ãĥĩãĤ£":7072,"Ġfront":7073,"amiento":7074,"æ±Ł":7075,"ç¢":7076,"Ð³Ð¾Ð´":7077,"Ã¤lt":7078,"itect":7079,"ĠÃ¶ster":7080,"Ġturn":7081,"ãģĭãģ£ãģŁ":7082,"rain":7083,"Ġleb":7084,"Ġentr":7085,"ashington":7086,"Qu":7087,"Ð¾ÑģÑĥÐ´Ð°ÑĢ":7088,"ĠØ¨ÙĬÙĨ":7089,"Ġez":7090,"ierre":7091,"Ġsil":7092,"ierten":7093,"ĠIndones":7094,"áº¿t":7095,"eres":7096,"éĸĢ":7097,"Ġbook":7098,"á»Ń":7099,"Ð¾ÑĢÐ¾Ð½":7100,"TV":7101,"ãĥ¥ãĥ¼":7102,"aban":7103,"Ġcareer":7104,"Ð¿Ð¸Ð¾Ð½":7105,"âĢľ.":7106,"åħĪ":7107,"åıĳ":7108,"Ne":7109,"Ġcommune":7110,"ãģĴ":7111,"àµĤ":7112,"ĠáĢ¡":7113,"æŃ¦":7114,"ĠØ§ÙĦØ«":7115,"stadt":7116,"åħµ":7117,"yon":7118,"å±ķ":7119,"abor":7120,"æŃĮ":7121,"ĠFe":7122,"é©":7123,"ijk":7124,"Ġguerra":7125,"eff":7126,"ĠRoyal":7127,"çĦ¶":7128,"onom":7129,"ĠÐ¿Ð¾Ð¼":7130,"usk":7131,"ļĮ":7132,"emble":7133,"ĠØĮ":7134,"stre":7135,"Ġvict":7136,"ĠCalifornia":7137,"Ġlaw":7138,"ĠÙĩÙħ":7139,"Ġappar":7140,"ĠÑģÐ»ÐµÐ´":7141,"ĠÎ®":7142,"eller":7143,"ĠEast":7144,"64":7145,"×¨×Ļ×Ŀ":7146,"Ġjusqu":7147,"ĠÏĢÏģÎ¿":7148,"ĠÐ®":7149,"ãĤ©":7150,"Ġdepuis":7151,"ãĤ¶":7152,"çµĤ":7153,"Î¹ÎºÎ¬":7154,"ĠÛ²":7155,"Ġacqu":7156,"opt":7157,"ĠRunt":7158,"yg":7159,"ouve":7160,"side":7161,"mm":7162,"ĠMichael":7163,"ĠNel":7164,"Ġencuent":7165,"Ø§ÛĮÛĮ":7166,"Ð»Ð¸Ñĩ":7167,"Ġgiá»":7168,"erc":7169,"Ġtrav":7170,"Ġsido":7171,"ãģĹãģ¦ãģĦãģŁ":7172,"ĠÃºlt":7173,"ajÄħ":7174,"Î¹Î½":7175,"Ġ1965":7176,"ĠDev":7177,"ĠÐ¦":7178,"Ġgar":7179,"ãĥļ":7180,"áĥĹ":7181,"çłĶç©¶":7182,"2011":7183,"ÐºÐ¾Ð¼":7184,"Ġparticular":7185,"ĠEnde":7186,"Ġjako":7187,"ÏĦÎµ":7188,"ĠBill":7189,"irl":7190,"ched":7191,"Ð²ÐµÑģÑĤ":7192,"ĠStreet":7193,"cep":7194,"idi":7195,"ä»ĺ":7196,"ĠAustralia":7197,"Ġthough":7198,"ĠÙĩÙĬ":7199,"ciÃ³":7200,"ĠFil":7201,"amment":7202,"iving":7203,"Ġutiliz":7204,"Ġnhá»¯ng":7205,"ĠÎ¸":7206,"eda":7207,"Ġ×ĳ×ł":7208,"éģĶ":7209,"Ġdisco":7210,"Ġcame":7211,"Ġproblem":7212,"Ġ1966":7213,"ĠÐ¾ÑĢÐ³":7214,"Ġmenj":7215,"cas":7216,"Ġngh":7217,"ĠDivision":7218,"Ġimm":7219,"ĠCong":7220,"Ġhistory":7221,"Ãªu":7222,"ãĤĪãĤĬ":7223,"emente":7224,"Car":7225,"iesz":7226,"ĠChina":7227,"ĠHill":7228,"Úĺ":7229,"Ð¼Ñĭ":7230,"Ġminist":7231,"ÐµÑĢÐµÐ²":7232,"ÛĮØ´":7233,"Ġmillion":7234,"ĽĦ":7235,"ĠRecords":7236,"èİ":7237,"à¤Ń":7238,"Ġvideo":7239,"Ġspr":7240,"ĠOd":7241,"à¤ĸ":7242,"Ġ90":7243,"ãĥĶ":7244,"Ġeffect":7245,"ĠÄĳÃ³":7246,"ãĤ²":7247,"ÐµÐ½Ð½Ð¾":7248,"Î¯Î½Î±Î¹":7249,"Î¼ÎŃ":7250,"issensch":7251,"innen":7252,"eto":7253,"Ġbud":7254,"ĠProvin":7255,"Ġprimera":7256,"´Ģ":7257,"Nach":7258,"ax":7259,"ĠÑĤÐµÑĢ":7260,"190":7261,"×ł×Ķ":7262,"Ø¨Ø¯":7263,"Ġsat":7264,"resp":7265,"ĠVan":7266,"ĠEuropa":7267,"ëıĻ":7268,"Ġdic":7269,"Ġequ":7270,"ĠÃŃ":7271,"Ã¶ÃŁ":7272,"Ġjourn":7273,"ĠOff":7274,"ä»¶":7275,"Î¿ÏĤ":7276,"zym":7277,"anci":7278,"licher":7279,"hand":7280,"Ġ×ĳ×¡":7281,"itter":7282,"ector":7283,"ÙĨÙĬ":7284,"SA":7285,"Ã¼lt":7286,"At":7287,"ods":7288,"unst":7289,"æ°Ĺ":7290,"Ġcur":7291,"ĠáĥĶ":7292,"agement":7293,"Ġplusieurs":7294,"ulle":7295,"gende":7296,"Ġiz":7297,"ØµÙĦ":7298,"ĠHij":7299,"Ġnas":7300,"Ð´Ð¸Ð½":7301,"Ġartist":7302,"givningarna":7303,"Ġkonnte":7304,"ĠÐ¾Ð±Ð»Ð°ÑģÑĤÐ¸":7305,"skiej":7306,"anska":7307,"Ġdort":7308,"Ġside":7309,"istrict":7310,"ãĥĽ":7311,"aran":7312,"ĠØ§ÙĪØ±":7313,"Ġ×Ķ×Ľ":7314,"ĠGi":7315,"ĠÐ¿ÑĢÐµÐ·":7316,"ĠCompany":7317,"rew":7318,"ĠAle":7319,"ĠSom":7320,"ãģ«ãĤĪãĤĬ":7321,"Ġquest":7322,"47":7323,"Ġ×ķ×ĳ×":7324,"ãģĿãĤĮ":7325,"áĥĳ":7326,"ĠtÃ¤t":7327,"ÙĦØ¯":7328,"ĠChurch":7329,"ivamente":7330,"Ġcondu":7331,"çĻ»":7332,"ĠFlor":7333,"ĠÎŁ":7334,"ÐºÐ¾Ð»":7335,"ÙĦØ³":7336,"ĠBu":7337,"Ġbah":7338,"Ġerste":7339,"ĠVerb":7340,"ĠEnt":7341,"ĠMai":7342,"Ġgroupe":7343,"Ġdescrib":7344,"Ġ×ĳ×¨":7345,"ualmente":7346,"unds":7347,"inas":7348,"ĠAp":7349,"Ġzich":7350,"Ġdeze":7351,"isse":7352,"Ð°Ð¼Ð¸":7353,"rav":7354,"Ġapar":7355,"55":7356,"kehr":7357,"Ġliber":7358,"ãĤ´":7359,"ocrat":7360,"angs":7361,"ĠDur":7362,"ä¾Ĩ":7363,"Ġvic":7364,"ĠÐ¸Ñħ":7365,"99":7366,"Ġvil":7367,"à¸©":7368,"ĠSchw":7369,"ĠSon":7370,"Ġhuman":7371,"Ġinsp":7372,"hib":7373,"éī":7374,"Ġíĺ":7375,"Ġplaats":7376,"Ã©b":7377,"ĠhabÃŃa":7378,"ĠnÃº":7379,"ĠÐµÑĳ":7380,"ĠBor":7381,"à¸Ľà¸£à¸°":7382,"Ġdeter":7383,"Ð¸ÑĪ":7384,"Ġamong":7385,"100":7386,"BA":7387,"mus":7388,"rier":7389,"çļĦä¸Ģ":7390,"Ð»ÐµÐºÑģ":7391,"Ð¸Ð¼Ð¸":7392,"nig":7393,"ÙĦÙĩ":7394,"ĠlÃŃ":7395,"lak":7396,"Ġriv":7397,"abe":7398,"Amer":7399,"à°§":7400,"å£²":7401,"Ġmaterial":7402,"ĠtiÃªn":7403,"ĠOktober":7404,"Ġsed":7405,"Ġrag":7406,"Ãªncia":7407,"å¨":7408,"ĠpolÃŃt":7409,"ĠMiss":7410,"à´Ĺ":7411,"ĠMen":7412,"uri":7413,"riÃ¨re":7414,"ãģĵãģ¨ãģĮ":7415,"Ge":7416,"car":7417,"ÙĬØ«":7418,"áĢ·áĢº":7419,"assen":7420,"ĠdespuÃ©s":7421,"lant":7422,"ÑĢÐ¸ÑĤ":7423,"ovi":7424,"ÏĦÎµÏģ":7425,"æĥħ":7426,"Ġbil":7427,"erem":7428,"Ġà¦¶":7429,"Ã¡i":7430,"Ġ1962":7431,"æ»":7432,"Ã¶h":7433,"ì¹ĺ":7434,"Ġconv":7435,"cle":7436,"auer":7437,"Ġstad":7438,"atik":7439,"Ð»Ð¸Ð½":7440,"Ġbusiness":7441,"ĠMot":7442,"Ġëĭ¤":7443,"halten":7444,"Ã´n":7445,"æľ¨":7446,"Ġdocument":7447,"Ġcountry":7448,"ÑĪÐ¸Ð¹":7449,"ĠÐ½Ð°ÑģÐµÐ»":7450,"ĠÐ¼Ð½":7451,"ĠprÃ©":7452,"ĠTre":7453,"cs":7454,"ãģ«ãĤĪãģ£ãģ¦":7455,"ctor":7456,"Ġ1948":7457,"clus":7458,"Ġcandid":7459,"ĠÙĪØ£":7460,"adr":7461,"ĠBeg":7462,"Ġ1963":7463,"áĥĺáĥĵ":7464,"Ġ×ŀ×¡":7465,"ĠÐ³ÑĢÑĥÐ¿Ð¿":7466,"Ġ×Ķ×Ļ×Ķ":7467,"Ġbag":7468,"Ġvarmaste":7469,"medeltemperaturen":7470,"Ġkallaste":7471,"Ġmedeltemperaturen":7472,"album":7473,"Ġsau":7474,"rsmedeltemperaturen":7475,"orie":7476,"ÑīÐ°":7477,"ĠÏĢÎµÏģ":7478,"ĠOne":7479,"Ġsou":7480,"ĠSar":7481,"à¹Ģà¸£":7482,"ÑĬÐ»":7483,"uje":7484,"äººåı£":7485,"Î¿ÏħÏĤ":7486,"çĪ¾":7487,"bahn":7488,"ĠLat":7489,"Ð²Ðµ":7490,"ĠChe":7491,"rote":7492,"ĠÐºÐ¾Ð¼Ð°Ð½Ð´":7493,"Ġtrop":7494,"ĠSin":7495,"ĠÐ¸ÑģÐ¿Ð¾Ð»ÑĮ":7496,"ĠIV":7497,"Ġjuga":7498,"Ġfinale":7499,"æĺł":7500,"halb":7501,"ĠÏĦÎ±":7502,"Ġverd":7503,"Ġcolla":7504,"Ġrapp":7505,"eti":7506,"Ð¿ÑĢÐµ":7507,"ucht":7508,"Ġmiss":7509,"Ġ1946":7510,"tere":7511,"noc":7512,"à¹ĥà¸Ļ":7513,"Ð¾ÑģÐ»Ðµ":7514,"æīĵ":7515,"ÃŃc":7516,"erm":7517,"ĠAu":7518,"ĠBlack":7519,"Ġmonth":7520,"Ġtáº¡i":7521,"åĽ£":7522,"Ġ=":7523,"Ġallow":7524,"Ã¶nig":7525,"Ð»ÑĥÐ±":7526,"Ã¨ne":7527,"ĠÙĤØ±":7528,"ĠMusic":7529,"ral":7530,"íķĺëĬĶ":7531,");":7532,"igo":7533,"à¸Ńà¸¢":7534,"Ġwhat":7535,"ĠØªÙħ":7536,"Ġreach":7537,"çĶ·":7538,"Ġwent":7539,"Ġconstitu":7540,"Ð¥":7541,"Ã¤rz":7542,"ids":7543,"Ø§ÙĦÙĬ":7544,"à¸ĵ":7545,"åĨĽ":7546,"ãĥªãĤ«":7547,"çı¾åľ¨":7548,"errÃ¤ngen":7549,"ĠFir":7550,"ands":7551,"Ä±k":7552,"Ġexemp":7553,"èĤ²":7554,"Ġ×ŀ×ª":7555,"Ġkhi":7556,"ĠÏĨ":7557,"Ã¶k":7558,"2008":7559,"Ġfueron":7560,"enk":7561,"orio":7562,"ĠÐ³Ð´Ðµ":7563,"Ġimportant":7564,"Ġprimo":7565,"Ð²Ð¾Ð»":7566,"Ġë¬":7567,"ÙħØ©":7568,"íĶ":7569,"Ġorder":7570,"ÐºÐ¾Ð¹":7571,"ĠsÃ©":7572,"åħļ":7573,"Ġìłľ":7574,"åľŁ":7575,"ĠWashington":7576,"Ãªs":7577,"Ġstarted":7578,"å°Ĩ":7579,"Ġanci":7580,"Ġavant":7581,"Ġmunicipal":7582,"Ġsebuah":7583,"estaur":7584,"ĠJuni":7585,"ÐµÑĢÐµÐ´":7586,"laciÃ³n":7587,"áĢ¶":7588,"à¤°à¤¤":7589,"ãĥĹãĥŃ":7590,"Ġà°ļ":7591,"bu":7592,"ĠÐ¸ÑģÑĤÐ¾ÑĢÐ¸":7593,"à¦ĸ":7594,"ĠÃħrsmedeltemperaturen":7595,"åł±":7596,"hold":7597,"Ġped":7598,"ĠÐ²ÑĭÑģ":7599,"Ġ1956":7600,"amo":7601,"ÙĥÙĦ":7602,"alo":7603,"Ġmusical":7604,"ittle":7605,"éĺ¿":7606,"Ġfather":7607,"uti":7608,"Ø®Øª":7609,"upp":7610,"86":7611,"Ġ\"(":7612,"Ġconoc":7613,"ĠRichard":7614,"Ġ500":7615,"Ġzusammen":7616,"é¡ŀ":7617,"And":7618,"Ã»":7619,"Ġcir":7620,"áĥĿáĥľ":7621,"Ġkhoa":7622,"ĠKarl":7623,"TA":7624,"Ġvenne":7625,"ĠCer":7626,"fa":7627,"iog":7628,"ĠÐ½Ð°Ð·Ð²":7629,"ĠSÃ¼d":7630,"ĠHaupt":7631,"ĠEle":7632,"ĠÎµÎ¯Î½Î±Î¹":7633,"ederal":7634,"åĦª":7635,"×¨×ª":7636,"Ġcount":7637,"ĠtrÃ¨s":7638,"Ġevery":7639,"ĠÐºÐ¾ÑĤÐ¾ÑĢÑĭÐ¹":7640,"ĠPerson":7641,"áĥĺáĥļ":7642,"oven":7643,"ÑĨÐ¸Ð°Ð»ÑĮ":7644,"hab":7645,"zÅĳ":7646,"Ġ[[":7647,"ĠAcadem":7648,"sequ":7649,"atto":7650,"uma":7651,"44":7652,"ukan":7653,"ussa":7654,"ĠØ§ÙĦØ·":7655,"racht":7656,"Ú¯Ø±":7657,"onie":7658,"Ð¾Ñħ":7659,"ÑıÐ±ÑĢÑı":7660,"raz":7661,"89":7662,"Ġnos":7663,"Ä©":7664,"udi":7665,"Ġtent":7666,"èªį":7667,"ĠÑĤÐ¾Ð¼":7668,"ilo":7669,"ĠVict":7670,"ĠPan":7671,"å¤«":7672,"ĠÐ´Ð¸":7673,"å¤ī":7674,"å°¼":7675,"á»ĩn":7676,"hd":7677,"chte":7678,"Ġà°ľ":7679,"Ġberg":7680,"Ġrole":7681,"à¹ĥà¸«":7682,"ikk":7683,"Ġassoci":7684,"Î¹Î¬":7685,"ìļ°":7686,"Ġcentral":7687,"izo":7688,"Ġsimilar":7689,"Ġ1961":7690,"Ð¾ÑĢÑĤ":7691,"ĠÅŁ":7692,"Ġstruct":7693,"ĠBol":7694,"now":7695,"geme":7696,"ĠÐ¾Ð±ÑĬ":7697,"Î¿Î½":7698,"Ã¼m":7699,"àµ¾":7700,"ÙĨØª":7701,"ÙĦØ¨":7702,"ç²":7703,"Ã¡ly":7704,"Ġlugar":7705,"Ġcapital":7706,"ÙĦØ§ÙĦ":7707,"å¹´ãģ®":7708,"Ð±Ñĭ":7709,"2012":7710,"alan":7711,"Ġupp":7712,"anger":7713,"har":7714,"eite":7715,"Ø§Ø±ÙĬ":7716,"ĠcÃ´":7717,"Ã¶v":7718,"2000":7719,"Ġtrib":7720,"estra":7721,"ãĥ¼ãĤ¯":7722,"æĬĢ":7723,"Ġauthor":7724,"SS":7725,"Ð¼Ð°Ð½":7726,"×Ļ×Ļ×ª":7727,"ĠChristian":7728,"ĠÐ³Ð»Ð°Ð²":7729,"ë©´":7730,"ÙĥÙĬ":7731,"à¸į":7732,"esen":7733,"Ġestablished":7734,"Ð¿Ñĥ":7735,"bour":7736,"Ġáĥĺáĥ":7737,"istersch":7738,"ĠMartin":7739,"è¡ĵ":7740,"æ´¾":7741,"ĠÑĩÐ°ÑģÑĤ":7742,"ĠÑĢÐµÐ·":7743,"Ġsistema":7744,"éħį":7745,"Ġcoup":7746,"Ð¸ÑĤÐ°":7747,"Ġ1938":7748,"Ġcommon":7749,"Ġáĥŀ":7750,"Ø§ÙĦÙħ":7751,"ĠRob":7752,"×¨×ĺ":7753,"ĠLin":7754,"ĠÐ¿Ð¾Ð¿":7755,"Î½Î·":7756,"Ġmillimeter":7757,"contr":7758,"ĠPortug":7759,"ï¼Ľ":7760,"áĥĶáĥĳáĥĺáĥ¡":7761,"atura":7762,"ãģ¨ãĤĤ":7763,"ĠMy":7764,"Ġà¤ıà¤ķ":7765,"Ð½Ñĥ":7766,"Ġgan":7767,"Ġcover":7768,"ĠÐ¸Ð³":7769,"å½¹":7770,"ĠTex":7771,"TerrÃ¤ngen":7772,"Ġpoints":7773,"Ġgrupo":7774,"Ġhy":7775,"Ã¤lle":7776,"ÅĤu":7777,"ĠUnion":7778,"æĻĤä»£":7779,"á»©c":7780,"ĠÑĩÐ¸Ñģ":7781,"abei":7782,"áĥĿáĥ¡":7783,"Ġfield":7784,"Ġindustri":7785,"Ã±a":7786,"Ġ1958":7787,"oint":7788,"itti":7789,"íĦ°":7790,"ĠSl":7791,"ips":7792,"aged":7793,"Ġmur":7794,"Ã¡ch":7795,"Ãªm":7796,"Ġnaj":7797,"ĠFestival":7798,"éĬ":7799,"88":7800,"ules":7801,"áĥĶáĥĽ":7802,"uite":7803,"raste":7804,"ÐºÑĢÐ°":7805,"zeichnet":7806,"ĠBest":7807,"ĠváºŃt":7808,"Î®ÏĤ":7809,"Ġstre":7810,"ĠMary":7811,"ĠØ¶":7812,"bur":7813,"ĠÑģÐ¾Ð·Ð´":7814,"Ø³Ø±":7815,"Ġindepend":7816,"Ø§ÙĤØ¹":7817,"det":7818,"ë§Į":7819,"ĠÐ¼Ð¾Ð¶":7820,"Ġbecome":7821,"ĠHenry":7822,"Ð¾Ð½Ð¾Ð¼":7823,"Ġkes":7824,"ĠXX":7825,"ĠTom":7826,"unque":7827,"áĥ¨áĥĺ":7828,"ãĤ¸ãĥ£":7829,"Ġcuando":7830,"ĠCr":7831,"Ġnar":7832,"asser":7833,"Ġquel":7834,"ĠAward":7835,"ĠArgent":7836,"ÑģÐºÑĥÑİ":7837,"ÙĪØ´":7838,"ãģ§ãĤĤ":7839,"çļĦãģª":7840,"ÐµÐ¹ÑģÑĤÐ²":7841,"ãģ¨ãģ®":7842,"æļ":7843,"Ð¾Ð»Ð¾Ð¶":7844,"95":7845,"Ð¸Ð³":7846,"ĠAmerica":7847,"Ġbran":7848,"Ġagosto":7849,"Ġcharacter":7850,"Ġgames":7851,"Ġ×ľ×©":7852,"Ð°Ð²Ð°":7853,"76":7854,"ielen":7855,"Ø§Ú©":7856,"Ġìļ":7857,"ĠKrie":7858,"Ġbereits":7859,"ĠGeorg":7860,"ĠKl":7861,"Ġ1918":7862,"unced":7863,"ÄŁÄ±":7864,"Ø§ÙĨØ¯":7865,"Ġlic":7866,"Ġvuonna":7867,"Ð²Ð°Ð½":7868,"à¸²à¸§":7869,"Ġgenomsnitt":7870,"Ð»ÐµÐ´Ð¾Ð²":7871,"Ġhaben":7872,"ÐµÑĢÐ±":7873,"Ġdedic":7874,"ĠsÃ¶":7875,"iak":7876,"Ġanderen":7877,"Ġprevious":7878,"fte":7879,"hy":7880,"åĻ¨":7881,"ĠVers":7882,"ĠBud":7883,"âĢ¦":7884,"ĠsÃ©rie":7885,"ä¾ĭ":7886,"Ã©sz":7887,"Ġà¹ģà¸¥à¸°":7888,"ãĤ¢ãĥ«":7889,"ĠNeder":7890,"äºĶ":7891,"ĠØ´ÙĩØ±":7892,"ruck":7893,"ĠÐ¿Ð¾Ð·":7894,"Ġpresident":7895,"afts":7896,"ativa":7897,"ĠØ¹Ø¯":7898,"Ð¸Ð½Ñĭ":7899,"ĠÙħØ´":7900,"idence":7901,"Ġrecon":7902,"Ġstudents":7903,"Ø§Ø«":7904,"ware":7905,"ĠMark":7906,"Ġotr":7907,"Ġihrer":7908,"ĠCla":7909,"Ġeerste":7910,"ared":7911,"ĠSci":7912,"ÑĢÐµÐ½":7913,"ĠìĿ¼":7914,"Ġcours":7915,"Ġemplo":7916,"else":7917,"ĠLoÃłi":7918,"Ġfeature":7919,"ĠKe":7920,"åķĨ":7921,"Ġnet":7922,"Ġstudio":7923,"ä¸ĩ":7924,"otte":7925,"omet":7926,"ĠEstados":7927,"Ġdove":7928,"Ab":7929,"à¸ľ":7930,"Ġcha":7931,"à§¦":7932,"ãģ§ãģĤãĤĬ":7933,"aje":7934,"ĠReich":7935,"ĠFort":7936,"Ġyoung":7937,"can":7938,"ĠìĨ":7939,"ìĤ":7940,"ÑĢÐµÐ·":7941,"Ġ1954":7942,"æ¤":7943,"ains":7944,"Ġkir":7945,"íĨ":7946,"ĠHal":7947,"Ġà¦Ĺ":7948,"Ã½":7949,"ĠÃ¥rsn":7950,"Ġregnig":7951,"Ġtorraste":7952,"ÏĮÏĤ":7953,"omsnittlig":7954,"ĠÃ¥rsnederbÃ¶rd":7955,"Ġregnigaste":7956,"Ġfew":7957,"helm":7958,"ĠDistrict":7959,"çĶ£":7960,"áĥĶáĥłáĥ":7961,"Ġnor":7962,"ãĥ³ãģ®":7963,"ãĤĮãĤĭ":7964,"Ġ1959":7965,"Ġerw":7966,"à¸Ńà¸ģ":7967,"ĠRoman":7968,"ationen":7969,"ĠÚ©Ø±Ø¯":7970,"Ã¡nh":7971,"ĠÐºÐ°ÑĢ":7972,"Ġlatach":7973,"ĠGenomsnittlig":7974,"ksi":7975,"bet":7976,"åįĬ":7977,"film":7978,"Ġgol":7979,"Ġway":7980,"åĳ¼":7981,"Ġgev":7982,"Ġpays":7983,"Ġ65":7984,"icult":7985,"Ġcommand":7986,"ells":7987,"Ġconstruction":7988,"larak":7989,"à¸ł":7990,"ÏĥÎµÎ¹":7991,"ÏħÏĦ":7992,"Ġdied":7993,"Chr":7994,"Ġchurch":7995,"å°į":7996,"ĠSud":7997,"Ġ1947":7998,"ĠTod":7999,"Ú¯Ø§Ùĩ":8000,"ì°":8001,"Ġelement":8002,"ĠÐ±Ð¾Ð»ÑĮÑĪ":8003,"ĠYou":8004,"ÑģÐ¸ÑĤ":8005,"aller":8006,"ĠUnidos":8007,"ĠJoseph":8008,"46":8009,"ĠÎĵ":8010,"ification":8011,"ĠMinister":8012,"Ġtempo":8013,"éłĺ":8014,"ĠNacional":8015,"Ġthá»±c":8016,"ç¦ı":8017,"Ġtiene":8018,"Ġfois":8019,"×ĳ×¢":8020,"ÐŃ":8021,"angel":8022,"ĠÙĪÙĩ":8023,"Ġdifer":8024,"Ð¾Ð¶Ð´":8025,"2006":8026,"Ġnah":8027,"ĠÐ¡ÑĤ":8028,"2013":8029,"Ġìłķ":8030,"Ġnext":8031,"ĠÚ©Ø±":8032,"Ġadministrat":8033,"Ġdag":8034,"å¼·":8035,"Ġassist":8036,"ĠServ":8037,"erne":8038,"ilen":8039,"ãģĳãĤĭ":8040,"ĠAssociation":8041,"Ġì¤ĳ":8042,"Ġpress":8043,"ä½ľåĵģ":8044,"Ġsop":8045,"Ġà°¤":8046,"inal":8047,"ÑĮÑı":8048,"essor":8049,"akar":8050,"ĠHÃ¤n":8051,"Ġtitle":8052,"ÙĤÙĬ":8053,"ÅĤug":8054,"icy":8055,"Ġdirig":8056,"ĠÑįÑĤÐ¾":8057,"ultural":8058,"ĠiÃ§":8059,"iler":8060,"jekt":8061,"Ġbiz":8062,"ĠArbeit":8063,"Ġthá»ĥ":8064,"ental":8065,"lagen":8066,"Ġstag":8067,"cast":8068,"Ð¾Ð±Ñĭ":8069,"itet":8070,"fo":8071,"Ġ1952":8072,"ĠSi":8073,"ĠÃ¡lbum":8074,"éĻį":8075,"Ġoccup":8076,"noÅĽci":8077,"ifica":8078,"æ¨©":8079,"×ŀ×ķ":8080,"ĠØ³Ø±":8081,"Ġvarious":8082,"ĠÑĤÐµ":8083,"Ð¾ÑĪ":8084,"ussen":8085,"ĠCentral":8086,"larÄ±":8087,"âĢľ,":8088,"Ġnad":8089,"æ¥½":8090,"wan":8091,"Ġpur":8092,"ĠJanuar":8093,"ç·¨":8094,"ĠStr":8095,"Ġwid":8096,"Ġsor":8097,"Ġ1957":8098,"ĠÑĥÐ½Ð¸":8099,"77":8100,"å¦Ĥ":8101,"ĠpoblaciÃ³n":8102,"Ġperd":8103,"ĠÑĦÐ¾ÑĢ":8104,"ebut":8105,"æ§ĭ":8106,"Ġíķľ":8107,"Ġ×ķ×Ĳ":8108,"usti":8109,"ĠsÃ£o":8110,"è¿Ļ":8111,"Ġexc":8112,"ãĤīãĤĮãĤĭ":8113,"49":8114,"ĠngÃły":8115,"ÛĮØ²":8116,"à¸ģà¸£":8117,"Ġindividual":8118,"Ġsuff":8119,"ĠBrasil":8120,"Ġà°īà°¨":8121,"Ġwomen":8122,"ÐµÑĢÐ³":8123,"Ġanc":8124,"æĸ½":8125,"Ġsour":8126,"Ġobserv":8127,"2014":8128,"çĻ½":8129,"uras":8130,"Ø«Ø±":8131,"Ã©ta":8132,"bit":8133,"ĠÙħÙĤ":8134,"Ġlin":8135,"lik":8136,"ÑĨÐµÐ²":8137,"Ġotros":8138,"Ġcro":8139,"Ġhowever":8140,"astern":8141,"won":8142,"isti":8143,"atti":8144,"Ġkel":8145,"Ġtout":8146,"Ġquesto":8147,"ju":8148,"ĠdÃ©s":8149,"ĠÑĢÐ°Ñģ":8150,"mon":8151,"ĠíĻ":8152,"Ġclaim":8153,"Ġtym":8154,"ÑĨÐ¸Ñİ":8155,"iction":8156,"Ġheeft":8157,"ĠLib":8158,"aÃ±a":8159,"éķ¿":8160,"ĠcittÃł":8161,"ĠØ§ÙĪ":8162,"ĠâĢł":8163,"ÑĪÐ¸Ñħ":8164,"Ġverk":8165,"Ġ1936":8166,"Ġul":8167,"é¡Į":8168,"å·´":8169,"Ġà¦ī":8170,"Ġgiven":8171,"ÙĨØ§":8172,"ube":8173,"×ľ×§":8174,"ä½ı":8175,"Ġlangu":8176,"Ã©rica":8177,"åĤĻ":8178,"ecto":8179,"Ġ1949":8180,"Ġcamb":8181,"ĠRock":8182,"tained":8183,"ÏģÎµ":8184,"onto":8185,"ministr":8186,"ÑĢÐµÐ±":8187,"Ð²Ð°Ð»":8188,"udes":8189,"Ġkill":8190,"feld":8191,"Ġíķ":8192,"Ġdevelopment":8193,"ĠÐ¼ÐµÑĤ":8194,"×ŀ×ª":8195,"Ġaud":8196,"Ġerfolg":8197,"Ġusing":8198,"ĠÙħØ§":8199,"Ġsuiv":8200,"ĠMur":8201,"èª¿":8202,"ãģªãģı":8203,"ĠÑĩÐµÐ»Ð¾Ð²ÐµÐº":8204,"ÅĤaw":8205,"èĢĥ":8206,"ĠÎĴ":8207,"Ãłng":8208,"è«ĸ":8209,"ĠDez":8210,"Ð½Ð¾ÑģÑĤ":8211,"Ġbord":8212,"éĿŀ":8213,"stitute":8214,"Ġsens":8215,"ĠCD":8216,"66":8217,"tra":8218,"ĠGrund":8219,"³Û":8220,"ĠIsra":8221,"Ġà¦¹à¦¯":8222,"ãĤĮãģŁ":8223,"å½¼":8224,"Ġcivil":8225,"arts":8226,"ĠMuseum":8227,"ocia":8228,"78":8229,"Ġgreat":8230,"ujÄħ":8231,"Ġthuá»Ļc":8232,"Ġihn":8233,"ÑĢÑĥÐ´":8234,"Ġclos":8235,"usz":8236,"ĠArmy":8237,"asan":8238,"icle":8239,"oi":8240,"Ġì£¼":8241,"ÎºÎ±":8242,"ĠKat":8243,"Åĵ":8244,"ÑĥÑĢÐ³":8245,"Ġmodel":8246,"Ġtake":8247,"ĠÐ´ÐµÑĢÐµÐ²":8248,"olar":8249,"iten":8250,"è©¦":8251,"ÙĬØª":8252,"ĠParty":8253,"Ġpoi":8254,"ums":8255,"ĠØ¨Ø±Ø§ÛĮ":8256,"Ġolarak":8257,"ĠMÃ¤rz":8258,"Ġkep":8259,"ruz":8260,"Ġdirector":8261,"iá»ĩt":8262,"Ġworked":8263,"Ġmismo":8264,"Ð½Ð¸Ñı":8265,"ĠVon":8266,"Ġszer":8267,"into":8268,"aker":8269,"Ġà¤ªà¤°":8270,"ĠÑģÐµÐ»ÑĮ":8271,"Ġnei":8272,"Ã³p":8273,"åº§":8274,"Ã³m":8275,"ĠKur":8276,"Ã¶st":8277,"Ġoppos":8278,"âĢĿ.":8279,"Ġnelle":8280,"sur":8281,"Ġvot":8282,"iny":8283,"put":8284,"ÐĿÐ°":8285,"Ġcapac":8286,"áĥĶáĥĹ":8287,"iqu":8288,"iÃ¨me":8289,"ÑĥÐ·":8290,"ĠStan":8291,"enten":8292,"grund":8293,"ĠktÃ³re":8294,"Ġindic":8295,"êµĲ":8296,"ç´Ģ":8297,"ĠÐ»Ñİ":8298,"Ġhaving":8299,"Ġsac":8300,"Ġbur":8301,"Ġmid":8302,"ĠSaison":8303,"ãĥĥãĥĹ":8304,"ately":8305,"ĠwÃ¤hrend":8306,"à°¹":8307,"æĶ¿åºľ":8308,"Ð´Ð¶":8309,"éĢĻ":8310,"é¦Ļ":8311,"Ġ×ŀ×Ķ×":8312,"Ġcasa":8313,"Ġheute":8314,"ÑĨÐµ":8315,"×Ĺ×ª":8316,"Æ¡n":8317,"Ã¶re":8318,"ìļ©":8319,"ÙĨØ³":8320,"igung":8321,"ĠBal":8322,"ĠÐ±Ð¾Ð»ÐµÐµ":8323,"Ġvend":8324,"Ġile":8325,"iÃ§Ã£o":8326,"omer":8327,"bal":8328,"uman":8329,"Ġgleich":8330,"Ġpract":8331,"Ġproject":8332,"IS":8333,"Ġmentre":8334,"ordin":8335,"Ġjoined":8336,"ãĥ¼ãĤº":8337,"Ġbez":8338,"éĮ²":8339,"Univers":8340,"åİ»":8341,"Ġautom":8342,"Ã¤chst":8343,"Ġach":8344,"Ġì¶":8345,"altung":8346,"Ġtres":8347,"Ð¾ÑĦ":8348,"Ġfal":8349,"ĠFrancisco":8350,"ØŃØ¯Ø©":8351,"Ġ×©×Ķ×":8352,"essen":8353,"ĠÐ´Ð¾Ð¼":8354,"áĥĻ":8355,"Ġele":8356,"æŃ¢":8357,"Ġjego":8358,"Ø¹Ø¨":8359,"Ġproduced":8360,"à´¶":8361,"gang":8362,"zeug":8363,"kap":8364,"íļĮ":8365,"æĪĸ":8366,"Ġcommunity":8367,"Ġplayer":8368,"æĶ¾éĢģ":8369,"ĠKol":8370,"èĮ":8371,"unto":8372,"Los":8373,"ĠcÃ´ng":8374,"Ġperman":8375,"ĠHans":8376,"ÑıÑī":8377,"42":8378,"Ġreturned":8379,"Ġfebru":8380,"pret":8381,"ĠÐ½Ð°Ð´":8382,"Ġcapit":8383,"ningen":8384,"owego":8385,"Ġ1933":8386,"Ġgradu":8387,"Ġconfl":8388,"éĢĢ":8389,"ĠRod":8390,"Ġ1955":8391,"ĠCro":8392,"ãĤ¹ãĤ¿":8393,"Ġrip":8394,"ĠSpan":8395,"ram":8396,"Ġfrances":8397,"Ð¡Ð¡Ðł":8398,"uppen":8399,"Ġweiter":8400,"Ġì²":8401,"zenia":8402,"Ġcentre":8403,"rze":8404,"Ä±ndan":8405,"Î¿ÏħÎ½":8406,"Ã¦r":8407,"ĠMitglied":8408,"tein":8409,"íĸĪëĭ¤":8410,"åĳ¨":8411,"Äį":8412,"Ġê²ĥ":8413,"ÅĤÃ³w":8414,"eon":8415,"ãĤīãĤĮãģŁ":8416,"Ã©ben":8417,"éĥ¡":8418,"ienst":8419,"æĬķ":8420,"ĠÑĥÑģÑĤ":8421,"ĠTown":8422,"chni":8423,"Ġmedia":8424,"Ġerhielt":8425,"ãĥķãĤ¡":8426,"ĠÅ¼e":8427,"stant":8428,"used":8429,"ãĤ¢ãĥ¡":8430,"Ġcreated":8431,"orden":8432,"×Ļ×ĸ":8433,"quipe":8434,"Ð¸Ð²Ð°":8435,"MA":8436,"oute":8437,"ĠMun":8438,"Ġsar":8439,"ouvelle":8440,"Ġstar":8441,"yi":8442,"Ġoh":8443,"Ġ32":8444,"ĠÑĤÐ¾":8445,"Î¬Î½":8446,"Ex":8447,"Ġtorn":8448,"èĺ":8449,"2015":8450,"Ġë²":8451,"çĿĢ":8452,"ĠPresident":8453,"ÙĦØ§Ùħ":8454,"ĠÐ²Ñģ":8455,"Ġsemp":8456,"Ġchampion":8457,"Ġtrava":8458,"ãĤį":8459,"å¸«":8460,"Ġnota":8461,"ĠgÃ©nÃ©ral":8462,"Ġpromot":8463,"Ġsans":8464,"czas":8465,"Ã¼ber":8466,"ãģ«ãĤĤ":8467,"Ġnouve":8468,"ĠCe":8469,"ĠDis":8470,"ĠBerg":8471,"lear":8472,"ãģĹãģĭ":8473,"ãĤĴåıĹ":8474,"Ġrespect":8475,"×ķ×ķ":8476,"ĠCop":8477,"ulu":8478,"Ġkont":8479,"Ġà°²":8480,"ĠGroup":8481,"Ġlá»":8482,"áĥ£áĥł":8483,"erw":8484,"Ġbeiden":8485,"ĠThese":8486,"ĠIndian":8487,"Ð°Ð½Ñĭ":8488,"Ġ\"\"":8489,"×¨×¡":8490,"ĠAngeles":8491,"olare":8492,"ĠKÃ¶nig":8493,"usa":8494,"rap":8495,"ray":8496,"itude":8497,"Ġexamp":8498,"Ġvá»ģ":8499,"Ġep":8500,"ĠCont":8501,"Ġaward":8502,"Ġplant":8503,"ĠDre":8504,"Ġfab":8505,"Ġphys":8506,"Ġorient":8507,"å¸Ŀ":8508,"Ġmand":8509,"Ġservices":8510,"Ã©re":8511,"Ġsang":8512,"Ġremp":8513,"Ð½Ð°ÐºÐ¾":8514,"nt":8515,"Ġ1953":8516,"ĠGal":8517,"äºŀ":8518,"ÙħØ§Ø±":8519,"ctions":8520,"ĠDuring":8521,"Ġproduc":8522,"Ġ1919":8523,"é¤¨":8524,"Ġviv":8525,"Ã¼let":8526,"ĠEuropean":8527,"áĢ²":8528,"ount":8529,"bi":8530,"Ġappoint":8531,"ĠÄĳá»ĥ":8532,"ë£":8533,"Ø§Ø¯ÛĮ":8534,"Ġkil":8535,"inta":8536,"itch":8537,"çİĩ":8538,"ĠPac":8539,"à¦ĵ":8540,"rz":8541,"èĳĹ":8542,"2005":8543,"ĠkÃ¤":8544,"Ġhalf":8545,"ãĢħ":8546,"ĠÐ´ÐµÐ»":8547,"ĠÙ¾Ø±":8548,"ĠìŀĲ":8549,"RA":8550,"Ġllam":8551,"ĠØªØ¹":8552,"å®Į":8553,"ìĦł":8554,"ĠSmith":8555,"ĠÐ¸Ð·Ð²ÐµÑģÑĤ":8556,"ĠÎ»":8557,"ĠÐľÐ¾ÑģÐº":8558,"Ġà®İà®©":8559,"ĠÐ¾ÑĢÐ³Ð°Ð½Ð¸":8560,"ĠÃīt":8561,"Ġcapt":8562,"Ġfull":8563,"skim":8564,"å´":8565,"éĢŁ":8566,"Ãºt":8567,"Ġjap":8568,"Ġ1937":8569,"Ġà¦ıà¦¬":8570,"ĠJer":8571,"Te":8572,"ÐµÐºÑĤ":8573,"Ġà´¤":8574,"irat":8575,"edy":8576,"Ġcateg":8577,"ãĥ¤":8578,"ĠCouncil":8579,"ĠÐ³Ð¾Ð»":8580,"ĠBei":8581,"Ġrelativ":8582,"ÙĤÙĦ":8583,"Ġsamh":8584,"ĠÑģÐ°":8585,"ĠÐłÐ¾ÑģÑģÐ¸Ð¸":8586,"ospital":8587,"ĠNg":8588,"ĠÃ´":8589,"rÃ¡":8590,"Ġsit":8591,"falls":8592,"ĠHot":8593,"Ġanos":8594,"arono":8595,"Ġcit":8596,"ĠÑģÑĤÑĢÐ°":8597,"uno":8598,"ĠÐ¿Ð¾ÑĤ":8599,"Ġworks":8600,"ÑıÐ´":8601,"Ġvie":8602,"87":8603,"Ġdivision":8604,"Ġpeng":8605,"å¯¹":8606,"ĠItalia":8607,"Ġlleg":8608,"rique":8609,"Ð°Ð½Ð´Ð¸":8610,"iÃ¨re":8611,"wh":8612,"Ġfamille":8613,"Ġalm":8614,"ãģ¹":8615,"Ġfavor":8616,"Ġspecies":8617,"áĢ°":8618,"éĻĲ":8619,"Ġpolitical":8620,"sce":8621,"Ð¼Ð°ÑĤ":8622,"tron":8623,"ĠmyÃ¶s":8624,"Ġging":8625,"ÑģÑĮ":8626,"uur":8627,"usion":8628,"inda":8629,"ĠÐŁÐ¾":8630,"day":8631,"Est":8632,"ãĤ¢ãĥ¡ãĥªãĤ«":8633,"ĠÐ³Ð¾ÑģÑĥÐ´Ð°ÑĢ":8634,"ĠØªØ±":8635,"isÃ©":8636,"ĠOper":8637,"ending":8638,"yen":8639,"ĠKom":8640,"rog":8641,"Ġmarzo":8642,"×¨×Ļ":8643,"2016":8644,"Ġ(;":8645,"ÑĭÑĪ":8646,"ĠKap":8647,"lied":8648,"ĠPlatz":8649,"Ġfrequ":8650,"ä»£è¡¨":8651,"Es":8652,"ÃŃm":8653,"Ġpersonal":8654,"Ġtransport":8655,"Ġtom":8656,"azine":8657,"ahren":8658,"Ã¡rio":8659,"Ð¸Ð½Ðµ":8660,"Ġiniti":8661,"luss":8662,"orb":8663,"Ġíķĺ":8664,"respond":8665,"icio":8666,"ĠáĥĹ":8667,"ä¼Ĭ":8668,"Ġfeatur":8669,"win":8670,"ĠgrÃ¶ÃŁ":8671,"ĠLud":8672,"è³ĩ":8673,"Ġsá»±":8674,"ES":8675,"Ã¼g":8676,"ç¶ĵ":8677,"Ġimportante":8678,"Ġrif":8679,"FC":8680,"Ġà¦ªà¦°":8681,"ĠAcc":8682,"ĠBan":8683,"ĠÑĩÐµÐ¼Ð¿Ð¸Ð¾Ð½":8684,"Ġpuede":8685,"stein":8686,"ĠJuan":8687,"szy":8688,"anth":8689,"issance":8690,"ç´ļ":8691,"ĠDi":8692,"ãģ«ãģ¤":8693,"Ġfind":8694,"Ġembar":8695,"ĠWind":8696,"ĠKanada":8697,"Ġzeuden":8698,"jon":8699,"Ġdens":8700,"ĠNap":8701,"è³ŀ":8702,"Ġposit":8703,"ÄŁi":8704,"æĸĻ":8705,"elig":8706,"ĠTim":8707,"jes":8708,"Ġ36":8709,"Ġoffer":8710,"Ġfon":8711,"Ð»ÐµÐ½Ð¸Ðµ":8712,"ĠCenter":8713,"Ġvolta":8714,"ĠÙĪØ§ÙĤØ¹":8715,"Ġsan":8716,"×ł×Ļ×Ŀ":8717,"±°":8718,"âĢŀ":8719,"ÏģÏĩ":8720,"ĠÄĳá»ĭ":8721,"Ġjoue":8722,"ĠÑıÐ²Ð»ÑıÐµÑĤÑģÑı":8723,"ä¿®":8724,"Ġdefe":8725,"allo":8726,"Ġannounced":8727,"som":8728,"íĮ":8729,"Ġpast":8730,"åķı":8731,"uble":8732,"ãģ«å¯¾":8733,"ielte":8734,"ĠÚ©Ø§":8735,"Ġnotamment":8736,"Ġkul":8737,"ĠØ§ÛĮ":8738,"krie":8739,"Ġmonde":8740,"lace":8741,"çķ¶":8742,"à¥Īà¤Ĥ":8743,"ÑĢÐ¸ÑĤÐ¾ÑĢÐ¸":8744,"Ġdah":8745,"ĠPrem":8746,"ĠTa":8747,"Ġtimes":8748,"ë§Ī":8749,"Ð¾Ñī":8750,"usi":8751,"Ġattack":8752,"ÏģÎ·":8753,"Ġcada":8754,"ĠApp":8755,"Ġpert":8756,"Ġfest":8757,"Ġcontinued":8758,"ĠëĲ":8759,"Ġvoc":8760,"Ġsulla":8761,"cze":8762,"Ð§":8763,"Ġhaar":8764,"pression":8765,"ëªħ":8766,"Per":8767,"æĲ":8768,"owym":8769,"ĠmÃºs":8770,"×¨×Ķ":8771,"Ġresearch":8772,"æ³¢":8773,"ĠkÃ¶nnen":8774,"éīĦ":8775,"abel":8776,"Ġteil":8777,"Ġ×Ļ×©":8778,"Ġtodos":8779,"ĠMass":8780,"zza":8781,"ĠÐ¾ÑĤÐ½Ð¾":8782,"Ġjaar":8783,"áº±ng":8784,"Ġgem":8785,"åĪ¤":8786,"Ð½Ð¸Ðµ":8787,"Ġpubblic":8788,"ĠDepart":8789,"Ġ1951":8790,"41":8791,"chsel":8792,"ellow":8793,"chan":8794,"Ġinstr":8795,"ĠJosÃ©":8796,"di":8797,"plic":8798,"Ġ×ŀ×¢":8799,"orde":8800,"ĠOrt":8801,"ĠLaw":8802,"ĠìĬ":8803,"å°İ":8804,"Ġanal":8805,"Ã¶ffentlich":8806,"Ġstata":8807,"áĢļ":8808,"ĠÐ´Ð°Ð½":8809,"ÏĥÎ¹":8810,"500":8811,"wig":8812,"BS":8813,"ligen":8814,"à¸ĺ":8815,"ĠDeutschland":8816,"usse":8817,"ĠÚ©ÙĪ":8818,"ĠÙħØ¬":8819,"Ä±nÄ±":8820,"aires":8821,"ften":8822,"Ġà¦ıà¦ķ":8823,"ÙĬÙĪ":8824,"nas":8825,"ĠPubl":8826,"stellung":8827,"olution":8828,"Ġ×ĳ×Ķ×":8829,"uela":8830,"egn":8831,"Ġ(,":8832,"Ġleng":8833,"issement":8834,"ÙĥØ±":8835,"Ġrail":8836,"bers":8837,"ĠWer":8838,"All":8839,"Ã©ric":8840,"43":8841,"lique":8842,"è£ħ":8843,"ĠGovern":8844,"Ġìĸ":8845,"Ġdiesem":8846,"Ð·Ð½Ð°Ñĩ":8847,"Ġcentro":8848,"Ġub":8849,"à¹Ģà¸ģ":8850,"ãģ§ãģ®":8851,"arios":8852,"Het":8853,"Ġbal":8854,"æĿ±äº¬":8855,"After":8856,"á»ĥ":8857,"Ġwithout":8858,"Ġaltern":8859,"×Ĺ×§":8860,"ĠSpr":8861,"ÐµÐ³":8862,"oda":8863,"Ġê³µ":8864,"å®¹":8865,"ĠNet":8866,"MS":8867,"Ġpens":8868,"ither":8869,"esz":8870,"Ġjou":8871,"Ã¡nd":8872,"ÏģÏī":8873,"åı¯èĥ½":8874,"Ġinvestig":8875,"ĠØ±ÙĪ":8876,"79":8877,"ĠWhen":8878,"Ġbatt":8879,"ĠKirche":8880,"orp":8881,"Ġsaison":8882,"Ġeran":8883,"omi":8884,"leri":8885,"ĠmÃ¡":8886,"stru":8887,"Ġasp":8888,"Ġinterest":8889,"íķĺìĺĢëĭ¤":8890,"Ø¹Ø¶":8891,"ĠìĿ¸":8892,"Ø¨Ùĩ":8893,"á»Ļi":8894,"icago":8895,"à´§":8896,"ein":8897,"Ġlevel":8898,"Ġtard":8899,"ecz":8900,"Ġhold":8901,"Ġpossib":8902,"çĬ¶":8903,"Ã¡o":8904,"Ġë¯":8905,"ÑĢÐµÐ²":8906,"ively":8907,"Ġredu":8908,"ÐµÑģÐ¿":8909,"ĠLeb":8910,"Ġattem":8911,"Az":8912,"áĥĲáĥª":8913,"Ġstatt":8914,"ĠreprÃ©s":8915,"chs":8916,"ĠDezember":8917,"ĠØ£ÙĬ":8918,"æĶ»":8919,"èĪª":8920,"Ð¸ÑģÑĤÐµÐ¼":8921,"Ġprzed":8922,"Ang":8923,"Ġdessen":8924,"Ġcam":8925,"çĨ":8926,"Ġjud":8927,"è¶³":8928,"åģ´":8929,"Ġwrote":8930,"emin":8931,"hout":8932,"itta":8933,"68":8934,"Ġà¦ĵ":8935,"neo":8936,"indi":8937,"Ġestim":8938,"ĠvÃ¤ster":8939,"Ġvida":8940,"è¦ĸ":8941,"ĠOst":8942,"èĸ":8943,"Ġ1934":8944,"Be":8945,"Ðķ":8946,"ĠTechn":8947,"ĠCa":8948,"ëŁ¬":8949,"Ġwritten":8950,"ÌĦ":8951,"orial":8952,"Ġespecial":8953,"ĠVerein":8954,"skich":8955,"ĠFol":8956,"ĠsÃ¥":8957,"Ġgy":8958,"oming":8959,"Ġbá»ĭ":8960,"schlieÃŁ":8961,"ĠCarol":8962,"mals":8963,"Ġ150":8964,"Ġdata":8965,"ouver":8966,"Ġ1935":8967,"ãģłãģ£ãģŁ":8968,"ĠÐ²Ð¾Ð´":8969,"Ġmilitary":8970,"berto":8971,"ĠÐ±ÐµÐ·":8972,"ĠÐ¾ÑĤÐº":8973,"Ð¾ÑĢÐ¾Ð²":8974,"ĠÐ²Ð¾Ñģ":8975,"Ġsuite":8976,"ãĤ·ãĥ§ãĥ³":8977,"elte":8978,"ierno":8979,"self":8980,"72":8981,"Ġnag":8982,"Ġbelie":8983,"Ġà´İ":8984,"å¹¶":8985,"ĠBere":8986,"à¹Ģà¸¡":8987,"åĮħ":8988,"Ġnumero":8989,"Ġtodo":8990,"ÐµÐ´Ð¸Ð½":8991,"Ø§Ø¯ÙĬ":8992,"fahr":8993,"aug":8994,"okat":8995,"ĠìľĦ":8996,"Ãªte":8997,"Ġquale":8998,"Ġattra":8999,"ĠAmerika":9000,"éº":9001,"ÙħØ±ÙĬ":9002,"ĠsÃ¼d":9003,"Ð°Ð½Ð¾":9004,"Ġfamilia":9005,"ĠKn":9006,"piel":9007,"Ð¼ÐµÑĢÐ¸":9008,"Ġautres":9009,"ways":9010,"Ġavait":9011,"aix":9012,"Ġtanto":9013,"Ã¶rt":9014,"áĢºáģĭ":9015,"nehmen":9016,"ç¬¬ä¸Ģ":9017,"Ġengine":9018,"ilos":9019,"Ġ×Ľ×ľ":9020,"ĠÐ¸Ð¼Ðµ":9021,"kom":9022,"ÑĬÑĤ":9023,"ĠJust":9024,"æ§ĺ":9025,"ä¾Ľ":9026,"erve":9027,"Ø®Øµ":9028,"ĠÐŁÑĢÐ¸":9029,"Ġê²½":9030,"xer":9031,"æ¸ħ":9032,"egrÃ¼nd":9033,"2001":9034,"ĠLac":9035,"ĠEuro":9036,"ĠÐĲÑĢ":9037,"egu":9038,"Ġmont":9039,"CO":9040,"ÑıÑĤÐ¸":9041,"ãģ®ä¸Ģ":9042,"ĠØ¨ÙĦ":9043,"ĠÑģÐ¾ÑģÑĤÐ°Ð²Ð»Ñı":9044,"Ã¼ng":9045,"ĠMÃ¼n":9046,"del":9047,"Ġreci":9048,"Ø§Ø±Ø©":9049,"pf":9050,"nica":9051,"ĠÐ²Ðº":9052,"Ġrelations":9053,"ostr":9054,"iken":9055,"fang":9056,"Ġik":9057,"ological":9058,"çĪ¶":9059,"ĠGold":9060,"itas":9061,"igne":9062,"wal":9063,"Ġtax":9064,"inin":9065,"Ġregular":9066,"Ġfine":9067,"Ġbomb":9068,"ĠtrÃªn":9069,"Is":9070,"ÑıÐ¼":9071,"IA":9072,"ĠbaÅŁ":9073,"ÏĪ":9074,"ÑıÑĤÐµÐ»ÑĮ":9075,"Ġweb":9076,"iante":9077,"board":9078,"ĠÙĪØ¬":9079,"Ġconqu":9080,"cÃ³w":9081,"Ġforces":9082,"ockey":9083,"ãģ¨ãģªãĤĭ":9084,"ÄĻd":9085,"éĻ¸":9086,"ĠÑĢÐµÑĪ":9087,"Ġopt":9088,"ĠrÃ©alis":9089,"schied":9090,"owi":9091,"Ð°Ð»Ð¾":9092,"ä¸ľ":9093,"Ġcertain":9094,"Ġcollect":9095,"iso":9096,"ÙģØª":9097,"stÃ¤nd":9098,"ĠÎ¬":9099,"ÐµÐ²Ð¸Ñĩ":9100,"ĠÙĦÙħ":9101,"edeut":9102,"Ġwyst":9103,"Ġofficial":9104,"Ġenviron":9105,"Ġtourn":9106,"Ġ300":9107,"å¼Ģ":9108,"gra":9109,"áĥĲáĥ®":9110,"ulation":9111,"Ġbland":9112,"ĠØ¨Ø¯":9113,"eve":9114,"Ġstyle":9115,"Ġ×Ķ×ĵ":9116,"ases":9117,"Ġzd":9118,"olle":9119,"ÑĤÐ¾ÑĢÐ°":9120,"Ġkans":9121,"æĤ":9122,"çª":9123,"ĠnÃºmer":9124,"No":9125,"ĠÏĦÎ¿ÏħÏĤ":9126,"2004":9127,"ëĲľ":9128,"ytt":9129,"áĢ«":9130,"åºĥ":9131,"iglia":9132,"ĠTro":9133,"Ġ1914":9134,"Ð½ÐµÐµ":9135,"Ġverschied":9136,"Ġhay":9137,"unÃ¤chst":9138,"Ġdipl":9139,"ãĥĴ":9140,"presa":9141,"ĠGreen":9142,"ãģªãģĭãģ£ãģŁ":9143,"Ġfino":9144,"Ġprend":9145,"56":9146,"ĠTy":9147,"riv":9148,"ĠsÄħ":9149,"ëĭĪ":9150,"ĠHoch":9151,"Ġtijd":9152,"Ġfounded":9153,"Ġ×Ķ×Ļ×Ĳ":9154,"ĠStad":9155,"ĠÐ¿ÐµÑĢÐµÐ´":9156,"embro":9157,"98":9158,"Ã¤st":9159,"ÏĥÎ·ÏĤ":9160,"ologia":9161,"Ġtype":9162,"Ġà¤ļ":9163,"Ġvit":9164,"ĠRail":9165,"Ð¾Ð»Ð¾":9166,"attend":9167,"tempor":9168,"Ġdeel":9169,"æł¹":9170,"Ġgibt":9171,"Ġpie":9172,"ĠchÃŃnh":9173,"volution":9174,"à¸Ńà¸£":9175,"Ġmuy":9176,"oney":9177,"ega":9178,"Ġconsid":9179,"Ġconsidered":9180,"ifs":9181,"ãĤĴè¡Į":9182,"ĠGran":9183,"áº·c":9184,"åľĴ":9185,"Ġface":9186,"à¤Ī":9187,"almente":9188,"ĠDu":9189,"zem":9190,"ĠØ§ÛĮØ±":9191,"éłŃ":9192,"egy":9193,"Ð±Ð°":9194,"ĠÃ¥t":9195,"oty":9196,"ĠCat":9197,"ership":9198,"ÑĢÐµÑĤ":9199,"Ġfriend":9200,"Ġlag":9201,"Ġfirm":9202,"ichts":9203,"ĠÐ¶ÐµÐ½":9204,"ĠSand":9205,"ĠâĢĺ":9206,"ĠÑģÐ¾ÑģÑĤÐ¾Ñı":9207,"ÐµÑĤÑĭ":9208,"Ġ1928":9209,"ĠÐºÑĢÐ°":9210,"Ġlive":9211,"ĠRio":9212,"Ġjunto":9213,"ĠyÄ±l":9214,"96":9215,"ĠPed":9216,"Ġ1917":9217,"ivos":9218,"Ġ1929":9219,"iku":9220,"aul":9221,"Com":9222,"wad":9223,"Ġíı":9224,"Ã¼ss":9225,"ference":9226,"ãĤĢ":9227,"ER":9228,"hm":9229,"undial":9230,"Ġved":9231,"ê³Ħ":9232,"Ġtelevision":9233,"à¹Ĥà¸Ķ":9234,"etÃł":9235,"atos":9236,"cont":9237,"á»ĳng":9238,"ĠScott":9239,"ĠNh":9240,"anni":9241,"ĠSociety":9242,"ä¸¡":9243,"á»ī":9244,"ĠÐ·Ð²":9245,"Ġcollabor":9246,"mond":9247,"è¬":9248,"Ġtemps":9249,"ĠÑĥÐ´":9250,"ĠKong":9251,"Ã©nt":9252,"Ġmarried":9253,"Ã³b":9254,"Ġtoget":9255,"èĲ½":9256,"ĠØªÙĤ":9257,"ä»Ĭ":9258,"ë¬¸":9259,"Ġnorr":9260,"á»ģn":9261,"ĠÑĤÐ¾Ð³Ð¾":9262,"ĠÃľber":9263,"Ġsigui":9264,"Ġantes":9265,"Ã¶z":9266,"kor":9267,"é£Ł":9268,"izio":9269,"à¸²à¸Ĭ":9270,"Ã©ra":9271,"ĠÑįÑĤÐ¾Ð¼":9272,"ĠÐ¿Ð¾Ð±":9273,"ĠCarl":9274,"æĺŃ":9275,"face":9276,"Ġput":9277,"straÃŁe":9278,"éĺ²":9279,"ĠÎ±ÏĢÎ¿":9280,"æ°ı":9281,"Ġtiem":9282,"Ġdays":9283,"áĢĸ":9284,"æĻ®":9285,"Ġtogether":9286,"istes":9287,"Ġsay":9288,"Ð²Ð°ÑĤ":9289,"Ã¤nde":9290,"uelle":9291,"ĠEinw":9292,"teurs":9293,"ÙĩØ¯":9294,"é¨":9295,"×¥":9296,"Ø§ÙĨÙĩ":9297,"ä»¤":9298,"Ã¡d":9299,"wy":9300,"çľŁ":9301,"ĠBut":9302,"Ġright":9303,"Ġult":9304,"éĽ¢":9305,"ĠØ¨Ø§Ø²":9306,"Û±Û":9307,"Ġreti":9308,"fect":9309,"osc":9310,"ĠÐ´Ð¾Ð»Ð¶":9311,"Ð°Ð»Ð¸ÑģÑĮ":9312,"Ġparty":9313,"Ġdiss":9314,"ÙĥØª":9315,"Ġbanda":9316,"ky":9317,"Ġmiejsc":9318,"ãģ¸ãģ®":9319,"ĠÐ¼ÐµÐ¶Ð´Ñĥ":9320,"icia":9321,"Ø¯Ø©":9322,"Ġìľł":9323,"ĠÃ´ng":9324,"nat":9325,"Ġmere":9326,"igine":9327,"Ġbekannt":9328,"é¾":9329,"\";":9330,"oy":9331,"Ġdin":9332,"Ġà¦ļ":9333,"Ġwen":9334,"ÃŃp":9335,"Ġcase":9336,"ĠFÃ¼r":9337,"Î¼ÏĢ":9338,"è³½":9339,"less":9340,"ĠRoad":9341,"×¤×ª":9342,"ettiin":9343,"zÃ¶s":9344,"ÙĥÙĪÙĨ":9345,"åĬ¨":9346,"2017":9347,"Ġdla":9348,"Ġmeer":9349,"Ġhu":9350,"Ġrestaur":9351,"Ġqualif":9352,"84":9353,"æ¿":9354,"ĠasÃŃ":9355,"Ġjuni":9356,"å®Ĺ":9357,"Ġjur":9358,"Ġvel":9359,"×ĳ×Ĳ":9360,"uvent":9361,"arden":9362,"à§Ĥ":9363,"Ġdecember":9364,"oke":9365,"nÃ©":9366,"ĠHon":9367,"Ġetx":9368,"×Ĵ×ľ":9369,"ĠczÄĻ":9370,"71":9371,"Ġczas":9372,"Ġmeet":9373,"ĠDam":9374,"ĠGroÃŁ":9375,"Î¸Î·ÎºÎµ":9376,"ĠíĶ":9377,"ĠWhite":9378,"ĠJun":9379,"ainen":9380,"Ã¤v":9381,"ĠØ§ÙĦÙĪ":9382,"Ġletz":9383,"ĠÑĤÐµÐ»":9384,"ĠØ§ÙĦÙħØªØŃØ¯Ø©":9385,"ģ¬":9386,"ĠGio":9387,"Ġà¸ŀ":9388,"ierra":9389,"wor":9390,"gebiet":9391,"83":9392,"aty":9393,"Ġopened":9394,"ĠPop":9395,"ĠDiese":9396,"çļĩ":9397,"ÙĬÙĨØ©":9398,"à¹Ģà¸Ĺ":9399,"Ġzm":9400,"ĠPlay":9401,"ĠAlf":9402,"ingu":9403,"åĳĺ":9404,"Ġ×Ĵ×Ŀ":9405,"à¸Ħà¸£":9406,"ĠÐ¾Ð±ÑīÐµ":9407,"Ġselbst":9408,"ĠFeder":9409,"Ġchi":9410,"Ġ×ľ×¢":9411,"è©±":9412,"Ġview":9413,"ĠÃĦ":9414,"Ġalgun":9415,"kir":9416,"Ġstory":9417,"ĠBez":9418,"Î¿Ïģ":9419,"Ġà¤¥":9420,"æĪ°":9421,"tagon":9422,"ĠRen":9423,"Ð²ÐµÑĢÑģÐ¸ÑĤ":9424,"has":9425,"Ġà°¬":9426,"Ġpred":9427,"ables":9428,"ĠÑĤÐµÐ¼":9429,"Ġrace":9430,"ĠInstitute":9431,"áĥĶáĥĵ":9432,"áĥĶáĥĳáĥĺ":9433,"Ac":9434,"ĠÐ¾Ð±ÑĢÐ°Ð·Ð¾Ð²":9435,"Ġimpro":9436,"Ã¤tt":9437,"eler":9438,"ishing":9439,"é«Ķ":9440,"issenschaft":9441,"Ġcoach":9442,"Ġ1932":9443,"oms":9444,"ĠÐ½ÐµÑģÐº":9445,"ĠEv":9446,"Ġprofessional":9447,"ÙĬØ¹":9448,"Ġtransfer":9449,"Ã©ro":9450,"ĠstÃ¶rre":9451,"ĠÐ²ÑĤÐ¾ÑĢ":9452,"ensus":9453,"ĠÑĤÐ¾Ð»ÑĮÐºÐ¾":9454,"ãĥ¼ãĤ¸":9455,"ennis":9456,"Ġhelp":9457,"Ġmenjadi":9458,"ĠHaus":9459,"ÙĬØ±Ø©":9460,"è©²":9461,"cke":9462,"Ġsept":9463,"Ġavoir":9464,"ĠCanad":9465,"ĠMah":9466,"ãĥķãĤ£":9467,"å±ĭ":9468,"Ġsquad":9469,"Ġfurther":9470,"àµģ.":9471,"Ġroman":9472,"Ð°ÑĤÐµ":9473,"Ġbegann":9474,"ĠdÃ¢n":9475,"Ġcaso":9476,"mitt":9477,"ĠProgr":9478,"Ġì°":9479,"elling":9480,"ĠÑģÐ²ÑıÐ·":9481,"Ġtiáº¿":9482,"ĠPlan":9483,"ìĭł":9484,"icc":9485,"ä¸Ńå¿ĥ":9486,"Å©ng":9487,"eks":9488,"ĠLie":9489,"áĥĿáĥļ":9490,"Ġtemporada":9491,"oby":9492,"ĠRadio":9493,"Ġproper":9494,"quel":9495,"ĠÐķÐ²":9496,"Ġzaw":9497,"Ġlost":9498,"ĠrÃ©gion":9499,"Ġsuoi":9500,"zug":9501,"ĠSup":9502,"82":9503,"äºī":9504,"ĠGew":9505,"74":9506,"ativo":9507,"èī¦":9508,"ĠTexas":9509,"ĠWith":9510,"mu":9511,"íķĺê³ł":9512,"utions":9513,"å¼µ":9514,"Ġcolon":9515,"ÑĢÐ°Ð±Ð¾ÑĤ":9516,"New":9517,"×ľ×Ĺ":9518,"æľª":9519,"ĠInf":9520,"ĠelÅĳ":9521,"ĠdiffÃ©r":9522,"æĽ¾":9523,"gre":9524,"âĢĿ,":9525,"è§Ĵ":9526,"Ġhabitantes":9527,"ĠÐ°Ðº":9528,"ÑĢÐ¾Ðº":9529,"ÑĤÐ¸ÑĩÐµ":9530,"ĠPen":9531,"arbeit":9532,"Ġless":9533,"Î¼Î¬":9534,"Ð¸ÐºÐ°":9535,"Ġë³´":9536,"å°ĩ":9537,"Ġinfluen":9538,"ÙĢ":9539,"Ġzitu":9540,"ãģ«ãģĬãģĦãģ¦":9541,"ÑĨÐ¸Ð¾Ð½Ð°Ð»ÑĮ":9542,"Ġhost":9543,"Ġuk":9544,"even":9545,"ĠLandes":9546,"Ġters":9547,"Ø«ÙĦ":9548,"áº£ng":9549,"ĠAth":9550,"Ġstrat":9551,"Ġforam":9552,"Ã¶glich":9553,"Ġ1900":9554,"ÙĪØ³Ø·":9555,"ĠÑģÑĭ":9556,"Ġround":9557,"Ġ1924":9558,"Ġarg":9559,"iÄħz":9560,"Ġnun":9561,"Ġteach":9562,"VD":9563,"Ã©ration":9564,"é¢¨":9565,"OS":9566,"ĠVirgin":9567,"jar":9568,"ĠSy":9569,"ÑĭÐ²Ð°":9570,"Ġelection":9571,"Ġbron":9572,"orea":9573,"ĠØ³ÛĴ":9574,"Ġpropri":9575,"ĠfÃ¼n":9576,"igan":9577,"æĿ¡":9578,"Ð»ÐµÐºÑģÐ°Ð½Ð´":9579,"ience":9580,"uke":9581,"Ġ×ĳ×§":9582,"Ġappeared":9583,"aign":9584,"è¦ª":9585,"quer":9586,"lap":9587,"åħ§":9588,"sÅĳ":9589,"ĠÚ©Ø´":9590,"uted":9591,"Ġdonn":9592,"Ġformed":9593,"Ġsav":9594,"ĠFriedrich":9595,"lim":9596,"Ġtidak":9597,"ĠEgy":9598,"ĠRoma":9599,"ĠmÃ´":9600,"lauf":9601,"akter":9602,"irtschaft":9603,"ĠSystem":9604,"Ø§ÙĨÙĬØ©":9605,"Ð¾Ð³ÑĢÐ°ÑĦ":9606,"ĠNederland":9607,"Ġ×ŀ×Ĺ":9608,"ØµØ±":9609,"Ġitu":9610,"ìľĦ":9611,"Ä±s":9612,"ĠOrgan":9613,"Ġsum":9614,"ÙĬÙģ":9615,"æ¯į":9616,"Ð¸Ð½Ð³":9617,"Î³Îº":9618,"ising":9619,"ĠÐºÐ¾ÑĤÐ¾ÑĢÑĭÐµ":9620,"éĻ¤":9621,"Ġjak":9622,"à±ģ,":9623,"Ġintegr":9624,"mina":9625,"ĠÑģÐ¾Ð²ÐµÑĤ":9626,"astÄĻp":9627,"Ġaltri":9628,"Ġdok":9629,"Ġehem":9630,"ÑģÑĤÐ²Ñĥ":9631,"ì¡°":9632,"Ġaverage":9633,"Ġà¤ķà¤°":9634,"ï¼Īï¼ī":9635,"elde":9636,"ĠÑģÑĩ":9637,"ĠÃ¡ll":9638,"cm":9639,"ÃŃch":9640,"Ġstesso":9641,"Ġdeveloped":9642,"à¹Ģà¸Ķ":9643,"Ġprofes":9644,"ask":9645,"åıİ":9646,"73":9647,"ĠÐ½ÐµÐ¼":9648,"å®¢":9649,"ĠtakÅ¼e":9650,"Ġcorrespond":9651,"orso":9652,"çħ":9653,"Ġ×Ķ×ľ":9654,"ĠÑģÐ¸ÑģÑĤÐµÐ¼":9655,"\"-":9656,"ĠEmp":9657,"attendrag":9658,"aca":9659,"Ġcoll":9660,"ÌĮ":9661,"inese":9662,"Ã¨ge":9663,"èħ":9664,"ĠSov":9665,"Ġhistori":9666,"62":9667,"amar":9668,"vention":9669,"Ð°ÑģÑĤ":9670,"Ġëĵ±":9671,"Äĥng":9672,"ĠVerw":9673,"è¦ı":9674,"à¹Ģà¸¥":9675,"Ġ×ĳ×¤":9676,"icano":9677,"ĠCreek":9678,"nier":9679,"Ġleurs":9680,"Ġpierws":9681,"uments":9682,"log":9683,"ĠquÃ¢n":9684,"Ġ×Ķ×¨×Ĳ×©":9685,"ĠMaj":9686,"PA":9687,"Ġeb":9688,"Ġà´ļ":9689,"åĲī":9690,"Ġersch":9691,"áº¯c":9692,"Ġsia":9693,"chester":9694,"áĥĲáĥ¢":9695,"ĠUniversitÃ¤t":9696,"åºĹ":9697,"æ®µ":9698,"ĠNorm":9699,"ĠNÃ¤r":9700,"eiro":9701,"Ġfebruari":9702,"á»¥c":9703,"è»¢":9704,"Ġrim":9705,"ĠTeam":9706,"ìĤ°":9707,"ĠÐĸ":9708,"Ãīt":9709,"ror":9710,"à°Ń":9711,"orpor":9712,"ĠFebruar":9713,"ĠmÃ©":9714,"rent":9715,"çĸ":9716,"åĳĬ":9717,"istÃ¤":9718,"John":9719,"ĠChicago":9720,"Ð°ÑĢÐ¾Ð´":9721,"Ġrecorded":9722,"Ġ×ĳ×ŀ":9723,"Ġdamit":9724,"áĥ£áĥļáĥĺ":9725,"Ġmaggi":9726,"tan":9727,"Ġpresidente":9728,"åį¡":9729,"Ð°Ð½Ðµ":9730,"Ġcommen":9731,"ë¹Ħ":9732,"Ġ400":9733,"icamente":9734,"mos":9735,"èª¬":9736,"Ã¡ll":9737,"Ġworking":9738,"ĠBul":9739,"Ġfoc":9740,"ittee":9741,"ĠfÃ¶rst":9742,"Europ":9743,"ê¸":9744,"ĠSav":9745,"ĠÃĢ":9746,"×ľ×ª":9747,"92":9748,"ÐµÑģÑģ":9749,"kn":9750,"Ġkilom":9751,"ĠÑĤÐµÑĢÑĢÐ¸ÑĤÐ¾ÑĢÐ¸":9752,"arte":9753,"Ġroute":9754,"×ŀ×©":9755,"Ġsegundo":9756,"àµį.":9757,"Ø§Ø¯Ø©":9758,"Ġthá»©":9759,"ĠÐ¡Ð¡Ð¡Ðł":9760,"54":9761,"Ġtwee":9762,"Ġstra":9763,"Ġquien":9764,"uzione":9765,"æĴĥ":9766,"Ġmul":9767,"Ġgrandes":9768,"iddle":9769,"alien":9770,"tu":9771,"zas":9772,"à¸Ļà¸ķ":9773,"Ġ1921":9774,"Ø¨Ø§ÙĦ":9775,"ĠÑĩÐ°ÑģÑĤÐ¸":9776,"ĠInstit":9777,"Ð½Ð¾Ð¼Ñĥ":9778,"ĠÐºÐ¾Ð½ÑĤ":9779,"Ġcorr":9780,"ensa":9781,"ĠAst":9782,"ĠCommun":9783,"For":9784,"year":9785,"Ġdetermin":9786,"ë¯¼":9787,"icher":9788,"vest":9789,"Sc":9790,"Ġinterpret":9791,"Ġeast":9792,"Ġexample":9793,"ÛĮÙĩ":9794,"Ġextens":9795,"Cl":9796,"ĠDurch":9797,"æ´»åĭķ":9798,"aben":9799,"ÅĤÄħ":9800,"Ġconsist":9801,"ĠÑĪÐºÐ¾Ð»":9802,"Î´Î¿":9803,"bew":9804,"Ġabsol":9805,"atten":9806,"Ġged":9807,"à¸Ńà¸Ļ":9808,"Ġjoka":9809,"Ġdot":9810,"ĠÑıÐ·Ñĭ":9811,"Ġ×ŀ×Ľ":9812,"Ġstagione":9813,"ĠLong":9814,"ĠÎĶ":9815,"Ġliving":9816,"emÃ¡s":9817,"Ġdescribed":9818,"ÑıÑĤÑĮ":9819,"abeth":9820,"Na":9821,"Ġdrug":9822,"ãĤŃãĥ£":9823,"81":9824,"ĠKal":9825,"Ġnorte":9826,"åĬ©":9827,"Ġtipo":9828,"ahan":9829,"Ġmuss":9830,"king":9831,"Ġmut":9832,"à°¥":9833,"Ġkomp":9834,"äºļ":9835,"teen":9836,"ĠpÃºbl":9837,"ĠØ®ÙĪØ¯":9838,"Ġ1931":9839,"hec":9840,"ÐµÑĪ":9841,"Ġkem":9842,"ienen":9843,"Ġ1922":9844,"iere":9845,"entro":9846,"Ġencuentra":9847,"èı¯":9848,"ĠÎµÎº":9849,"igte":9850,"ĠØ¯Ø§Ø±Ø¯":9851,"ĠPap":9852,"èĴ":9853,"ĠStand":9854,"ĠAlbum":9855,"æľº":9856,"ãģĿãģ®å¾Į":9857,"ĠHor":9858,"Ġfaire":9859,"67":9860,"Ġhimself":9861,"Ø´Ø§Ø±":9862,"Ġnacional":9863,"Ð¼Ð¸Ð½Ð¸":9864,"ÙĨØ¬":9865,"Ġdate":9866,"ormente":9867,"åĬĩ":9868,"íı":9869,"áĥĿáĥķ":9870,"Ð½Ð°ÑĤÐ°":9871,"ĠLang":9872,"Ġaband":9873,"Ġareas":9874,"53":9875,"Bo":9876,"Ġsei":9877,"ÑıÑħ":9878,"ĠMadrid":9879,"ĠØ§Ø±":9880,"ĠKle":9881,"ieu":9882,"ÐµÑĢÑĤ":9883,"èĪ¹":9884,"èĬ±":9885,"Ġ1925":9886,"Ġà¥":9887,"Ġà®Ĵ":9888,"Ġdess":9889,"æ½":9890,"nem":9891,"ĠÅļ":9892,"zten":9893,"ĠhÃ¶":9894,"ĠRam":9895,"ĠMilit":9896,"orsz":9897,"Ð»ÐµÐ¼":9898,"osz":9899,"ĠHÃ¶":9900,"rika":9901,"ÑĢÐ¾Ð¹":9902,"ĠOpen":9903,"Ġ×©×Ķ":9904,"ĠÑĤÐµÑħ":9905,"ĠZu":9906,"Ġdai":9907,"hn":9908,"52":9909,"ĠÐ¸ÑģÐº":9910,"å¤±":9911,"×ł×¡":9912,"Ġmaking":9913,"Ġà¦Ń":9914,"çļĦãģ«":9915,"ception":9916,"æĦĽ":9917,"ĠCas":9918,"Ġarte":9919,"Ð¼ÐµÑĤ":9920,"ĠSub":9921,"59":9922,"Î±Î»":9923,"åĲ«":9924,"ĠØ¯ÛĮ":9925,"åįĶ":9926,"ÙĪØ§Ø±":9927,"ãģķãģĽ":9928,"ÑģÑĤÐ¸ÑĤ":9929,"Ð´Ñĥ":9930,"ĠBank":9931,"Ġ1910":9932,"Ã¤hlt":9933,"orts":9934,"Ġguerre":9935,"ritt":9936,"Ġgebru":9937,"ĠÐ²ÑĭÑģÑĤÑĥÐ¿":9938,"Ġ×ĳ×©×ł×ª":9939,"Ġatau":9940,"ÐµÑĢÑĪ":9941,"Ġsiglo":9942,"ãģĤãĤĬ":9943,"occ":9944,"ĠÑĦÐ¸Ð»ÑĮ":9945,"ĠÑĢÐ°Ð¹Ð¾Ð½":9946,"asÄ±":9947,"Ġ33":9948,"ìĦ¸":9949,"è¿°":9950,"ãģ«ãģ¤ãģĦãģ¦":9951,"63":9952,"ĠLig":9953,"ĠÎĿ":9954,"IC":9955,"ĠÎ´Î¹Î±":9956,"ĠØ§ÙĦØ°ÙĬ":9957,"ugu":9958,"ĠÐ¼ÐµÐ´":9959,"Ġhit":9960,"ĠØ§ÙĦÙħÙĨ":9961,"Ġhanno":9962,"skog":9963,"ĠÐ¾ÐºÑĤ":9964,"Ġtext":9965,"Ġlung":9966,"ĠHy":9967,"ĠÐ°Ð²Ð³Ñĥ":9968,"Ġemb":9969,"ĠdÃ¤r":9970,"indo":9971,"chten":9972,"roug":9973,"51":9974,"ãģĻãĤĭãģĵãģ¨":9975,"ĠSchwe":9976,"åŃĺåľ¨":9977,"aksi":9978,"Ġdevient":9979,"ĠJahrhundert":9980,"ĠPolit":9981,"Ġetc":9982,"69":9983,"Ġzona":9984,"å¯Ĩ":9985,"Ġ×Ķ×ŀ×©":9986,"Ġnecess":9987,"Ġ1926":9988,"ÑĢÐµÐ¹":9989,"Ġhun":9990,"Ø±Ø¶":9991,"Ð²Ð¾ÑĢ":9992,"ÅŁtÄ±r":9993,"Ġavail":9994,"ĠÚ©Ø§Ø±":9995,"Ġpag":9996,"à¹Ģà¸Ĥ":9997,"Ġmic":9998,"ĠÙħÙĪ":9999,"benfalls":10000,"ĠBurg":10001,"Ð¾ÑĤÐ¾Ð²":10002,"ĠÐºÐ»ÑĥÐ±":10003,"ãĤģãģŁ":10004,"á»ı":10005,"ondo":10006,"à°³":10007,"éĸĭå§ĭ":10008,"Ġblan":10009,"acz":10010,"Tra":10011,"oles":10012,"èģ·":10013,"aven":10014,"Ð¾Ð»Ð°":10015,"ĠMusik":10016,"ĠÙĨØ§Ùħ":10017,"Ġencore":10018,"ÑĩÐ¸Ð½":10019,"Ġ1927":10020,"Ã´le":10021,"ĠÑĥÑģ":10022,"Ã¢u":10023,"Ġentstand":10024,"å±ħ":10025,"olu":10026,"ÙĪØ±Ø¯":10027,"Ġà´ĩ":10028,"58":10029,"ewe":10030,"Ġscient":10031,"Ġguit":10032,"bern":10033,"Ġperten":10034,"Ã¨ce":10035,"ç·ı":10036,"Ġjel":10037,"å¤ļãģı":10038,"Ġpou":10039,"Ġbild":10040,"Ġvisit":10041,"ĠÐ³Ð¾ÑĢÐ¾Ð´Ð°":10042,"Ġfly":10043,"Ġconte":10044,"à±Ģ.":10045,"Ġ1912":10046,"gg":10047,"ĠzunÃ¤chst":10048,"×Ļ×ł×Ķ":10049,"æºĲ":10050,"Ġbroad":10051,"è³ª":10052,"è¼ī":10053,"61":10054,"ãĤ·ãĥ¥":10055,"roughout":10056,"Ġfot":10057,"ĠÎ¼ÎŃ":10058,"ĠGod":10059,"å¯º":10060,"Ġextra":10061,"ÃŃf":10062,"ĠAcademy":10063,"Ind":10064,"ĠAustralian":10065,"Ġmac":10066,"ĠVert":10067,"Ġequipo":10068,"ienia":10069,"éĥ¨åĪĨ":10070,"Ġsecondo":10071,"Ã¼rger":10072,"eonato":10073,"lang":10074,"åħ«":10075,"ĠBus":10076,"Br":10077,"Ġdesar":10078,"ĠsÃ¶der":10079,"dzy":10080,"ĠSong":10081,"woners":10082,"Ġplat":10083,"ĠUK":10084,"ĠPers":10085,"ĠÎ±Î½":10086,"çĿ£":10087,"Ġë¶Ģ":10088,"Ġnatural":10089,"PS":10090,"ĠÐ²Ð¾Ð¹Ð½Ñĭ":10091,"Ġmarket":10092,"Ð°ÑĤÑĮÑģÑı":10093,"Ã¡ra":10094,"ĠtÃ¶":10095,"ĠÃītats":10096,"ĠNatur":10097,"ĠÎµÎ½":10098,"Ġost":10099,"ãģ¨ãģ¯":10100,"Ġderen":10101,"Ġ×Ĳ×¨":10102,"ĠFrancia":10103,"ìĨĮ":10104,"ç´ł":10105,"ĠrÃ³w":10106,"ÑģÐºÐ¾":10107,"Ma":10108,"uba":10109,"å®®":10110,"Ġkr":10111,"åł´åĲĪ":10112,"ĠEsc":10113,"×ľ×Ļ×Ŀ":10114,"retto":10115,"å®¤":10116,"ĠLuc":10117,"×ķ×Ļ":10118,"Ġadv":10119,"ellschaft":10120,"Ġ×ľ×¤":10121,"á»£":10122,"Ġà§§à§":10123,"çį²":10124,"ĠÐ¼Ð¾Ð³":10125,"ĠÅ¼":10126,"ĠÙĩØ°Ùĩ":10127,"Ġfire":10128,"ĠdÃ©but":10129,"ener":10130,"Ġalthough":10131,"ĠÃ¤n":10132,"aco":10133,"Ġihren":10134,"iÃ£o":10135,"Ġdello":10136,"ĠÐ·Ð°ÑĤ":10137,"ë¯¸":10138,"Ġdisput":10139,"ĠFootball":10140,"ĠÐĿÐ¸Ðº":10141,"rieben":10142,"Ġfast":10143,"Ġlieu":10144,"ĠRegion":10145,"Ġsuccessful":10146,"Ġerreich":10147,"éĿĴ":10148,"ĠFer":10149,"×ķ×ª×ķ":10150,"Ġsn":10151,"Ġsehr":10152,"Ġorganis":10153,"Î´Î±":10154,"Ø¯ÙĬ":10155,"terior":10156,"Ġlok":10157,"xe":10158,"ÑĤÐµÑĢ":10159,"lacht":10160,"Ġsigned":10161,"éķĩ":10162,"AT":10163,"ĠNamen":10164,"åįļ":10165,"ĠIndonesia":10166,"Ġmomento":10167,"Ġbefindet":10168,"vas":10169,"ĠÃ©r":10170,"onk":10171,"ĠÑģÐ»ÑĥÐ¶":10172,"Ġ×ŀ×§":10173,"ĠLee":10174,"ëłĪ":10175,"obierno":10176,"onda":10177,"Ġtitre":10178,"Ġale":10179,"rey":10180,"å¥½":10181,"æ±Ĥ":10182,"è¡ĮãĤıãĤĮ":10183,"[[":10184,"Ġactual":10185,"ĠÐ¿ÐµÑĢÐ¸":10186,"ientras":10187,"atives":10188,"äºĪ":10189,"hard":10190,"ĠpÃ©":10191,"Ġnever":10192,"ĠespaÃ±":10193,"ÅŁtir":10194,"ĠÑĩÐ»ÐµÐ½":10195,"ĠLan":10196,"Ġ×Ļ×ĵ×Ļ":10197,"ĠÐ¾Ð½Ð°":10198,"2018":10199,"action":10200,"å¹´ä»£":10201,"cion":10202,"view":10203,"Î¹ÏĤ":10204,"ories":10205,"ãģĪãĤĭ":10206,"íķĺìĹ¬":10207,"êµ°":10208,"×Ļ×ĳ×":10209,"Ġapro":10210,"ĠnÃºmero":10211,"ĠÐ¾Ð±Ñī":10212,"Ø¹Øª":10213,"ÙĥØ©":10214,"Saint":10215,"Ġ1923":10216,"Ġothers":10217,"ĠDay":10218,"Ġehemal":10219,"Ġfail":10220,"å¢ĥ":10221,"Ð»ÐµÑĤ":10222,"ĠÑĢÐ°Ð¹Ð¾Ð½Ð°":10223,"ĠÐ´Ð²Ð°":10224,"íĥĢ":10225,"ĠStock":10226,"itos":10227,"Ġ×ľ×Ĳ×Ĺ×¨":10228,"çģ«":10229,"éģ¸æīĭ":10230,"ãĤ¹ãĥĨ":10231,"ĠSir":10232,"Ġseguito":10233,"Ġfilms":10234,"ĠÐ°ÑĢÐ¼Ð¸":10235,"ĠSohn":10236,"ĠLiga":10237,"anne":10238,"à¸Īà¸²à¸ģ":10239,"ĠHier":10240,"eni":10241,"ĠÐ¿Ð¾ÑģÐ»ÐµÐ´":10242,"Ġinstit":10243,"ĠhÃ¡":10244,"ĠOm":10245,"ì§Ħ":10246,"Ġappointed":10247,"Ġprofession":10248,"ÙĨÛĮ":10249,"ĠCourt":10250,"ĠnhÃł":10251,"kal":10252,"Ġreform":10253,"aggio":10254,"Ġà¸Ħ":10255,"ansa":10256,"Ġkeine":10257,"Ġpadre":10258,"Su":10259,"Ġzug":10260,"ĠKa":10261,"æİ¨":10262,"holm":10263,"Ġrelease":10264,"Ġáĥĳ":10265,"istrz":10266,"ĠØ¯ÙĪØ±":10267,"à§ĩà¥¤":10268,"à¸¶à¹Ī":10269,"57":10270,"å©":10271,"æ¡Ī":10272,"å·²":10273,"Ø·ÙĦ":10274,"iaÅĤ":10275,"geh":10276,"ilia":10277,"Ġmundo":10278,"ĠÂ».":10279,"eded":10280,"Ð´ÐµÐ½":10281,"ĠKunst":10282,"Ġarbeit":10283,"Ġdoes":10284,"Ġnac":10285,"ughter":10286,"ÎµÏĦÎ±Î¹":10287,"ĠÙĪÙħ":10288,"Ġphot":10289,"ivel":10290,"aza":10291,"äººãģ®":10292,"Ġstrong":10293,"ols":10294,"ÑĨÐ¸Ð¹":10295,"ãģ«ãģªãģ£ãģŁ":10296,"ĠÛ±Û¹Û":10297,"bon":10298,"Ġà¤ĩà¤¸":10299,"Ġlow":10300,"zz":10301,"ÐµÐ»Ð¸Ðº":10302,"Ġmondiale":10303,"zig":10304,"Ġpom":10305,"Ġoccas":10306,"æĦŁ":10307,"Ã¤ude":10308,"ÑĢÐ¸Ð¹":10309,"Ð½Ð¸ÑĤÐµ":10310,"ØĽ":10311,"Ġaveva":10312,"ĠÎĻ":10313,"Ġcomplex":10314,"áĥĶáĥķ":10315,"ĠGebiet":10316,"ĠMi":10317,"çĹħ":10318,"ĠÐ¸Ð¼Ð¿":10319,"iÄĻdzy":10320,"ĠÐ²Ð¿":10321,"atte":10322,"ĠTri":10323,"Ġcausa":10324,"ĠÐ·Ð´":10325,"ĠÐºÐ°ÑĤÐ¾":10326,"Ġmodo":10327,"ĠPas":10328,"Ġprovincia":10329,"hu":10330,"Ġcross":10331,"Ġglob":10332,"Ġ×Ķ×Ķ×":10333,"Ġwyd":10334,"ĠJug":10335,"GC":10336,"minister":10337,"åįĥ":10338,"Ġpossible":10339,"ìĹŃ":10340,"ÅĤoÅ¼":10341,"Ã¼nst":10342,"ãģĹãģĭãģĹ":10343,"ycl":10344,"ĠNaz":10345,"voir":10346,"imb":10347,"Ġgewann":10348,"ÙĪÚº":10349,"åĸ¶":10350,"Ġtiempo":10351,"ylv":10352,"×ķ×ł×Ļ×Ŀ":10353,"Ġprotest":10354,"ÑģÑĤÐ²Ð¾Ð¼":10355,"ĠÑįÑĤÐ¾Ð³Ð¾":10356,"à¸Ł":10357,"ÑĢÐ°Ð»ÑĮ":10358,"áĥĺáĥĲ":10359,"ĠEins":10360,"ĠÑĤÑĢÐ¸":10361,"Ġnouveau":10362,"×ķ×ļ":10363,"ĠEnd":10364,"erts":10365,"Ġweitere":10366,"ĠÐ²Ð¾ÐµÐ½":10367,"Ġtec":10368,"Ġvert":10369,"ienn":10370,"ĠÐ¿Ð¾Ð»Ð¸ÑĤ":10371,"verno":10372,"Co":10373,"Ġpem":10374,"kson":10375,"2003":10376,"ÅĦst":10377,"ĠÐºÐ¼":10378,"à¸¹à¹ī":10379,"ĠnÃ³":10380,"ĠÑıÐ½":10381,"Ġembargo":10382,"Ġdirec":10383,"è±¡":10384,"ìĹĪ":10385,"åħ¬éĩĮ":10386,"well":10387,"itud":10388,"ĠnordvÃ¤st":10389,"Ġkuper":10390,"zial":10391,"ĠÐ´ÐµÑĤ":10392,"ĠPersonen":10393,"ãĥķãĥ©":10394,"Ã¤sident":10395,"åĬŁ":10396,"ĠBuch":10397,"Ġwz":10398,"æĿ¾":10399,"áĢ»áĢ¬áĢ¸":10400,"skap":10401,"Ð»ÑĮÐ±":10402,"cito":10403,"Ġwife":10404,"à¹Ĥà¸Ķà¸¢":10405,"Ġyap":10406,"kreis":10407,"97":10408,"Ġaj":10409,"æĺŃåĴĮ":10410,"ĠdÃ©f":10411,"Ð½Ð¸Ð¹":10412,"ĠÐ¢Ð°Ðº":10413,"uerto":10414,"ÌĢ":10415,"Ġple":10416,"Ġtous":10417,"ĠWilhelm":10418,"ĠÐºÐ¾":10419,"ä¼Ŀ":10420,"Ġoffice":10421,"ĠBahn":10422,"Ġkuperad":10423,"ĠPod":10424,"ĠErn":10425,"Ġbody":10426,"ĠUl":10427,"Ã³t":10428,"ë³´":10429,"ija":10430,"Ġcontract":10431,"Ġà®ĩà®°":10432,"unes":10433,"åīĩ":10434,"ĠColumb":10435,"ĠVilla":10436,"ĠØ°ÙĦÙĥ":10437,"ĠReal":10438,"Ð»ÑģÑı":10439,"ĠÄĳá»Ļng":10440,"Ġflo":10441,"ÙĤØª":10442,"ĠdÃ©partement":10443,"ĠBru":10444,"Ð°ÐµÑĤ":10445,"Ġyh":10446,"ĠBob":10447,"Ġerano":10448,"ãĥ¦":10449,"ÎµÎ»":10450,"ĠTal":10451,"ĠAntonio":10452,"ispiel":10453,"reen":10454,"ĠWien":10455,"ouvern":10456,"gun":10457,"Ã¶lj":10458,"ĠGrande":10459,"Ġindustr":10460,"ĠRome":10461,"Ġpendant":10462,"ãĥ¼ãĥĹ":10463,"Ġinwoners":10464,"iendo":10465,"Ġzam":10466,"Ġ+":10467,"2002":10468,"ĠÐ´ÐµÐºÐ°":10469,"Ġperformance":10470,"ĠFahr":10471,"Ġobra":10472,"Ġcou":10473,"Ġobjet":10474,"sky":10475,"à¸ģà¸¥":10476,"Ġláº¡i":10477,"Ġprepar":10478,"æ´ĭ":10479,"Ġgemeente":10480,"åĪĩ":10481,"ĠÙĨØ¸":10482,"DA":10483,"ĠØ§ÙĨØª":10484,"æľĪãģ«":10485,"Ġomgivningarna":10486,"ìĺ¤":10487,"Col":10488,"Ġteams":10489,"edia":10490,"Ġ×ĳ×Ĺ":10491,"ĠGa":10492,"ĠcÅ©ng":10493,"Ã¢m":10494,"Ġencontr":10495,"ohner":10496,"Ġtelah":10497,"Ġà´Ĩ":10498,"ãĤ¿ãĤ¤":10499,"ĠSÃ£o":10500,"ĠBos":10501,"ãĥ¼ãĥ³":10502,"ĠÐ´Ð¾Ðº":10503,"Ġble":10504,"Ġ×ķ×ľ":10505,"ĠHein":10506,"cing":10507,"ãĤ·ãĥ£":10508,"anga":10509,"ÐºÐ¾Ð²Ð¾Ð´":10510,"ç©į":10511,"stan":10512,"annel":10513,"Ġmell":10514,"Ġreported":10515,"Ġwsp":10516,"Ġnap":10517,"uset":10518,"Ġcolor":10519,"Ġlaun":10520,"ĠtÃŃt":10521,"ÑĢÐ°Ðº":10522,"Ġpsych":10523,"seud":10524,"ĠÑģÐ±Ð¾ÑĢ":10525,"Ġeducation":10526,"ĠÑģÐµÐ²ÐµÑĢ":10527,"ĠvÃ¤xer":10528,"ÐµÑĢÐµÐ·":10529,"Ġplaying":10530,"ections":10531,"ĠÎ¿ÏĢÎ¿":10532,"ãģ«ãģĤãĤĭ":10533,"Ġstandard":10534,"ĠBad":10535,"ĠØ¹Ø¯Ø¯":10536,"äºĽ":10537,"Ã¤ÃŁ":10538,"Ġacross":10539,"alu":10540,"Ġelected":10541,"Ð¾ÑĤÐ°":10542,"×ķ×ľ×Ŀ":10543,"ugg":10544,"IN":10545,"aking":10546,"Ġgez":10547,"Ġnationale":10548,"ĠatÃ©":10549,"Ġtrack":10550,"ragen":10551,"Ġvec":10552,"ç»ı":10553,"ĠÐ¸Ð³ÑĢÐ°":10554,"æĩ":10555,"vez":10556,"ĠAlt":10557,"Ð¼Ð¾Ð¶":10558,"ĠJes":10559,"ĠJu":10560,"×©×Ķ":10561,"ĠØ§ÙĦÙĦ":10562,"Ġmix":10563,"ĠVo":10564,"ĠBelg":10565,"ÙĬØ²":10566,"ĠÑĢÐ°Ð·Ð²":10567,"ĠÐ·ÐµÐ¼":10568,"ĠPra":10569,"arda":10570,"ĠWestern":10571,"Ð»Ð¸Ð·":10572,"ĠJack":10573,"ĠÑģÑĤÐ°ÑĢ":10574,"Ġonce":10575,"ĠTamb":10576,"Ġblack":10577,"ĠÙĥØ§ÙĨØª":10578,"ĠXIX":10579,"ÑĮÐµ":10580,"Ġshould":10581,"à´¹":10582,"Ġthá»Ŀi":10583,"ÑģÑĤÐ¾Ñı":10584,"×ķ×£":10585,"áĥ£áĥļ":10586,"onta":10587,"ieme":10588,"Ġmorte":10589,"autres":10590,"ĠMax":10591,"æĢĿ":10592,"à¸ķà¸£":10593,"Ġì¡°":10594,"ĠPenn":10595,"×Ļ×¨×Ķ":10596,"Ġdich":10597,"ĠÐ·Ð½Ð°Ñĩ":10598,"iesa":10599,"Ã¡st":10600,"etan":10601,"utter":10602,"ĠÐŀÐ´":10603,"Ġquatre":10604,"Ġyou":10605,"áĢĨ":10606,"Ġswo":10607,"Ð±Ð¾Ð»":10608,"Ġmerc":10609,"lande":10610,"Ø·Ø©":10611,"Ġíĥ":10612,"anna":10613,"ued":10614,"ĠÎ®ÏĦÎ±Î½":10615,"Ġinstall":10616,"Ġcostr":10617,"ĠArab":10618,"Ġforme":10619,"ĠÑģÐµÐ·":10620,"icana":10621,"Ġgrow":10622,"×ŀ×Ł":10623,"áĢ±áĢ¸":10624,"è¡Ĺ":10625,"áº£o":10626,"ĠTemp":10627,"ĠJe":10628,"ÐµÑī":10629,"ĠnÆ°á»Ľc":10630,"Ġrund":10631,"Ġavailable":10632,"è½¦":10633,"è¡Ľ":10634,"asz":10635,"ortun":10636,"annte":10637,"Ġhely":10638,"stead":10639,"ĠØ§Ùħ":10640,"ĠÎ¹":10641,"ators":10642,"¢ħ":10643,"æ¨¡":10644,"ĠUp":10645,"Ġdise":10646,"ĠÐ°Ð´":10647,"Ġlav":10648,"ãģ§ãģįãĤĭ":10649,"áĥĺáĥª":10650,"oire":10651,"ãĥªãĤ¹":10652,"teriormente":10653,"ÑıÐ¼Ð¸":10654,"94":10655,"×¨×Ĺ":10656,"ĠÑĥÑĩÐ°ÑģÑĤÐ¸":10657,"obile":10658,"è¿Ľ":10659,"ecutive":10660,"Ġforce":10661,"ueb":10662,"Ã¥l":10663,"ĠsamhÃ¤lle":10664,"å¿µ":10665,"usc":10666,"Ð¨ÐĲ":10667,"Ð·ÑĭÐ²Ð°":10668,"Ġabril":10669,"Ġvl":10670,"Æ°á»£ng":10671,"Ġáĥľ":10672,"Ġbras":10673,"abil":10674,"ĠGreat":10675,"áĢŃáĢ¯áĢ·":10676,"Ġran":10677,"ĠÎ¿Î¹":10678,"ĠCarlos":10679,"ÐµÐ½ÑĤÐ°":10680,"ãģĤãģ£ãģŁ":10681,"ĠFar":10682,"ĠÑĥÐ½Ð¸Ð²ÐµÑĢÑģÐ¸ÑĤ":10683,"ĠÐ¶Ð¸Ð²":10684,"éĵ":10685,"è¿ĩ":10686,"ê³µ":10687,"fass":10688,"Ġconcern":10689,"ĠSim":10690,"93":10691,"Ð°Ð½Ð¸ÐµÐ¼":10692,"Ġpay":10693,"Ãºc":10694,"Ġquart":10695,"Ġhow":10696,"ĠÐ¾Ð½Ð¸":10697,"ÙĤØ±":10698,"à¸§à¸²à¸¡":10699,"punkt":10700,"×ķ×¨×Ķ":10701,"à§ĥ":10702,"çĥ":10703,"Ġà¦ĩ":10704,"Ġseus":10705,"atÃ³":10706,"ÏĥÏĦÎ·":10707,"Ġregional":10708,"Ġcidade":10709,"ĠHu":10710,"Ġelimin":10711,"wi":10712,"Ð½Ð¸ÑĤ":10713,"çĩ":10714,"Ġtegen":10715,"head":10716,"oon":10717,"Ġia":10718,"Ġdaar":10719,"Ġlanguage":10720,"ĠDaniel":10721,"Ø¯ÙĬØ¯":10722,"Ġfinan":10723,"Ġ×ĳ×Ľ":10724,"Ġdispos":10725,"Î¤":10726,"ÚĪ":10727,"ÙĬØ§Øª":10728,"aute":10729,"ministration":10730,"ÃŃv":10731,"ÐµÑĤÐµ":10732,"Ġprovince":10733,"Ġmission":10734,"olÃ³g":10735,"ĠÑģÐµÐ½ÑĤ":10736,"×Ļ×§×Ķ":10737,"Ġmog":10738,"ÏģÏİ":10739,"Ġhol":10740,"Ġinn":10741,"Ð½Ð¸ÐºÐ¸":10742,"ĠNot":10743,"æĢ»":10744,"aceae":10745,"×ł×ĺ":10746,"ĠreprÃ©sent":10747,"EC":10748,"áĥĵáĥĲ":10749,"Ġsoit":10750,"Ed":10751,"fall":10752,"ĠØ´Ø±":10753,"Ġfurono":10754,"ìĿĮ":10755,"Ġenf":10756,"Ġ34":10757,"eling":10758,"Ð»Ð¾Ð¶":10759,"ç¾ħ":10760,"Ġsteht":10761,"Ø³Ø¨Ø©":10762,"ĠìĦł":10763,"Ð¾Ð¶Ðµ":10764,"itan":10765,"ĠBrown":10766,"untain":10767,"ÙĨØ§Ùħ":10768,"Den":10769,"æ¨Ļ":10770,"ÑĢÐµÐ´ÐµÐ»":10771,"ĠlÃłm":10772,"ãĥķãĤ©":10773,"agu":10774,"åİ¿":10775,"iáº¿t":10776,"bere":10777,"Ú¯ÛĮ":10778,"Ġcourt":10779,"Ġonde":10780,"Ġball":10781,"ĠWars":10782,"Ã¡lt":10783,"ÐµÐ½ÐµÑĢÐ°":10784,"jects":10785,"ĠSeit":10786,"schule":10787,"ĠBild":10788,"ĠÐ¸ÑģÐ¿Ð¾Ð»ÑĮÐ·Ð¾Ð²":10789,"Ø¨Ø©":10790,"Ġmultip":10791,"Ġrol":10792,"á»±c":10793,"ĠnÃ¤ra":10794,"Ġrank":10795,"ĠMÃ©":10796,"iese":10797,"Ġfle":10798,"Ø¨Ø§Ø±":10799,"ĠíĮ":10800,"Ġ×ĳ×Ļ×Ł":10801,"ĠNÃ¤rmaste":10802,"ĠÑĢÐ°ÑģÐ¿Ð¾Ð»Ð¾Ð¶":10803,"gens":10804,"çĭ¬":10805,"iges":10806,"ĠBon":10807,"ãģ¶":10808,"endet":10809,"Ġsla":10810,"Ġtaken":10811,"Ø§ÙĬØ§Øª":10812,"åħ¬åı¸":10813,"Ġ1913":10814,"×¨×Ĳ×ľ":10815,"uran":10816,"igli":10817,"Î¯Î¿Ïħ":10818,"ãĥģãĥ£":10819,"ĠFirst":10820,"ept":10821,"anted":10822,"Ø¡":10823,"×Ĳ×¨":10824,"áº¡t":10825,"ĠØªØ§":10826,"Ġsurv":10827,"ĠGermany":10828,"Ġfollowed":10829,"ĠÐ¾Ð´Ð¸Ð½":10830,"ÑĥÑĢÑĭ":10831,"ization":10832,"enie":10833,"Ð°Ð»Ð¸Ð·":10834,"ĠÎ±Î½Î±":10835,"anton":10836,"Ġlimit":10837,"Des":10838,"Ġprivate":10839,"Ġkomm":10840,"Ġpolitique":10841,"Ð¸Ð»Ð°ÑģÑĮ":10842,"Ġkre":10843,"Ã¤ss":10844,"tembre":10845,"ãģªãģ©ãģ®":10846,"Ġinclu":10847,"tique":10848,"Ġlub":10849,"Ã¤ck":10850,"å¿ħ":10851,"Ð±Ð¸":10852,"itto":10853,"ĠÐ±ÑĥÐ´":10854,"Ġmust":10855,"å¹³æĸ¹":10856,"Ġaccess":10857,"ĠÐ²ÑĬ":10858,"ĠìĻ":10859,"ìľ¼ë©°":10860,"urus":10861,"annya":10862,"Ġpolice":10863,"ÎŁ":10864,"Ã¡nak":10865,"ĠÐ¶Ð¸Ð·":10866,"ÑĢÐ¾ÑģÑĤ":10867,"áĢĳ":10868,"ĠStar":10869,"iza":10870,"Ġmej":10871,"AR":10872,"umento":10873,"ians":10874,"áº¡o":10875,"Ġlight":10876,"ĠØ§ÛĮØ±Ø§ÙĨ":10877,"ĠgegrÃ¼nd":10878,"ĠAuch":10879,"×Ĺ×ĵ":10880,"Ġchef":10881,"ĠØŃÙĬØ«":10882,"ĠÛĮØ§":10883,"Ġgles":10884,"ĠÐ´ÐµÐ¹ÑģÑĤÐ²":10885,"ĠÐ¿Ð¾Ñĩ":10886,"ĠMexico":10887,"Ġmotor":10888,"tains":10889,"Ġfaz":10890,"Ġfree":10891,"formula":10892,"Ġpeu":10893,"ĠÐĲÐ»ÐµÐºÑģÐ°Ð½Ð´":10894,"ĠÑĢÑĥÑģ":10895,"Ġrodz":10896,"Ð°Ð»Ð¾ÑģÑĮ":10897,"zenie":10898,"ĠØ¯ÙĪ":10899,"åīµ":10900,"ç¨±":10901,"áĥĶáĥĳáĥĲ":10902,"Ġ×Ľ×Ļ":10903,"ĠÐĵÐµÑĢ":10904,"Ġarchitect":10905,"Ġgmin":10906,"çīĩ":10907,"Ãªtre":10908,"å¤®":10909,"spiel":10910,"bed":10911,"×Ļ×Ķ×":10912,"ĠChile":10913,"ĠÐ¾ÐºÐ¾Ð»Ð¾":10914,"ãģĳãģ¦":10915,"Ġfall":10916,"Ġhall":10917,"ĠmÃ©t":10918,"ulla":10919,"Ġcampaign":10920,"ĠsituÃ©e":10921,"omot":10922,"ĠÐ¿Ð¾ÑĢ":10923,"ĠÑįÑĤÐ¸":10924,"èŃ¦":10925,"iago":10926,"schn":10927,"åĥı":10928,"wiÄĻ":10929,"áĥļáĥĺáĥ¡":10930,"Ã¡sa":10931,"ensive":10932,"Ġnahm":10933,"ennen":10934,"Ġtrabaj":10935,"ŀ×©":10936,"ĠÐ¿ÐµÑĢ":10937,"çİ°":10938,"Ġnháº¥t":10939,"uder":10940,"zat":10941,"cÃ©":10942,"ennes":10943,"Ġtin":10944,"dzie":10945,"áĥĿáĥł":10946,"2019":10947,"Ġstan":10948,"olt":10949,"Ġcav":10950,"ä½İ":10951,"mat":10952,"azu":10953,"unan":10954,"Ġinvest":10955,"Ġdre":10956,"ÑĪÐµÐ¹":10957,"Ãło":10958,"Ġmars":10959,"Ġhin":10960,"áĥĺáĥĻ":10961,"Ġapplic":10962,"Ġhade":10963,"ĠÙĩØ°Ø§":10964,"çķ°":10965,"Ð½ÑĥÑĤ":10966,"ination":10967,"Ġescrit":10968,"Ã©se":10969,"Ġsecolo":10970,"Ġáĥ¤":10971,"ĠRu":10972,"Ġbajo":10973,"Ġpian":10974,"alde":10975,"Ġgas":10976,"çĶµ":10977,"Ġdeutschen":10978,"ÑģÑĤÑĢÐµ":10979,"ãĥ¼ãģ®":10980,"ĠÐ½Ð°ÑħÐ¾Ð´":10981,"Ġganska":10982,"edes":10983,"Ġanderem":10984,"æķ´":10985,"ĸáĥĶ":10986,"imal":10987,"Ġebenfalls":10988,"Ġì¹":10989,"ĠÐ°ÑĢÑħ":10990,"lat":10991,"ĠfÃ¼nf":10992,"Ã©rt":10993,"ãĥĨãĥ¬":10994,"Ġglesbefolkat":10995,"chod":10996,"ĠFuÃŁ":10997,"Ġverm":10998,"Ġhiá»ĩn":10999,"ĠÐ¿ÑĢÐ¾ÑĦ":11000,"ĠÐ¤ÑĢÐ°Ð½":11001,"ĠBat":11002,"Î±ÏģÎ±":11003,"Ð¾Ð½Ð¾Ð²":11004,"arÄ±":11005,"Ġbzw":11006,"ĠØ¬ÙĨ":11007,"ĠÑĩÐ°ÑģÑĤÑĮ":11008,"Ġdw":11009,"ĠBarb":11010,"Ġëª¨":11011,"kes":11012,"ĠìĹ°":11013,"Ġmonths":11014,"Ġhard":11015,"ÑĥÑĩÐ°":11016,"Ġtersebut":11017,"ĠÐ¡Ð¨ÐĲ":11018,"liament":11019,"uiten":11020,"ĠMarc":11021,"ĠfranÃ§aise":11022,"×ķ×ł×ķ×ª":11023,"ee":11024,"é¦Ļæ¸¯":11025,"ĠÐ²Ð·":11026,"ĠÙĪÙĬ":11027,"hire":11028,"onden":11029,"Ġconcl":11030,"Ġmolto":11031,"Ð¾ÐµÐ²":11032,"Ġnat":11033,"Ġmoment":11034,"Ġretro":11035,"ÙħÙĩ":11036,"Ġprojet":11037,"Ġ(),":11038,"teau":11039,"ä¸ļ":11040,"Ġ44":11041,"Ġils":11042,"ĠPos":11043,"aines":11044,"Ġdivis":11045,"Ġgave":11046,"ì¶":11047,"Ġblo":11048,"Ġmanif":11049,"Ġelev":11050,"Ġsamt":11051,"Ġë¯¸":11052,"ÙĪÙĩ":11053,"ÐµÐ±":11054,"Pol":11055,"etr":11056,"æ´²":11057,"×ŀ×¦":11058,"velopp":11059,"Po":11060,"Ġspielte":11061,"áĢ®áĢ¸":11062,"nea":11063,"fois":11064,"Ġchap":11065,"é©¬":11066,"×ĳ×Ļ":11067,"ache":11068,"æİĪ":11069,"ĠëıĻ":11070,"Ġfarm":11071,"ĠMonte":11072,"ãģķãĤĮãģ¦":11073,"Ġ1915":11074,"Ass":11075,"Ġmoins":11076,"iros":11077,"igned":11078,"æĥ³":11079,"Ġaway":11080,"ĠOrts":11081,"icus":11082,"ĠHamb":11083,"araf":11084,"æķĹ":11085,"è¶ħ":11086,"Ã©ge":11087,"Ġagre":11088,"ĠÐ¾ÐºÐ¾Ð½Ñĩ":11089,"ÑģÑĤÐ²ÐµÐ½Ð½Ð¾Ð¹":11090,"à¸²à¸Ħ":11091,"ÑĭÑģ":11092,"Ġprincipale":11093,"à¸¹à¹Ī":11094,"å¾©":11095,"Ġlit":11096,"èµ°":11097,"uest":11098,"ĠÐ²ÑĭÐ¿Ñĥ":11099,"):":11100,"produ":11101,"ĠFrom":11102,"ÎŃÏģ":11103,"ĠlÃ©g":11104,"å®³":11105,"iance":11106,"Ø´ÙĪØ¯":11107,"Ġsuc":11108,"éĥİ":11109,"ĠÑĩÐµ":11110,"Ã¤nder":11111,"igur":11112,"Ġperiodo":11113,"ĠÐ¿Ð°ÑĢÑĤÐ¸":11114,"ĠÑĥÐ¿":11115,"ĠØ³Ø¨":11116,"mir":11117,"add":11118,"Ð°Ð½Ð¸Ð¹":11119,"ĠHaw":11120,"ĠáĢĻ":11121,"ismus":11122,"ulos":11123,"Ð°ÑĢÑĤ":11124,"Ġmunicipio":11125,"Ġ×¤×¨":11126,"Unis":11127,"ãĥ¼ãĥŀ":11128,"Ð¾Ð¼Ñĥ":11129,"aland":11130,"avy":11131,"ĠthÃ©":11132,"Ġott":11133,"Ġpoco":11134,"ĠBig":11135,"æĶ¿æ²»":11136,"rov":11137,"aps":11138,"ĠëĤĺ":11139,"à¦°à¦¤":11140,"Ġtelevis":11141,"Ġdol":11142,"Ġìĺģ":11143,"91":11144,"Ð¸ÐºÐ¸":11145,"Las":11146,"ĠbestÃ¥r":11147,"Ġklub":11148,"Ġcourse":11149,"Ġattempt":11150,"Ġkra":11151,"ÑĭÑĤ":11152,"ÙĪØ±ÛĮ":11153,"ĠIll":11154,"Ġ38":11155,"Ð½Ð¸ÑĨÐ¸":11156,"ĠÏĥÏħÎ½":11157,"ĠIsrael":11158,"ĠArts":11159,"formation":11160,"Ġhot":11161,"ÛĮÚº":11162,"zech":11163,"time":11164,"Ġperformed":11165,"ubre":11166,"ĠArgentina":11167,"ÙĪÙĥ":11168,"ĠìĿĺ":11169,"igi":11170,"è©ķ":11171,"Ð´ÐµÐ¼":11172,"Ġextre":11173,"upa":11174,"åħŃ":11175,"éĹ´":11176,"å®Ī":11177,"à¸«à¸¥":11178,"issen":11179,"åı¯ä»¥":11180,"ĠGren":11181,"Ġroad":11182,"ĠJew":11183,"itation":11184,"áĥĺáĥ¢":11185,"nieÅ¼":11186,"Ġlargest":11187,"ĠUk":11188,"äºķ":11189,"Ġà°ĩ":11190,"atory":11191,"ĠÐ¿ÑĢÐ¸Ñģ":11192,"thur":11193,"ading":11194,"Ð¼Ð¸Ð½Ð¸ÑģÑĤÑĢÐ°":11195,"ĠÐ¡Ð¾Ð²":11196,"Ġnovel":11197,"ĠÃ¤ven":11198,"íĤ":11199,"rage":11200,"ĠfranzÃ¶s":11201,"ĠÑģÐ¼":11202,"ÑīÑĳ":11203,"inois":11204,"Ġdav":11205,"1999":11206,"hir":11207,"zek":11208,"×ª×ķ":11209,"ĠÐ¶ÐµÐ»":11210,"icles":11211,"Ð½Ð¸ÑĩÐµ":11212,"ì¦":11213,"aise":11214,"æħĭ":11215,"fÃ©r":11216,"ĠÑĦÐµÐ²":11217,"Ġsecret":11218,"ĠKen":11219,"hren":11220,"ĠPla":11221,"ĠÐ¿Ð»Ð¾":11222,"ĠHong":11223,"ĠCette":11224,"ĠForce":11225,"esies":11226,"Ġbass":11227,"kÃ¶":11228,"áº©":11229,"rÃ¥det":11230,"staw":11231,"Ġpon":11232,"ĠØ§ÙĦÙĩ":11233,"ĠEspaÃ±a":11234,"ĠFamilie":11235,"pel":11236,"æĹ¥æľ¬ãģ®":11237,"ĠÐļÐ¾Ð½":11238,"ĠTÃ¼r":11239,"ĠNar":11240,"ĠÃ¡rea":11241,"ĠDepartment":11242,"áº¥n":11243,"èĪ¬":11244,"die":11245,"ç¬¬äºĮ":11246,"æĳ":11247,"Ġnordost":11248,"Ġjog":11249,"Ġnovember":11250,"Ġznaj":11251,"Ġmindre":11252,"FL":11253,"Ġdesigned":11254,"Ġotras":11255,"usia":11256,"×ŀ×ĵ":11257,"abri":11258,"ĠPierre":11259,"ĠSyd":11260,"uyá»ĩn":11261,"Ġcentrala":11262,"Ûµ":11263,"ÐºÐ°Ñħ":11264,"à¤«":11265,"Ġlik":11266,"ĠÑĢÐµÐ·ÑĥÐ»ÑĮÑĤ":11267,"ĠÐ½ÐµÐº":11268,"ĠSqu":11269,"Ġinformation":11270,"ĠÐ¼Ð½Ð¾Ð³":11271,"ends":11272,"ĠvÃ¡l":11273,"Ġmother":11274,"Ġresident":11275,"è¯¥":11276,"Ġquesta":11277,"ĠUniversidad":11278,"eman":11279,"ëĦ":11280,"over":11281,"ÑĢÑĥÐ¶":11282,"ĠiÃ§in":11283,"ĠRÃ¼ck":11284,"inst":11285,"Ġnomm":11286,"Ġdif":11287,"Äĥn":11288,"ê°Ħ":11289,"Ġoficial":11290,"Ġthroughout":11291,"çĴ":11292,"ielle":11293,"ĠLim":11294,"ligt":11295,"ÙĪÙĬØ©":11296,"Ġsede":11297,"Ġwil":11298,"ä¿Ĥ":11299,"Ã±os":11300,"ansk":11301,"Ġsuggest":11302,"à°¾à°Ĥ":11303,"ä»¥ä¸ĭ":11304,"åĲĮå¹´":11305,"ÏĩÎµ":11306,"Ð´ÐµÑĢÐ¶":11307,"acy":11308,"á»³":11309,"ìĹĲëĬĶ":11310,"ØªØ§Ø¨":11311,"ĠÐ°Ð¿ÑĢÐµ":11312,"Ġsempre":11313,"Å«h":11314,"eron":11315,"Ġtag":11316,"ĠNeg":11317,"ĠÑģÐ¾ÑģÑĤÐ°Ð²Ðµ":11318,"äººæ°ĳ":11319,"ID":11320,"Ġcomune":11321,"ĠÐ²Ð»Ð°":11322,"antas":11323,"oczÄħ":11324,"Ġpreced":11325,"Ġconten":11326,"ugby":11327,"çĳ":11328,"Ġrapport":11329,"Ġreview":11330,"ķĮ":11331,"æ¶Ī":11332,"Ġcul":11333,"Ġremained":11334,"Ġemer":11335,"ĠÐ³Ð¾Ð´Ð°Ñħ":11336,"1998":11337,"ĠMens":11338,"ØµØ¨":11339,"Ø¬Ø±":11340,"ãĤ¯ãĥ©":11341,"çĮ":11342,"Ġ×ľ×Ķ":11343,"ĠAlexander":11344,"AC":11345,"laced":11346,"ìŀ¬":11347,"åį³":11348,"Ãºng":11349,"Ġë°ľ":11350,"Ġhistoria":11351,"ĠhistÃ³r":11352,"ĠTitel":11353,"ĠMu":11354,"Ġ×Ķ×ĳ×":11355,"igten":11356,"ÅĦski":11357,"à¹Ģà¸ŀ":11358,"ëį°":11359,"Ġpoder":11360,"ĠWeltkrie":11361,"ìĭĿ":11362,"uka":11363,"æĻĤéĸĵ":11364,"bÃ³l":11365,"ĠÎĹ":11366,"isches":11367,"istoire":11368,"ì¡":11369,"anj":11370,"Ġllev":11371,"Ġdenomin":11372,"ÑĢÐ¸Ñı":11373,"ĠVI":11374,"Ġpont":11375,"ĠDal":11376,"nahme":11377,"æºĸ":11378,"æķ¸":11379,"ĠAnn":11380,"à¸ŀà¸£à¸°":11381,"achsen":11382,"ircraft":11383,"izer":11384,"ateurs":11385,"èī¯":11386,"ĠÐ¿ÑĢÐ¾Ð¸Ð·Ð²Ð¾Ð´":11387,"Ø³Ø©":11388,"Ġdenen":11389,"ä¼ļç¤¾":11390,"Ġfranc":11391,"å²¡":11392,"Ġevents":11393,"áĥĶáĥļáĥĺ":11394,"Ð¼ÐµÐ½ÑĤ":11395,"Ġbill":11396,"Ġmens":11397,"Ġ×Ĳ×ķ":11398,"ondere":11399,"æķħ":11400,"ĠSerie":11401,"Ġchange":11402,"lab":11403,"Ġtussen":11404,"Ġtraining":11405,"fel":11406,"ĠColomb":11407,"Ġáĥ¥":11408,"ä¸Ńå¤®":11409,"Ð¸ÑģÑģ":11410,"Ã¡ros":11411,"Ġuz":11412,"Ġhoa":11413,"æĿİ":11414,"Ġdonc":11415,"alter":11416,"Î¼Î²":11417,"Ġking":11418,"Ð´Ñĭ":11419,"áº¡n":11420,"Ġquant":11421,"Ġoktober":11422,"ĠRay":11423,"entrum":11424,"oku":11425,"ĠÙĨÙħ":11426,"Ġmetal":11427,"çĽ£":11428,"¯à§":11429,"Ġable":11430,"ĠKab":11431,"Ġ1911":11432,"arsi":11433,"ĠÙĪÙĨ":11434,"ĠEste":11435,"ĠÙĤØ¨ÙĦ":11436,"ç¢º":11437,"Ġnim":11438,"ĠverÃ¶ffentlich":11439,"Ġprison":11440,"Ã¤g":11441,"ĠmÃºsica":11442,"ÑĤÐ¾Ð±Ñĭ":11443,"Ð°Ð»Ð°ÑģÑĮ":11444,"ĠGuerra":11445,"Ġexpos":11446,"ĠØ§Ø¨":11447,"ç§į":11448,"ĠIran":11449,"see":11450,"ä¹Ŀ":11451,"Ġcritic":11452,"ĠVolks":11453,"×ķ×ł×Ļ":11454,"dukt":11455,"Ã©rieur":11456,"sterreich":11457,"Ð½Ð¾ÑģÑĤÑĮÑİ":11458,"meister":11459,"ĠmÃ¡r":11460,"reas":11461,"ĠCes":11462,"Ġ1916":11463,"ĠLiber":11464,"æ©ĭ":11465,"Ġcelui":11466,"Ġgruppo":11467,"Ð±ÑĢÐµ":11468,"Ø¨ÙĦØº":11469,"yes":11470,"ĠÐ¾ÑĤÐºÑĢÑĭ":11471,"Ġcompleted":11472,"emat":11473,"ĠAwards":11474,"ÙĪÙĦØ©":11475,"hein":11476,"å¿ľ":11477,"Ġ#":11478,"Ä±ÅŁtÄ±r":11479,"Ġ×ŀ×ĵ":11480,"æĺłçĶ»":11481,"×Ļ×¨×ķ×ª":11482,"Ġlett":11483,"Ð»Ñĥ":11484,"ÙĬØ´":11485,"æľį":11486,"talet":11487,"sto":11488,"Ġleague":11489,"×ĳ×Ļ×Ŀ":11490,"ç¾¤":11491,"Ġanti":11492,"ĠSun":11493,"×ľ×ķ":11494,"Ã¡j":11495,"ĠØªØ´":11496,"Ġderni":11497,"ĠÛ²Û°":11498,"ĠÐĺÐ½":11499,"ftware":11500,"ĠPortugal":11501,"inet":11502,"esten":11503,"áĥĶáĥĿ":11504,"ĠÑģÐ¸":11505,"ilities":11506,"ÃŃlia":11507,"Ġbezeichnet":11508,"åħ©":11509,"mont":11510,"á»ĥn":11511,"Ġrich":11512,"Ġ×ŀ×ł":11513,"Ġbem":11514,"Ú©ÙĨ":11515,"US":11516,"Ġdil":11517,"ĠGol":11518,"rÄĻ":11519,"áĥĺáĥĿ":11520,"ĠEdward":11521,"Ġsection":11522,"ĠvÃ©g":11523,"ĠHel":11524,"Ġ×ĳ×ĵ":11525,"dorf":11526,"okrat":11527,"Ġ37":11528,"sm":11529,"çģ£":11530,"æĸĩåĮĸ":11531,"tei":11532,"ĠØ§ÙĦÙĬ":11533,"èŃ·":11534,"Ġtarde":11535,"Als":11536,"ĠØ§ÙĦØº":11537,"Ð¸Ð»Ð¾":11538,"ÑĢÐµÐ¼ÐµÐ½":11539,"ì²´":11540,"Ġcáº£":11541,"ÑĢÐ¸Ð¸":11542,"Ġrang":11543,"1990":11544,"Ġinaug":11545,"San":11546,"ĠÃ©poca":11547,"ĠrÃ¥":11548,"ĠMinist":11549,"ê·¸":11550,"ì¹´":11551,"ĠìĨĮ":11552,"Ġ000":11553,"ĠCam":11554,"Ġkamp":11555,"æĪĺ":11556,"Ġseen":11557,"ancia":11558,"Ġwerk":11559,"ä¸»è¦ģ":11560,"ĠÐ¿ÑĢÐ¸Ð·":11561,"Ġà¦¥":11562,"Ġcurrent":11563,"íķľëĭ¤":11564,"ÏĥÎ±":11565,"ĠØªÙĪ":11566,"ientos":11567,"osse":11568,"erek":11569,"Ġubic":11570,"å¾Įãģ«":11571,"å®£":11572,"atique":11573,"æĭħ":11574,"zes":11575,"à¸²à¸ª":11576,"Ġtim":11577,"onnen":11578,"Ġpersonas":11579,"oston":11580,"iksi":11581,"Ġwer":11582,"ĠÐŁÐ¾ÑģÐ»Ðµ":11583,"ĠCu":11584,"Î¹ÎºÎ®ÏĤ":11585,"ĠToppen":11586,"ĠÃ©lect":11587,"urb":11588,"ĠSchul":11589,"Ã¶stra":11590,"Ã¢t":11591,"Ġpunt":11592,"Wh":11593,"iá»ĩc":11594,"Ġbew":11595,"ĠRog":11596,"Ġconvert":11597,"ourg":11598,"á»©ng":11599,"ĠprÃ©c":11600,"ĠFel":11601,"Û²":11602,"à¸«à¸Ļ":11603,"ĠUnder":11604,"anter":11605,"Ġcause":11606,"Ġxu":11607,"Ġese":11608,"ĠÐ·Ð°Ð½Ð¸":11609,"è¶Ĭ":11610,"ĠÐ¼Ð¾Ð»":11611,"æĹ©":11612,"Ã³j":11613,"ĠØ§ÙĦÙĪÙĦ":11614,"umen":11615,"usch":11616,"Ġcirca":11617,"erdings":11618,"Î·ÏĤ":11619,"Ġdabei":11620,"à®±à®¤":11621,"mee":11622,"Ġestaba":11623,"Ġà¦¸à¦®":11624,"Ø£ÙĨ":11625,"Ġaqu":11626,"Ð¿Ð°":11627,"×ĳ×Ķ":11628,"umi":11629,"This":11630,"Ġtechni":11631,"ĠáĥłáĥĿáĥĽ":11632,"Ġcerca":11633,"ØŃØ±":11634,"back":11635,"ĠÐºÐ½Ð¸":11636,"ÙĪØ§Øª":11637,"Ġlocaliz":11638,"Ġolan":11639,"ĠelsÅĳ":11640,"Ġsignificant":11641,"Ġleading":11642,"Ġsiendo":11643,"Ġener":11644,"ĠÑģÐµÐ±":11645,"éŁ¿":11646,"Ġoriginally":11647,"ĠPost":11648,"ãĤ¸ãĥ§":11649,"ÏĦÎŃ":11650,"Ġgouvern":11651,"Ġhousehold":11652,"à®ķà®ª":11653,"ems":11654,"Ġneuen":11655,"Ġáĥ£áĥ":11656,"åľ°åĮº":11657,"Ġfeatures":11658,"ĠSul":11659,"ĠØ³ÛĮ":11660,"Reg":11661,"Ġgain":11662,"Ġseptember":11663,"ĠTag":11664,"Ġeventually":11665,"Ġtant":11666,"obb":11667,"Ġ120":11668,"Ġcard":11669,"Ġhonor":11670,"ĠBell":11671,"nika":11672,"åĳ³":11673,"hoz":11674,"ãģĳãģŁ":11675,"Ġsongs":11676,"nico":11677,"orang":11678,"ãĥĺ":11679,"Ġgek":11680,"Ġcontempor":11681,"obil":11682,"Ġond":11683,"lÃ¤nd":11684,"Ġ64":11685,"hausen":11686,"ÑĥÑģÑĤ":11687,"Ð´Ð¾Ð²":11688,"ĠspÃ©":11689,"Ġ1908":11690,"isce":11691,"Ġstop":11692,"Ġculture":11693,"ëĭ¨":11694,"Ġovat":11695,"ĠÑĥÐ±":11696,"Ġfinished":11697,"Ġapproxim":11698,"Ġlabor":11699,"Ġgood":11700,"áĥŀ":11701,"ĳĲ":11702,"ĠBir":11703,"ê¹":11704,"ension":11705,"ê´Ģ":11706,"ÑģÑĤÐ¸ÑĩÐµ":11707,"Ġestr":11708,"Ġbank":11709,"Ġschools":11710,"ĠÐ¼ÑĥÐ·Ñĭ":11711,"ãĤ¦ãĤ§":11712,"ĠphÃ¡t":11713,"Ġsatu":11714,"Ġmeth":11715,"Man":11716,"Ġquy":11717,"ØŃØª":11718,"ĠÄĳá»ĵ":11719,"ĠTok":11720,"ĠTar":11721,"',":11722,"ĠChinese":11723,"Ġ1905":11724,"Ġaustr":11725,"Ġsaw":11726,"Ġcampo":11727,"Ð²Ð¸Ð¶":11728,"ĠDans":11729,"ëĲĺìĹĪëĭ¤":11730,"íĭ":11731,"tour":11732,"ÏĢÎ¿Ïħ":11733,"Ð¸Ð»Ð¸ÑģÑĮ":11734,"rait":11735,"ĠOh":11736,"Ãªt":11737,"eraus":11738,"×Ļ×ľ×Ķ":11739,"vey":11740,"ĠÐ½Ð¾Ñı":11741,"orszÃ¡g":11742,"zioni":11743,"Ġwind":11744,"ĠLev":11745,"Ġpunto":11746,"ĠÐºÐ¾Ð³Ð´Ð°":11747,"CD":11748,"ĠLab":11749,"à¹Ħà¸Ľ":11750,"Ġpros":11751,"Ste":11752,"à¸µà¹ī":11753,"Åĳs":11754,"Ġà¦²":11755,"Ġnouvelle":11756,"ĠjÃ¡":11757,"à¸²à¸Ļà¸":11758,"ëĭ¹":11759,"Ã®t":11760,"ĠØ£Ùĥ":11761,"ĠcÃ©l":11762,"Ġwiel":11763,"ĠBah":11764,"Ġnhiá»ģu":11765,"Ġdra":11766,"bury":11767,"tage":11768,"egt":11769,"tawa":11770,"Ġê°ľ":11771,"acio":11772,"ĠMain":11773,"ĠÑģÐ¿Ðµ":11774,"ffen":11775,"etro":11776,"ÃĢ":11777,"We":11778,"ĠPrim":11779,"Ġleav":11780,"Mon":11781,"ĠHam":11782,"famil":11783,"ĠÎĽ":11784,"Ġfeatured":11785,"zb":11786,"Ġapr":11787,"ential":11788,"Ġinj":11789,"Ġamely":11790,"Ġwyn":11791,"Î¼Îµ":11792,"ially":11793,"ĠLove":11794,"Ġsond":11795,"ĠÐŀÐ½":11796,"ÐµÑĢÑħ":11797,"Ġmereka":11798,"à®Łà®¤":11799,"ÑĪÐµÐ³Ð¾":11800,"Ġstaat":11801,"ĠszÃ¡m":11802,"ourd":11803,"ĠdÃ©velopp":11804,"hÃ¤ng":11805,"venue":11806,"fern":11807,"Ð°Ð»Ðµ":11808,"ĠÑĤÑĥÑĢ":11809,"æ·±":11810,"ĠCamb":11811,"ĠMol":11812,"iÃ©":11813,"à´ľ":11814,"Ġoct":11815,"à¦ī":11816,"Ġstudy":11817,"ĠÐ¿ÐµÑģ":11818,"ĠLeon":11819,"Ġë§Ī":11820,"íģ¬":11821,"tainment":11822,"ĠHil":11823,"ĠAfrican":11824,"ĠCab":11825,"orre":11826,"Ġcurrently":11827,"borg":11828,"Op":11829,"ãĥ«ãĥĪ":11830,"ãģ«ãģªãĤĭ":11831,"á»ħ":11832,"Ġminor":11833,"Ġvent":11834,"erdem":11835,"ĠëĲĺ":11836,"Ġzuen":11837,"ĠlanÃ§":11838,"ÙĤÙĩ":11839,"iveau":11840,"ĠpoÅĤ":11841,"×§×ĳ":11842,"ibo":11843,"Ġaction":11844,"æĺ¯ä¸Ģ":11845,"å¯Ł":11846,"onym":11847,"Ġpaint":11848,"ĠrÃ©c":11849,"çł´":11850,"ĠÑĥÐ¿ÑĢÐ°Ð²":11851,"ÐºÐ¸Ð¹":11852,"ĠName":11853,"ÑĭÐ¼Ð¸":11854,"aku":11855,"Ġbib":11856,"Ã²n":11857,"ÙģØ³":11858,"ĠgehÃ¶rte":11859,"ÑģÑĤÑĢÑĥ":11860,"Ġëį":11861,"Ġappel":11862,"ĠCommission":11863,"çĵ":11864,"uku":11865,"Ġgroups":11866,"%.":11867,"ÐµÐ²Ð°":11868,"Ġà¦Ľ":11869,"Ġsegunda":11870,"isz":11871,"ltre":11872,"Ġìĺ¤":11873,"Ġaugusti":11874,"Ġhai":11875,"ĠØªÙĨ":11876,"Ġschw":11877,"Ġzap":11878,"xter":11879,"enh":11880,"poque":11881,"ÑĪÐ¸Ðµ":11882,"æ¦":11883,"Ð¿Ð¾Ð´":11884,"Ġalk":11885,"Ġunit":11886,"Dur":11887,"iled":11888,"zÄĻ":11889,"ÏĦÎ¹ÏĤ":11890,"Ð¸ÑĤÐµÐ»ÐµÐ¹":11891,"ĠCanadian":11892,"09":11893,"ĠInde":11894,"ãĤģãĤĭ":11895,"ãģĬãĤĪ":11896,"Ġà¸¡":11897,"Ġspir":11898,"unid":11899,"ĠfÃ¶lj":11900,"keiten":11901,"eno":11902,"Ġcred":11903,"pes":11904,"Ġimper":11905,"rera":11906,"uki":11907,"Ġfram":11908,"Ġohne":11909,"ĠÙĪÙĦØ¯":11910,"à¸§à¸¢":11911,"×ĵ×Ķ":11912,"Ã©qu":11913,"Ø§ÙħÙĦ":11914,"ĠÐºÐ°ÑĩÐµ":11915,"áĥĺáĥł":11916,"mel":11917,"Ġà¸ª":11918,"iske":11919,"ä¹Ĺ":11920,"Ġcelle":11921,"Ġstage":11922,"esser":11923,"Ġdeg":11924,"Ġstructure":11925,"Âª":11926,"ĠhÃłnh":11927,"adel":11928,"Ð³Ð»Ð¸":11929,"ĠìĽ":11930,"ç¸£":11931,"ĠSeb":11932,"áĥĲáĥĹ":11933,"uyÃªn":11934,"Ġligne":11935,"Ġobten":11936,"ĠcosÃ¬":11937,"Ġ×ľ×Ľ":11938,"ĠdÃ©p":11939,"vens":11940,"Ġepisode":11941,"ĠDeb":11942,"ĠDom":11943,"zej":11944,"çķĻ":11945,"ĠÙĥÙĦ":11946,"Ġano":11947,"acion":11948,"ãĥĨãĥ¬ãĥĵ":11949,"Ġsij":11950,"Ġreb":11951,"owÄħ":11952,"oÅĤ":11953,"otten":11954,"ettu":11955,"ĠprÃ©sent":11956,"ĠAlbert":11957,"ĠProfessor":11958,"Ġconj":11959,"Ġsue":11960,"éİ":11961,"Ġedific":11962,"Ġship":11963,"ON":11964,"Mich":11965,"å¸Ń":11966,"åłĤ":11967,"ĠÑģÑĤÑĢÐ¾":11968,"ieux":11969,"ĠMittel":11970,"prise":11971,"Ġgep":11972,"Ø§ÙĨØª":11973,"ĠpÃ¤Ã¤":11974,"ĠÑĨÐµÑĢ":11975,"Ġseven":11976,"Ġklass":11977,"Ġconse":11978,"Ġ48":11979,"Ġquelques":11980,"Ġvita":11981,"antal":11982,"ajÄħc":11983,"ãĤĴæĮģ":11984,"Ġdip":11985,"Ġnuevo":11986,"Ġsubsequ":11987,"Å¼a":11988,"Ġbá»Ļ":11989,"appen":11990,"ech":11991,"×Ĳ×ª":11992,"Ð½ÐµÐ¼":11993,"ĠMic":11994,"áº¯t":11995,"Ã¶lker":11996,"Ä±z":11997,"å°Ħ":11998,"Ġinvolved":11999,"issÃ¤":12000,"geg":12001,"reib":12002,"ĠCorn":12003,"lament":12004,"ĠOut":12005,"like":12006,"Ġfils":12007,"áĥ§":12008,"ä½ķ":12009,"Ġinflu":12010,"ĠLuis":12011,"Ġpubli":12012,"ktor":12013,"ĠÐ¸Ð·Ð´":12014,"Ġ×ĸ×Ķ":12015,"Ð½Ð¸Ñĩ":12016,"kim":12017,"izia":12018,"Ð¾Ð²Ð¾Ð¹":12019,"cych":12020,"xico":12021,"Ġ75":12022,"Go":12023,"Ä±nÄ±n":12024,"Jos":12025,"arc":12026,"ĠPi":12027,"½Ķ":12028,"There":12029,"æ£®":12030,"ufact":12031,"Ġêµ¬":12032,"ĠÐºÐ¾ÑĤÐ¾ÑĢÑĭÑħ":12033,"dr":12034,"05":12035,"Ġimmer":12036,"oba":12037,"ĠÐºÐ¾ÑĤ":12038,"ĠÐŁÐµÑĤ":12039,"Ã¡rios":12040,"Ġadopt":12041,"Ġshows":12042,"åĩºèº«":12043,"èĳī":12044,"ĠVirginia":12045,"Ġneue":12046,"èĺŃ":12047,"è®¾":12048,"Ġwys":12049,"Ġspecific":12050,"hang":12051,"×ł×Ļ×ª":12052,"ĠÐ´Ð¾ÑģÑĤ":12053,"ducation":12054,"Ã¨te":12055,"åıĪ":12056,"enci":12057,"ĠÐ¿Ð¾ÑģÐµÐ»":12058,"ĠWahl":12059,"iens":12060,"ĠprÃ©sident":12061,"Ġdá»¥":12062,"arth":12063,"erie":12064,"Ġincorpor":12065,"yll":12066,"íĽĦ":12067,"ĠAfrica":12068,"ãģ£ãģ¦ãģĦãģŁ":12069,"ĠBang":12070,"urm":12071,"Ġquella":12072,"áº«":12073,"unci":12074,"Ġcompon":12075,"åħ·":12076,"kez":12077,"ĠMarie":12078,"Ġincludes":12079,"08":12080,"Ġspel":12081,"ĠWilliams":12082,"×ľ×ĺ":12083,"ãĤ¤ãĥ«":12084,"à¥ĥ":12085,"å½ĵæĻĤ":12086,"Ġdestro":12087,"ÑģÐ¸Ð¸":12088,"Ġdial":12089,"ĠíĨ":12090,"ÑĥÑī":12091,"×Ļ×¡×ĺ":12092,"aru":12093,"ĠØ¹ÙĦÙĬ":12094,"rought":12095,"noÅĽÄĩ":12096,"Ġupon":12097,"ably":12098,"owania":12099,"ieri":12100,"à¦«":12101,"åŃ£":12102,"Ġdz":12103,"æľ«":12104,"Ġnagy":12105,"ĠrÃ³wnieÅ¼":12106,"Ð½Ð¸Ñħ":12107,"à¸Ńà¸¡":12108,"Ġusually":12109,"ĠÐ²Ð¼ÐµÑģÑĤ":12110,"Ġplayers":12111,"Ġê³ł":12112,"Ġsize":12113,"Ġerstmals":12114,"Ð¼Ð¿":12115,"ç±į":12116,"orough":12117,"Ġpend":12118,"Ġplatt":12119,"ĠÙĪØ¨":12120,"Ġprovided":12121,"ĠfÃ¶d":12122,"Ġcollege":12123,"æĮĻ":12124,"Ġmientras":12125,"ription":12126,"Ġaunque":12127,"è°·":12128,"Ġrange":12129,"asing":12130,"Don":12131,"à¹ģà¸ķ":12132,"ÏĦÎ±ÏĤ":12133,"Ð¾Ñİ":12134,"Ġgrav":12135,"Ġgoal":12136,"ĠÏĦÎ¹ÏĤ":12137,"ç«¶":12138,"under":12139,"cken":12140,"Ġers":12141,"Ġlain":12142,"ylvania":12143,"ellÃ¤":12144,"Ã¨de":12145,"ahlreich":12146,"halt":12147,"Ġprotagon":12148,"èģ¯":12149,"ĠJones":12150,"Ð¼ÐµÑĢÐ¸ÐºÐ°Ð½":12151,"ÙĬÙĥ":12152,"Ġrapid":12153,"ionato":12154,"Ġkal":12155,"Ġnob":12156,"ĠIns":12157,"uste":12158,"Ġlanz":12159,"Ġjour":12160,"ÑģÑĤÐ¾Ð²":12161,"Ġciv":12162,"iciones":12163,"Ġ×ķ×¢":12164,"Ġeight":12165,"mod":12166,"Ġà¤«":12167,"Ã¥g":12168,"ÑģÑģÐ»ÐµÐ´Ð¾Ð²":12169,"annten":12170,"à¸£à¸£":12171,"Ġ1906":12172,"ĠmÅ±":12173,"ĠMenschen":12174,"rar":12175,"Ġà¸Ĺ":12176,"ĠØ§ÙĦÙħØ¹":12177,"Ġ42":12178,"ĠìĦ¸":12179,"anos":12180,"ÑĢÐ¾Ð²Ð°Ð½":12181,"ãģ¨ãģĻãĤĭ":12182,"Ġsá»Ń":12183,"ĶĶ":12184,"Gen":12185,"çĽŁ":12186,"Ġtab":12187,"agem":12188,"gef":12189,"07":12190,"ĠFlorida":12191,"ults":12192,"Ġmez":12193,"Ġeither":12194,"ìŀĳ":12195,"DR":12196,"ĠBall":12197,"koz":12198,"ĠauÃŁ":12199,"rÃ¨s":12200,"lÃ©":12201,"Ø·Ø±":12202,"ĠBib":12203,"univers":12204,"ĠRah":12205,"Ġclose":12206,"èĹ¤":12207,"iá»ĥu":12208,"letak":12209,"ichten":12210,"ĳľ":12211,"yla":12212,"lossen":12213,"Her":12214,"Ġei":12215,"asons":12216,"à¹Ħà¸¡":12217,"kÃ³w":12218,"iber":12219,"ĠItalian":12220,"ÑħÐ¾Ð´Ð¸ÑĤÑģÑı":12221,"ãģŁãĤģãģ«":12222,"Ġbrother":12223,"house":12224,"ĠÙĦØ§":12225,"ĠêµŃ":12226,"oltre":12227,"ĠFue":12228,"ĠÐ¿Ð¾Ð±ÐµÐ´":12229,"ÎºÎ¿":12230,"ĠRoss":12231,"isterschaft":12232,"Ġáĥ®":12233,"Ġever":12234,"ĠÙĬÙĤ":12235,"ĠÑĦÐµÐ²ÑĢÐ°":12236,"áº¡c":12237,"ĠØ®ÙĦØ§ÙĦ":12238,"ç½Ĺ":12239,"ĠÐ¾Ñĩ":12240,"erno":12241,"æķĻèĤ²":12242,"Ġbig":12243,")ØĮ":12244,"ulta":12245,"Ġorang":12246,"erse":12247,"Ġdaughter":12248,"Ġmeny":12249,"Ġvaria":12250,"ĠCathol":12251,"Ġneu":12252,"ĠÑĩÑĤÐ¾Ð±Ñĭ":12253,"ĠNavy":12254,"ĠRh":12255,"Ġ1907":12256,"áĢ¹":12257,"oved":12258,"kol":12259,"ĠsekÃ¤":12260,"Ġmant":12261,"AN":12262,"Ġìĥģ":12263,"Ġproces":12264,"Ġselon":12265,"à¤¾à¥¤":12266,"Ġmedal":12267,"æĪ¸":12268,"áĥĿáĥĵ":12269,"Ġhacia":12270,"Ġinsc":12271,"Ġfight":12272,"wart":12273,"Ð»ÐµÐºÑĤ":12274,"é£Ľ":12275,"Ġdeutscher":12276,"Ġabit":12277,"Ġë¹Ħ":12278,"West":12279,"Ġstates":12280,"ĠtÃ¶bb":12281,"åī¯":12282,"Ġdirection":12283,"Ġguitar":12284,"ĠÐ²ÐµÐºÐ°":12285,"Ġcountries":12286,"Ġviel":12287,"Î»Î¿Î³":12288,"ĠPak":12289,"Ġrum":12290,"Ġpermet":12291,"ãĥĥãĥī":12292,"aille":12293,"à´¬":12294,"Ġbad":12295,"ĠØ³ÙĬ":12296,"Ð½Ð¸ÑĨ":12297,"ĠDemocrat":12298,"Ġcru":12299,"Ġsoc":12300,"ĠSus":12301,"ÏĦÎ¿ÏĤ":12302,"Ġ(Â«":12303,"ĠsydvÃ¤st":12304,"uvre":12305,"using":12306,"Ġsee":12307,"mak":12308,"Ã¨rent":12309,"Ãºblica":12310,"Î·Î¼":12311,"erei":12312,"ÙĤÛĮ":12313,"åį°":12314,"ĠpuÃ²":12315,"ox":12316,"ician":12317,"Ġrecogn":12318,"Gu":12319,"ologÃŃa":12320,"è¿½":12321,"ĠSab":12322,"Ø´Øª":12323,"ĠÑħÑĥÐ´":12324,"ested":12325,"ĠÃ¶st":12326,"Ġmiem":12327,"ĠÐºÑĢÐµ":12328,"ÙħØª":12329,"stad":12330,"ests":12331,"istrzost":12332,"dal":12333,"Ø§ÙĦØª":12334,"Ġtart":12335,"Ġchem":12336,"ĠInc":12337,"Ġ×ľ×Ĺ":12338,"à®¸":12339,"Ġterletak":12340,"Ġensuite":12341,"ĠëıĦ":12342,"bez":12343,"ĠDist":12344,"ĠSecret":12345,"Ġprimeiro":12346,"Ð½ÐµÑģ":12347,"ĠÐ´Ð¸Ð²":12348,"ĠÐ´ÐµÑıÑĤÐµÐ»ÑĮ":12349,"Ġjewe":12350,"ĠamÃ©ric":12351,"evers":12352,"ãĤ¸ãĤ§":12353,"arp":12354,"ĠLord":12355,"Ġhealth":12356,"à¹Ģà¸«":12357,"ãĤ¼":12358,"ëł¤":12359,"ĠEnter":12360,"Ġ×Ķ×ĺ":12361,"Ø§ÙĦØ§Øª":12362,"ĠSeine":12363,"udem":12364,"ãģ¨åĳ¼":12365,"ÑıÐ¶":12366,"ĠÑĤÑĢÐ°":12367,"urer":12368,"íĶĦ":12369,"ĠÑĢÐ°Ð·Ð»Ð¸Ñĩ":12370,"æ®ĭ":12371,"alais":12372,"ĠPass":12373,"Ġstudent":12374,"Ġentwick":12375,"Ġ×ŀ×¦":12376,"áĥĺáĥĲáĥľ":12377,"à¤¤à¤°":12378,"ĠØ§ÙĦØ£ÙĪÙĦ":12379,"Ġadapt":12380,"Ġquar":12381,"Ġà¤¸à¤®":12382,"à°«":12383,"ĠBach":12384,"ĠáĥĿ":12385,"Ġtheo":12386,"Ð·Ñĥ":12387,"Ġcompar":12388,"çķªçµĦ":12389,"ãģĵãģ¨ãĤĴ":12390,"Ein":12391,"cket":12392,"ĠHay":12393,"ãģ®ä¸Ń":12394,"Ãītat":12395,"×ĳ×ł":12396,"ê°ľ":12397,"ĠÑıÐ½Ð²Ð°ÑĢ":12398,"ãĤĪãģĨãģ«":12399,"ĠSoviet":12400,"Ġpark":12401,"Jean":12402,"ëįĺ":12403,"Ð¾ÑģÐ¾Ð±":12404,"ficie":12405,"rief":12406,"ĠVi":12407,"verse":12408,"Ġmias":12409,"asp":12410,"Ġ×ķ×Ķ":12411,"ÑģÐºÐ°ÑĤÐ°":12412,"ĠWhile":12413,"kte":12414,"Ã¼tz":12415,"Ġ×Ķ×ĳ×¨":12416,"izioni":12417,"Ġracc":12418,"ĠÑĢÑĥÐºÐ¾Ð²Ð¾Ð´":12419,"ĠÂ»,":12420,"ĠkhÃ¡c":12421,"edi":12422,"Ġsyst":12423,"fi":12424,"æĭ¬":12425,"ĠÑģÑĥÑīÐµ":12426,"Ġvice":12427,"Ġprogress":12428,"ingham":12429,"ĠColumbia":12430,"ĠNik":12431,"ĠOttawa":12432,"kop":12433,"ibi":12434,"áĥĺáĥĽ":12435,"Ð¾ÑģÑĤÑĮ":12436,"ikus":12437,"Ã¤us":12438,"Ġ×ĳ×Ĵ":12439,"iá»ĥm":12440,"ĠÑĤÑĢÐµ":12441,"tobre":12442,"ĠÃ¶n":12443,"Ġorden":12444,"Ġalcuni":12445,"Ġinstrument":12446,"Ġsound":12447,"Ġante":12448,"Ha":12449,"hl":12450,"ĠCorpor":12451,"Ð°ÑĤÐ¸":12452,"Ġuso":12453,"íĺ¸":12454,"Ð»Ð¾Ð¼":12455,"Ã³Åº":12456,"Ø§ÙģØ©":12457,"Ġlot":12458,"Ġinner":12459,"Ġaccept":12460,"åĭ¢":12461,"uty":12462,"Ġnau":12463,"emen":12464,"uits":12465,"Î£":12466,"Ġsea":12467,"Ġmagazine":12468,"Ġ×ķ×Ľ":12469,"èģĶ":12470,"Char":12471,"ç¯Ģ":12472,"Ġ×Ĳ×Ĺ×¨":12473,"ĠKam":12474,"Ġincluy":12475,"çĶ²":12476,"Ä±ÄŁÄ±":12477,"Ã¤tz":12478,"ŀĪ":12479,"ependant":12480,"ĠÐ³Ð¾Ð´Ñĭ":12481,"ea":12482,"inus":12483,"ĠÙĪÛĮ":12484,"ĠÑĦÐ¸Ð½":12485,"ç¼":12486,"Ġapo":12487,"Ġknow":12488,"Ã¤re":12489,"ĠÐ´Ð¾Ð»":12490,"Ġcollection":12491,"Ġadded":12492,"Ġreplaced":12493,"ç®Ĺ":12494,"Ġwhe":12495,"ÐºÐ¼":12496,"à´¡":12497,"ÐµÑĢÐ¾Ð²":12498,"Ġcommission":12499,"ĠÎŃÎ½Î±":12500,"ĠtÃ©l":12501,"ĠCentre":12502,"ĠFI":12503,"ÑįÐ½":12504,"Ġ1000":12505,"Ġfont":12506,"ë¬´":12507,"Ġdib":12508,"Ġelectr":12509,"ĠKais":12510,"ÑĥÐ½Ð°ÑĢÐ¾Ð´":12511,"ĠHist":12512,"ÙİÙĳ":12513,"ropolit":12514,"ĠÏīÏĤ":12515,"ĳ×¨":12516,"Ø²ÛĮ":12517,"ansas":12518,"Ġcomenz":12519,"ĠgehÃ¶rt":12520,"ĠDesp":12521,"Ð½Ð¸ÐºÐ¾Ð¼":12522,"Ġtrouve":12523,"Ø§Øº":12524,"Ġchá»ī":12525,"ÃŃr":12526,"Ġbritann":12527,"oster":12528,"Ġyer":12529,"Ġdecided":12530,"Ġregard":12531,"Ġ×ķ×ŀ×":12532,"Ġaccomp":12533,"riere":12534,"åıĤåĬł":12535,"Ġutilis":12536,"æ®º":12537,"ĠPenns":12538,"Ġconstit":12539,"Ġabove":12540,"à°Ĥ,":12541,"ĠÙĪÙĥØ§ÙĨ":12542,"è²ł":12543,"ned":12544,"ĠShow":12545,"ĠáĢŀ":12546,"\":":12547,"Î¸Îµ":12548,"Acc":12549,"íķł":12550,"ÃŃcula":12551,"azio":12552,"à¸Ħà¸§à¸²à¸¡":12553,"Ġgal":12554,"Ġkons":12555,"×©×Ļ×Ŀ":12556,"06":12557,"ĠÑĥÑĩÐ°ÑģÑĤ":12558,"pert":12559,"Ġnation":12560,"Ġplats":12561,"×Ļ×ķ×Ł":12562,"bas":12563,"Ġwhite":12564,"vanni":12565,"ampf":12566,"Ġleader":12567,"Ġtrabal":12568,"amerikan":12569,"Ġviá»ĩc":12570,"ÑĢÐ°Ñī":12571,"ĠsjÃ¶":12572,"Ã©rÃ©":12573,"ĠCrist":12574,"ĠáĢĢ":12575,"essÃ¤":12576,"Ġseconda":12577,"ĠÐ¼ÐµÑģÑĤÐ¾":12578,"Ġ1909":12579,"onse":12580,"Ġbol":12581,"ĠÃ©d":12582,"à¸²à¸¥":12583,"Ġnovembre":12584,"à´¨à´¤":12585,"ĠrÃ©p":12586,"à¤µà¤°":12587,"áº¥p":12588,"Ġground":12589,"Ġposto":12590,"jas":12591,"ĠBef":12592,"Ġdistin":12593,"ilis":12594,"Ã´i":12595,"Ġdiverse":12596,"Ġpartido":12597,"à±ĩà°Ĥ":12598,"Ġterritorio":12599,"Ġdentro":12600,"å¾Ģ":12601,"inson":12602,"Ġtutti":12603,"Ġgeg":12604,"éĺŁ":12605,"Ã¢teau":12606,"Ġprograma":12607,"ientes":12608,"×ł×ķ×ª":12609,"ĠØ¢Ø¨":12610,"HL":12611,"Ġmec":12612,"ĠTimes":12613,"ĠDol":12614,"nahm":12615,"ĠdÃ©m":12616,"recht":12617,"Ġà¦ħà¦¨":12618,"Ġwechsel":12619,"ĠÐļÐ°ÑĢ":12620,"Ġcomer":12621,"ãĥ©ãĥ³ãĥī":12622,"à¦¼à¥¤":12623,"Ġschon":12624,"Ġquindi":12625,"ÙĨÙĬØ©":12626,"æ¹ĸ":12627,"×¤×§":12628,"ĠFranz":12629,"illon":12630,"Ġtoute":12631,"eksi":12632,"rary":12633,"ãĥ¬ãĥ¼":12634,"Ġcaracter":12635,"å¡Ķ":12636,"ritten":12637,"Af":12638,"ĠÑĢÐ°Ð¹Ð¾Ð½Ðµ":12639,"Ġachie":12640,"Ġmention":12641,"Ġtego":12642,"bben":12643,"ĠìĬ¤":12644,"Ġbot":12645,"Ð°Ð½Ð¸Ñİ":12646,"Ġdegree":12647,"Ver":12648,"ĠYear":12649,"ĠPrix":12650,"ĠÑĥÐ¶Ðµ":12651,"front":12652,"Ø±ÙĬÙĤ":12653,"ĠtÃŃtulo":12654,"Will":12655,"áĥª":12656,"Ã§ois":12657,"ĠYoung":12658,"Ġstell":12659,"ĠÑģÑĥÐ´":12660,"vered":12661,"Ġket":12662,"ĠGh":12663,"ĠJackson":12664,"Os":12665,"cop":12666,"Ġfand":12667,"ĠÐ²Ð¾Ð»":12668,"Ġà¦ľà¦¨":12669,"ichen":12670,"Ġzak":12671,"ĠÑģÐµÑĢÐ¸":12672,"Ġjednak":12673,"Ġpiano":12674,"ĠcarriÃ¨re":12675,"×Ĳ×Ļ":12676,"ĠMundial":12677,"è¦³":12678,"ĠHistor":12679,"ä¼ģ":12680,"ĠÐ´Ð²ÑĥÑħ":12681,"dat":12682,"ä¸ĢèĪ¬":12683,"ĠÑĥÑģÐ¿":12684,"Ġdarauf":12685,"Ber":12686,"Ġdernier":12687,"wicklung":12688,"×ķ×ª×¨":12689,"ĠBarcel":12690,"ç¶Ļ":12691,"ĠØ§ÙĦÙĪÙĦØ§ÙĬØ§Øª":12692,"ĠDorf":12693,"ÐŁÐ¾":12694,"ĠVenez":12695,"ĠÐ½ÐµÑģÐºÐ¾Ð»ÑĮÐºÐ¾":12696,"Ġsotto":12697,"ĠÅģ":12698,"Ġfamiglia":12699,"Ð°ÑĤÑĭ":12700,"Ġdifficult":12701,"Ã²ng":12702,"03":12703,"ĠOri":12704,"ĠLebens":12705,"Ġthá»ĭ":12706,"Ã©quipe":12707,"Ġcell":12708,"nar":12709,"ãģĹãģĦ":12710,"Ø£Ø³":12711,"overs":12712,"ĠJon":12713,"Ġquali":12714,"ãĥ¼ãĥª":12715,"ingt":12716,"Î±Ïĥ":12717,"ÐµÐ½Ð½ÑĭÐ¹":12718,"Ð¾Ð»Ð¾Ð³Ð¸ÑĩÐµ":12719,"Æ¡i":12720,"ĠÐ·Ð°Ñī":12721,"Ø²Ø±":12722,"Ġster":12723,"gesamt":12724,"×Ļ×Ļ×ª×Ķ":12725,"iform":12726,"ĠdeuxiÃ¨me":12727,"ĠfÃ¼hrte":12728,"ê²½":12729,"ÐµÑĢÐ¾Ð¼":12730,"ĠÙĪØ¹":12731,"Ġurs":12732,"Ġdiplom":12733,"åıª":12734,"éĹľ":12735,"Ġtermine":12736,"ujÄħc":12737,"lieb":12738,"ishop":12739,"zog":12740,"Î¹ÎºÎ¿Ïį":12741,"Ġzone":12742,"Ã´t":12743,"Ġcrist":12744,"ÑĢÑĬ":12745,"ĠÎµÏĢÎ¹":12746,"American":12747,"Ġkilled":12748,"Ġquello":12749,"Ð²Ñĭ":12750,"Pl":12751,"ĠsÃ³":12752,"Ġgobierno":12753,"à¥ī":12754,"áĢ²áĢ·":12755,"Ã©rcito":12756,"Ġíĸ":12757,"Ð½Ð¸Ð¸":12758,"ĠÙħØ¬Ùħ":12759,"Ġancora":12760,"Ġ39":12761,"íĸī":12762,"Ð¶Ð°":12763,"Ġautre":12764,"Ġhuvudsakligen":12765,"ĠEine":12766,"áº¥y":12767,"Ġkad":12768,"04":12769,"Ġzahlreich":12770,"Ġtet":12771,"å·¦":12772,"immÃ¤":12773,"ĠìĦľ":12774,"åħ±åĴĮ":12775,"Ġà´İà´¨":12776,"ĠSteph":12777,"ĠÐµÑīÑĳ":12778,"ĠÐ¿Ð¾Ð»ÑĥÑĩÐ¸Ð»":12779,"ĠGef":12780,"entemente":12781,"Ġsezon":12782,"orado":12783,"Ġcaract":12784,"ĠKinder":12785,"oa":12786,"lit":12787,"ĠfrÃ¼":12788,"Ġdestin":12789,"×ĳ×©":12790,"Ð¸Ð½Ð¾":12791,"æ¯ı":12792,"ĠÑıÐ½Ð²Ð°ÑĢÑı":12793,"Ġquan":12794,"ãĤĵãģł":12795,"Ġformation":12796,"Ġnight":12797,"èĪĪ":12798,"Ø®Ø´":12799,"ĠÐ²ÐºÐ»ÑİÑĩ":12800,"inf":12801,"Ġmiesz":12802,"ĠPremier":12803,"miss":12804,"change":12805,"Cer":12806,"Ġtap":12807,"Ġreached":12808,"Ġbagian":12809,"Æ°á»Ł":12810,"ischof":12811,"ĠíĽĦ":12812,"nings":12813,"Ġsendo":12814,"å¨ģ":12815,"ãģĬãĤĪãģ³":12816,"fÃ¼r":12817,"Ġregionen":12818,"ĠNue":12819,"Ġlip":12820,"ÑģÑĥ":12821,"ĠFac":12822,"ĠPhilipp":12823,"Ġgioc":12824,"ĠÐ½Ð°Ð¿ÑĢÐ°Ð²":12825,"ĠRepublic":12826,"ĠáĢķ":12827,"Me":12828,"ê·":12829,"ĠxÃ£":12830,"ĠPhilip":12831,"Ð»ÑĮÐ±Ð¾Ð¼":12832,"ĠÐ¼Ð°Ñı":12833,"áĥ¬":12834,"ĠWald":12835,"èĻŁ":12836,"ìľł":12837,"å¾Įãģ®":12838,"×ķ×ª×Ķ":12839,"Ġga":12840,"Ġseule":12841,"ehn":12842,"ÑģÑĤÐµ":12843,"Ġcompan":12844,"ierz":12845,"Ġ1904":12846,"å®ĥ":12847,"ĠÐ¿Ð¾ÑıÐ²":12848,"ĠØ¬ÙħØ¹":12849,"ĠÙĤØ¯":12850,"quier":12851,"ÙĦØ§Øª":12852,"Ġsymbol":12853,"Ġmark":12854,"enia":12855,"ĠSS":12856,"Ġsah":12857,"su":12858,"Ġprovide":12859,"uita":12860,"æĹ§":12861,"ĠëķĮ":12862,"×ķ×Ĳ×¨":12863,"niu":12864,"iliki":12865,"Ġgouvernement":12866,"road":12867,"Ġbay":12868,"Ġcelebr":12869,"ĠJud":12870,"ÑĢÑĳ":12871,"Ġsomet":12872,"ĠÐ¼Ð¸ÑĢÐ°":12873,"ĠÐ½ÐµÐ´":12874,"Ġerricht":12875,"ĠPedro":12876,"ridge":12877,"Ø¯Ø§":12878,"Au":12879,"Ġstated":12880,"Ġquá»ĳc":12881,"ĠCopa":12882,"ĠVerd":12883,"´Ī":12884,"ĠHels":12885,"åĤ¬":12886,"esis":12887,"ĠØ§ÛĮÚ©":12888,"Ġsondern":12889,"áĥĶáĥ¢":12890,"Æ°á»Łng":12891,"Ġjej":12892,"lov":12893,"orme":12894,"Ġabs":12895,"ĠJapanese":12896,"Ġrot":12897,"ç¶Ń":12898,"urity":12899,"ills":12900,"à¥Į":12901,"Ġaircraft":12902,"othe":12903,"Ġcham":12904,"èģĸ":12905,"×ĳ×ĵ":12906,"æĢ¥":12907,"ÐºÐ°Ð´ÐµÐ¼":12908,"Do":12909,"skie":12910,"Ġapril":12911,"Ġopera":12912,"ĠÙħØ§Ø±":12913,"Ġmaxim":12914,"ãĥ¼ãĥ©":12915,"à°ķà°°":12916,"Ġparts":12917,"ivas":12918,"Ġprofessor":12919,"hÃ¤lt":12920,"zec":12921,"éª":12922,"Ġcenter":12923,"ĠÐ£ÐºÑĢÐ°":12924,"Ġvattendrag":12925,"Ġinizi":12926,"ĠÐ´ÐµÐºÐ°Ð±ÑĢÑı":12927,"quis":12928,"ĠWolf":12929,"Ġmutta":12930,"ĠStaats":12931,"jek":12932,"ĠIslam":12933,"ĠìĹ¬":12934,"ÄŁu":12935,"ĠMir":12936,"ÐµÑĢÐ½":12937,"Ġactive":12938,"Ġdyn":12939,"ĠGrÃ¼nd":12940,"ĠLew":12941,"ĠDeutschen":12942,"èĶ":12943,"áĥĺáĥ£áĥ":12944,"aper":12945,"Ġintroduced":12946,"gency":12947,"itive":12948,"ĠÐĺÐ·":12949,"Ġraz":12950,"ĠMatt":12951,"Ġrob":12952,"Ġgot":12953,"Ġara":12954,"Ġhus":12955,"schluss":12956,"fach":12957,"Ã¼z":12958,"ĠClass":12959,"ĠImper":12960,"ĠÑĩÐµÑĢÐµÐ·":12961,"Ġfick":12962,"ĠÐľÐ°ÑĢ":12963,"ĠÐ´Ð¸Ð²Ð¸Ð·":12964,"Ð¾ÑģÑģÐ¸Ð¹":12965,"jed":12966,"spr":12967,"å¿Ĺ":12968,"arily":12969,"à¸§à¸ĩ":12970,"áº·t":12971,"ĠÐĿÐ¾Ð²":12972,"Ð¾Ð±ÑĢÐ°Ð·":12973,"ĠDef":12974,"Ġvoll":12975,"Ġsydost":12976,"ãĤģãģ¦":12977,"Ġnev":12978,"ĠÙĤØ±Ø§Ø±":12979,"hood":12980,"ĠDit":12981,"raum":12982,"Ġdirected":12983,"ãģ«åħ¥":12984,"çĻ¾":12985,"ĠBoston":12986,"Ġnature":12987,"ĠÐºÑĢÐ¸":12988,"Ġbenef":12989,"Ġbrought":12990,"Ġeinige":12991,"æ´¥":12992,"ĠKomp":12993,"ensk":12994,"Ġnombreux":12995,"ãĥ©ãĥ³":12996,"Ġintens":12997,"à¸Īà¸°":12998,"uru":12999,"Ġkez":13000,"Ġseines":13001,"'.":13002,"ĠDurante":13003,"oti":13004,"åľ°æĸ¹":13005,"ĠÐ¿ÐµÑĢÐ¸Ð¾Ð´":13006,"ãĥ³ãĥĢ":13007,"ĠÃºj":13008,"Ġfrat":13009,"Ġcm":13010,"×ĳ×ª":13011,"ÑĥÑĢÐ½":13012,"Ġti":13013,"á»Łi":13014,"origine":13015,"Ġexhib":13016,"ĠkÃ¶r":13017,"Ġpromo":13018,"anych":13019,"ĠÑģÐ¸Ð»":13020,"Ð±Ñĥ":13021,"Ġplann":13022,"gro":13023,"olis":13024,"aniu":13025,"ä¾¿":13026,"asti":13027,"ĠScot":13028,"ĠÙĦÙĦÙħ":13029,"ĠÐ¼ÑĥÐ¶":13030,"ĠSÃ¼":13031,"Ã¡tica":13032,"ä¼¯":13033,"ĠsituÃ©":13034,"ĠmÃł":13035,"Ġáĥ¢":13036,"Ġpartecip":13037,"Ġstatus":13038,"áĥĿáĥłáĥ":13039,"ç¸½":13040,"Ġvide":13041,"Ġdov":13042,"ston":13043,"Ġpeque":13044,"áº¥u":13045,"etzung":13046,"ieb":13047,"Ð¼Ð¾ÑĤ":13048,"Ġwegen":13049,"Ġexpress":13050,"Ġdelst":13051,"ØªØ´":13052,"à´ķà´³":13053,"Ġprogramm":13054,"ĠÐ·Ð°Ð½":13055,"Ġtransform":13056,"ĠJose":13057,"ĠzostaÅĤa":13058,"ĠÃ©crit":13059,"jal":13060,"indung":13061,"ÐºÐ¸Ñħ":13062,"anuel":13063,"ÑģÐºÐ¾Ð¼Ñĥ":13064,"ĠSver":13065,"ÐºÐ°Ð¼Ð¸":13066,"ÙħÛĮÙĨ":13067,"ifik":13068,"1997":13069,"ĠÐ°Ð²Ð³ÑĥÑģÑĤÐ°":13070,"ĠJohnson":13071,"emplo":13072,"Ġeleg":13073,"estr":13074,"AF":13075,"ĠMÃ©xico":13076,"fta":13077,"ãĤ¹ãģ®":13078,"Ġabandon":13079,"Ġneben":13080,"Ø¦ÙĬØ³":13081,"ØŃÙĬ":13082,"itzer":13083,"ĠÐĲÐ²":13084,"Ġzweiten":13085,"ç«ł":13086,"à´¥":13087,"otes":13088,"éĿ©":13089,"airs":13090,"ecial":13091,"Ħĸ":13092,"Ġdram":13093,"Ġtuvo":13094,"Ġvro":13095,"oort":13096,"Ġwed":13097,"à¸²à¸Ī":13098,"euw":13099,"ÙĪØ±ÙĬ":13100,"Ġmayo":13101,"amed":13102,"ĠRud":13103,"Ġaang":13104,"Ġmedio":13105,"åı³":13106,"down":13107,"Ġroi":13108,"Ġmean":13109,"Ġphilos":13110,"ìķĪ":13111,"Îĳ":13112,"Ġrisp":13113,"Ġ×¢×ĵ":13114,"zone":13115,"aled":13116,"Ġveh":13117,"Ġrather":13118,"ĠÐºÐ¾ÑĤÐ¾ÑĢÐ¾Ð¹":13119,"Ġsog":13120,"Ġconhec":13121,"eket":13122,"Ð°ÑĢÐ¾Ð²":13123,"Ġfog":13124,"ãĤĵãģ§":13125,"ĠÐ³ÐµÑĢ":13126,"Ð¾ÑĢÐ°Ñı":13127,"Ġ1890":13128,"Ġsow":13129,"Ġprior":13130,"ĠIts":13131,"ohen":13132,"shire":13133,"æĺĵ":13134,"Ã¸d":13135,"Ġalmost":13136,"ĠMaur":13137,"Ø¬Ø©":13138,"Ġlegisl":13139,"ĠdÃ©cl":13140,"ĠZusammen":13141,"gefÃ¼hr":13142,"Ġleast":13143,"02":13144,"AM":13145,"Ġurspr":13146,"ĠWerk":13147,"Ġfourth":13148,"æ¨Ĥ":13149,"aris":13150,"ĠAre":13151,"Ġloss":13152,"ĠwiÄĻ":13153,"ä¹ħ":13154,"ĠÐ¿Ð¾Ð¼Ð¾Ñī":13155,"Ġnegli":13156,"ĠÐ¿Ð¸Ñģ":13157,"ĠOld":13158,"ĠÐ¸ÑİÐ»Ñı":13159,"à´ŀ":13160,"ĠCarolina":13161,"Ġawarded":13162,"Ġcargo":13163,"ĠBew":13164,"ĠEstado":13165,"ãĤĪãģĨãģª":13166,"ĠKu":13167,"ĠRang":13168,"ĠKenn":13169,"ĠfÅĳ":13170,"Ġkolej":13171,"iks":13172,"Ġ×ľ×ª":13173,"ĠÐ¿ÑĢÐ¸Ð½Ñı":13174,"ĠOx":13175,"æŃ´":13176,"Ġattrib":13177,"åĿĩ":13178,"Ġmarca":13179,"ĠHav":13180,"å¯Į":13181,"Ġmeas":13182,"Dans":13183,"ging":13184,"irs":13185,"Ð¸Ð½Ñĥ":13186,"utch":13187,"ĠHit":13188,"ĠSome":13189,"å§Ķåĵ¡":13190,"ÏĦÎ±Î¹":13191,"ĠSecond":13192,"Î¹ÎºÎŃÏĤ":13193,"ãĤ«ãĥ¼":13194,"Ġkind":13195,"ĠRussian":13196,"Ġletter":13197,"ĠáĢĲ":13198,"Ġsitt":13199,"åľº":13200,"Ġcod":13201,"Ð»ÐµÐ¹":13202,"ĠBuen":13203,"Ġpit":13204,"Ð¾Ð³Ð»Ð°Ñģ":13205,"Ġbekend":13206,"Ġcri":13207,"Ġarbeitete":13208,"Ú©ÛĮ":13209,"Ġolymp":13210,"rd":13211,"ĠÎµÎ¯":13212,"Ġobject":13213,"ims":13214,"Lo":13215,"Ð¾Ð·Ñı":13216,"ĠÐ¾ÑģÐ¾Ð±":13217,"rix":13218,"×ŀ×Ļ×Ŀ":13219,"ĠNieder":13220,"Ġtháº¿":13221,"ketball":13222,"sterd":13223,"äºĭä»¶":13224,"ÑĥÐ»Ñı":13225,"ĠWales":13226,"Ð¸ÑĢÐ¸":13227,"Ġkas":13228,"otti":13229,"ãĤ·ãĤ¢":13230,"à¸Ļà¸ª":13231,"Ã¼s":13232,"ĠÑįÐºÑģÐ¿":13233,"ĠÐ¼Ð°ÑĢÑĤÐ°":13234,"ĠØ³ÙĨØ©":13235,"ĠÐ½Ð°Ð·Ð½Ð°Ñĩ":13236,"Ġgenom":13237,"Ġattended":13238,"ä»¥åıĬ":13239,"usal":13240,"Ġbev":13241,"neur":13242,"Ġsurface":13243,"æĻ¯":13244,"Ġtrain":13245,"ãĥĭãĤ¢":13246,"æ¥µ":13247,"ĠdÃŃa":13248,"ĠnastÄĻp":13249,"ĠHab":13250,"ĠKor":13251,"Ġvarios":13252,"Ġfederal":13253,"Ġoctubre":13254,"Ġestable":13255,"Ð´ÐµÐ¹":13256,"éĺª":13257,"Ġeditor":13258,"ĠÑģÐµÐ½ÑĤÑıÐ±ÑĢÑı":13259,"ureau":13260,"ikal":13261,"Ġbehind":13262,"ãģĪãģŁ":13263,"ĠÐŀÑĤ":13264,"ĠÐ¾ÑĤÐ´ÐµÐ»":13265,"Ġizan":13266,"å¥¹":13267,"àµĬ":13268,"ÐµÑģÑĤÐ¸":13269,"Ġà®®à®±":13270,"ĠÐľÐ°Ðº":13271,"ĠÑĢÐµÐºÐ¸":13272,"ĠEss":13273,"Ġenter":13274,"ĠKingdom":13275,"Ġhid":13276,"ãĤĩ":13277,"Ġtrov":13278,"Ã¼b":13279,"wald":13280,"ĠÑģÑĤÐ¾ÑĢÐ¾Ð½":13281,"Ġ55":13282,"Ġvagy":13283,"Ġcert":13284,"Ġnuc":13285,"ĠÐ¾ÐºÑĤÑıÐ±ÑĢÑı":13286,"Ġ49":13287,"ĠÐµÐ´Ð¸Ð½":13288,"elta":13289,"rike":13290,"ĠtenÃŃa":13291,"Ġdalle":13292,"ĠValley":13293,"Ġcolle":13294,"ĠìĦ±":13295,"Sa":13296,"åĮ»":13297,"ĠHerr":13298,"Ġsimple":13299,"Ġwob":13300,"à®©à®°":13301,"å¹´ãģ«ãģ¯":13302,"Ġmenos":13303,"ë³¸":13304,"nel":13305,"åĽ½ãģ®":13306,"gericht":13307,"ĠtÃ¤tbefolkat":13308,"ersey":13309,"ĠÐ½Ð°ÑĥÑĩ":13310,"ĠÑĤÐµÑĢÑĢÐ¸ÑĤÐ¾ÑĢÐ¸Ð¸":13311,"Ġcort":13312,"ĠtÃ©r":13313,"rano":13314,"ĠCommittee":13315,"ĠAsia":13316,"ĠFrances":13317,"ĠSpanish":13318,"è¿Ĳ":13319,"ÏĦÎ®":13320,"ĠÑĥÑģÑĤÐ°Ð½Ð¾Ð²":13321,"TC":13322,"ĠìĤ":13323,"ĠFab":13324,"æĶ¶":13325,"ĠÐ¼Ð½Ð¾Ð³Ð¾":13326,"adÄ±r":13327,"Ġmuj":13328,"ĠÑĦÐ°Ðº":13329,"owan":13330,"Ġelek":13331,"ĠPaulo":13332,"Ġgoverno":13333,"1980":13334,"Ġort":13335,"à¹Ģà¸ª":13336,"ĠkÃ¶zÃ¶tt":13337,"Ġseptiembre":13338,"ØªÙģ":13339,"ĠPennsylvania":13340,"Ġsource":13341,"ĠÐ½ÐµÐºÐ¾ÑĤÐ¾ÑĢ":13342,"Ġnetwork":13343,"Ġisland":13344,"iani":13345,"Ġëħ":13346,"ĠPrin":13347,"éĽ·":13348,"ĠyÄ±lÄ±nda":13349,"ãĤĮãģ°":13350,"Ġquanto":13351,"Ð¾ÑĢÐ¾Ð³":13352,"Ġmois":13353,"ãĤīãĤĮãģ¦ãģĦãĤĭ":13354,"sson":13355,"Ġrights":13356,"ĠØ§ÙĦÙĤØ±":13357,"Ġê´Ģ":13358,"ĠÑĦÑĥÑĤ":13359,"ĠAnna":13360,"Ø¯Ø§Ùħ":13361,"arÃŃa":13362,"ä½Ĳ":13363,"æİ¡":13364,"Ġrozp":13365,"ĠÅĵ":13366,"à¸«à¸£":13367,"Ã§as":13368,"ipe":13369,"Ġcust":13370,"Ġjan":13371,"ãĥ¨":13372,"ĠPara":13373,"itial":13374,"Ġgiorn":13375,"Ġsoon":13376,"à¸²à¸Ĺ":13377,"ĠdziaÅĤ":13378,"ĠÐ¼Ð¾Ð¶ÐµÑĤ":13379,"ulpt":13380,"ĠÐºÐ¾ÑĤÐ¾ÑĢÐ°Ñı":13381,"uchte":13382,"Ġbesta":13383,"olkad":13384,"ouest":13385,"±´":13386,"Ġceleb":13387,"īnh":13388,"ĠØ¯Ø§Ø±":13389,"uerte":13390,"ĠUN":13391,"Ġviss":13392,"ĠHarr":13393,"ziÅĤ":13394,"ÌĤ":13395,"à¦ł":13396,"ĠBla":13397,"Ġdispon":13398,"Ġfemale":13399,"esh":13400,"ecciÃ³n":13401,"åľ°åŁŁ":13402,"Ġmagn":13403,"osen":13404,"ÑĨÐµÐ½":13405,"çĴ°":13406,"à¥ĩ.":13407,"ĠÙħØ³Øª":13408,"Ã¶ld":13409,"à´´":13410,"ÙĤØ·":13411,"à¤ªà¤¨":13412,"edad":13413,"ÐµÐ´ÐµÑĢÐ°":13414,"ç¤¾ä¼ļ":13415,"Ġich":13416,"ĠNic":13417,"Ġbin":13418,"ĠLis":13419,"ilitÃł":13420,"TS":13421,"ĠmiÃªu":13422,"ĠBev":13423,"Ġsuperficie":13424,"Ġpurch":13425,"Ġstudierte":13426,"ĠÐ´ÑĢÑĥ":13427,"During":13428,"Ġmga":13429,"Ð¸Ñİ":13430,"1996":13431,"Ø¯Ø§Ø±":13432,"ĠSeries":13433,"ĠprÃ¨s":13434,"ĠGon":13435,"ãģªãĤĭ":13436,"onces":13437,"ë¬¼":13438,"å·®":13439,"lesia":13440,"èµĽ":13441,"ĠØ£Ø³":13442,"åħ¶ä¸Ń":13443,"ÑģÐ¾Ð½":13444,"ĠVill":13445,"å¤§ãģį":13446,"Ġconsum":13447,"ĠEinwohner":13448,"Ġheut":13449,"Ġdemon":13450,"urre":13451,"Ġjulio":13452,"xtart":13453,"arre":13454,"Ġunits":13455,"Si":13456,"ãģ¨ãģªãĤĬ":13457,"Ð¸ÑĤÑģÑı":13458,"ĠÐĳÐµÐ»":13459,"autÃ©":13460,"ĠÐºÐ»Ð°Ñģ":13461,"ĠHeinrich":13462,"ĠcÃ¹ng":13463,"ĠFound":13464,"Ġlabel":13465,"pped":13466,"çħ§":13467,"Ġprimeira":13468,"ĠTay":13469,"Ġlá»Ľ":13470,"Ð¾ÑģÑĤÐ¾Ñĩ":13471,"ĠÐķÐ²ÑĢÐ¾Ð¿":13472,"æī¿":13473,"Ġaltre":13474,"Ã¤nn":13475,"Ã³Åºniej":13476,"eget":13477,"ĠnhÃ¢n":13478,"Ġdiscuss":13479,"bul":13480,"ĠÐ¿ÑĢÐ¾Ð´Ð¾Ð»Ð¶":13481,"Ġíķ´":13482,"ĠBBC":13483,"ĠGel":13484,"Ð½ÐµÐ²":13485,"Ġcultur":13486,"Ã¼cke":13487,"lÃ©s":13488,"ĠÐ½Ð¸Ñħ":13489,"istic":13490,"Ġhatten":13491,"æ°¸":13492,"ĠAccording":13493,"Ġscen":13494,"Ġoffici":13495,"ordo":13496,"×ª×Ķ":13497,"annÃ©e":13498,"ãĥ¬ãĤ¤":13499,"ìļ´":13500,"ĠElect":13501,"ÃŃd":13502,"Ġandra":13503,"ietnam":13504,"unge":13505,"rado":13506,"Ġsupp":13507,"ìķ¼":13508,"è¾¼":13509,"uwe":13510,"Ġscience":13511,"osh":13512,"estre":13513,"ĠGraf":13514,"æĪĳ":13515,"iá»ĩu":13516,"ĠÑģÐ²Ð¾ÐµÐ¹":13517,"Ġraggi":13518,"æģ¯":13519,"Mit":13520,"ĠÐ´Ð¾Ð±":13521,"edir":13522,"åħ¸":13523,"Ø±Ùħ":13524,"ĠWy":13525,"ĠÐ¸ÑİÐ½Ñı":13526,"ĠGreg":13527,"Ġmesmo":13528,"api":13529,"ĠDort":13530,"Ġboard":13531,"ĶĤ":13532,"bud":13533,"ĠProdu":13534,"Ġtaraf":13535,"Ġjournal":13536,"Bl":13537,"tah":13538,"Ġerre":13539,"iteit":13540,"Ġdois":13541,"åıĭ":13542,".).":13543,"Ġcuatro":13544,"çį²å¾Ĺ":13545,"Ġwhose":13546,"×ķ×Ķ":13547,"ĠÐ»Ð¸ÑĤ":13548,"icket":13549,"Ġerne":13550,"konom":13551,"Ġcompag":13552,"Ġapproximately":13553,"Î¼Î·":13554,"Ð³Ð°ÑĢ":13555,"Ġenero":13556,"Ġverso":13557,"ĠÐ¾ÑģÑĤÑĢÐ¾Ð²":13558,"Ġgrund":13559,"Ġihrem":13560,"Ġfonction":13561,"lieÃŁlich":13562,"ĠScience":13563,"iac":13564,"Ø§ÙĦÛĮ":13565,"å¸Į":13566,"ĠTw":13567,"keen":13568,"ÙĩÙĦ":13569,"Ġpoz":13570,"ãĥ³ãģ¯":13571,"aggi":13572,"ãĥ´ãĤ£":13573,"ĠService":13574,"Ðĸ":13575,"á»Ļng":13576,"Ġczy":13577,"ÙĪÙĨÛĮ":13578,"åĪ©çĶ¨":13579,"ĠPatr":13580,"etzte":13581,"Ġcaratter":13582,"ĠhÆ¡n":13583,"read":13584,"ĠìŀĪëĬĶ":13585,"ĠÐ½Ð¸":13586,"Ġplaced":13587,"ĠId":13588,"ĠFord":13589,"Ð»ÑĥÐ¶":13590,"ĠrÃ¥der":13591,"ĠSerb":13592,"ĠJahrhunderts":13593,"åıĸãĤĬ":13594,"áº¡ng":13595,"hou":13596,"oul":13597,"oln":13598,"éĸĭçĻº":13599,"Ġproy":13600,"ĠWinter":13601,"ĠFinland":13602,"Ġspace":13603,"ĠCatholic":13604,"ØŃØ©":13605,"Ð¸ÑĤÐµÐ»ÑĮÐ½Ð¾":13606,"otter":13607,"áĢĿ":13608,"ĠBab":13609,"ĠÑĢÐµÐ³Ð¸":13610,"Ġà®ĩà®¨":13611,"Ġznajdu":13612,"á»ĭch":13613,"Ġotten":13614,"ĠfÃ¶dd":13615,"Ġstark":13616,"Ġrejo":13617,"Ġscored":13618,"ë£¨":13619,"Ġbesteht":13620,"ä¸¤":13621,"asst":13622,"ãģ«éĸ¢":13623,"à´Ń":13624,"Ã³k":13625,"ĠConn":13626,"Ġdá»¥ng":13627,"Ġcompetition":13628,"adora":13629,"áģĬ":13630,"Ġà¹Ģà¸Ľ":13631,"Ġporte":13632,"×ķ×¨×Ļ×Ŀ":13633,"å¤§ä¼ļ":13634,"ÙħØ±ÛĮÚ©":13635,"ĠLar":13636,"Ġà¦«":13637,"Ø§Ø´Ø¯":13638,"ĠsÃ©c":13639,"perti":13640,"Ġobras":13641,"æ¤į":13642,"Ø²Ø§Ø±":13643,"ÙĪØ±Øª":13644,"ĠCerro":13645,"buch":13646,"åįİ":13647,"genommen":13648,"Ġ1903":13649,"ĠÐĴÐµÐ»Ð¸Ðº":13650,"Ġproced":13651,"Ġmess":13652,"ĠÐ³Ð¾Ð´Ð¸Ð½Ð°":13653,"æŃ³":13654,"×Ľ×Ķ":13655,"zahl":13656,"pois":13657,"Ġjunio":13658,"ication":13659,"Ġinstead":13660,"åģľ":13661,"à¤³":13662,"ĠLiter":13663,"ÙĪØ¦":13664,"Ġbers":13665,"Ġah":13666,"itza":13667,"Ġmemiliki":13668,"Ġ43":13669,"iÅŁ":13670,"schrift":13671,"irt":13672,"Ġoldu":13673,"Ġsuas":13674,"ytu":13675,"Ġfif":13676,"ĠÐ¾Ð¿ÑĢÐµÐ´ÐµÐ»":13677,"íĤ¤":13678,"åįĺ":13679,"Ġnuovo":13680,"çº¿":13681,"ĠØªÚ¾":13682,"Ġimmed":13683,"ĠHof":13684,"Ġmehrere":13685,"zil":13686,"unidense":13687,"Ġcommercial":13688,"Ã¤uf":13689,"áĥĲáĥ¨áĥĺ":13690,"iero":13691,"Ð¾Ð³ÑĢÐ°Ð¼":13692,"Ġlegal":13693,"ilitÃ©":13694,"ĠÏĢÎ¿":13695,"-,":13696,"aring":13697,"Ġinspir":13698,"ĠÙħÙĨØ·":13699,"akte":13700,"PD":13701,"ê±°":13702,"Ø°Ø§":13703,"ĠBoard":13704,"Ð»Ð°Ð½":13705,"licht":13706,"Ø®ÙĦ":13707,"ĠÐ°Ð¼ÐµÑĢÐ¸ÐºÐ°Ð½":13708,"ĠÃ©taient":13709,"Ġbor":13710,"ĠVictoria":13711,"Ġ×Ĳ×ļ":13712,"Ġri":13713,"ibles":13714,"Hol":13715,"á»ħn":13716,"Ġchiáº¿n":13717,"ĠpÃ³ÅĤ":13718,"å¾¡":13719,"Ġgroot":13720,"Ð¸ÑĢÑĥ":13721,"ĠDVD":13722,"Ġtai":13723,"arkan":13724,"ĠÄĳo":13725,"allis":13726,"tient":13727,"ĠÐµÐ²":13728,"ĠÐ¸Ð½ÑĤ":13729,"Ġprac":13730,"rel":13731,"illy":13732,"Ġmend":13733,"ĠStation":13734,"ĠÙģÛĮ":13735,"1995":13736,"ãĢıï¼Ī":13737,"Ġchez":13738,"Mus":13739,"Ġminutes":13740,"ĠÄĳá»ģ":13741,"Ð»Ð°Ð´Ð¸":13742,"ĠÃ¡t":13743,"×ķ×ľ×Ķ":13744,"ĠLehr":13745,"jÃ¤":13746,"Ġdago":13747,"æŁ»":13748,"ĠÐ°Ð¿ÑĢÐµÐ»Ñı":13749,"ãĥ«ãģ®":13750,"eball":13751,"ĠÑģÐ»Ð¾Ð²":13752,"Ð¸ÑĤÐµÐ»Ð¸":13753,"ĠBow":13754,"æľĽ":13755,"right":13756,"æĸŃ":13757,"useo":13758,"Ġitself":13759,"Ġmanufact":13760,"pie":13761,"ĠÐŀÐ±":13762,"Ġutilizz":13763,"áĥĶáĥĴ":13764,"ĠÑģÐµÐ»Ð¾":13765,"ĠÑģÐµÐº":13766,"azar":13767,"wen":13768,"Ġdestac":13769,"ĠColl":13770,"ç¡":13771,"áĥĲáĥłáĥĹ":13772,"ĠMid":13773,"ãģ®ãģ¯":13774,"ĠKent":13775,"ĠÙĦÙĩ":13776,"ĠjÃ¤l":13777,"ĠÐ»ÑİÐ±":13778,"ening":13779,"imate":13780,"Ã¡bb":13781,"anst":13782,"Ġidea":13783,"ĠØ¯Ø§Ø´":13784,"bildung":13785,"ĠWood":13786,"ĠÐ¾ÑĢÐ³Ð°Ð½Ð¸Ð·Ð°":13787,"Ð°ÑĢÑı":13788,"lais":13789,"ĠáĢĽ":13790,"ulf":13791,"Ġexpand":13792,"Ġ47":13793,"oft":13794,"ÑĮÐµÑĢ":13795,"Aut":13796,"Ġgenannt":13797,"Ġ().":13798,"Ġ1902":13799,"ĠwystÄĻp":13800,"Ġafin":13801,"ĠAires":13802,"iments":13803,"Ġdouble":13804,"à¸²à¸ķ":13805,"tario":13806,"ÐµÑģÑĮ":13807,"Ġobef":13808,"çªģ":13809,"ĠFuÃŁball":13810,"platz":13811,"ĠÐ°Ð»ÑĮÐ±Ð¾Ð¼":13812,"Ġà°¶":13813,"ĠgiÃł":13814,"å±¬":13815,"ĠIreland":13816,"à¸Ĳ":13817,"ieck":13818,"æĹħ":13819,"ì°¨":13820,"åķıé¡Į":13821,"onf":13822,"Ġbeginning":13823,"ĠBry":13824,"ØµÙģ":13825,"ĠÐ¿ÑĢÐ¸Ð½":13826,"ĠÃ¢":13827,"Ġtend":13828,"ĠKim":13829,"ĠÎµÎ¾":13830,"ĠÐºÐ¾Ð½ÑĨ":13831,"ĠÐ´ÑĢÑĥÐ³Ð¸Ñħ":13832,"ĠczÅĤ":13833,"ĠFederal":13834,"à¸Ĺà¸¢":13835,"Elle":13836,"ëł¥":13837,"Ġobefolkad":13838,"Û´":13839,"á»ķi":13840,"ÑĢÑĮ":13841,"à¹Ģà¸Ī":13842,"Ġriver":13843,"ç´°":13844,"utto":13845,"ç¾İåľĭ":13846,"Ð²Ð¾":13847,"æ¾":13848,"Ġhans":13849,"iras":13850,"ĠÐ·Ð°ÑĤÐµÐ¼":13851,"ĠTambiÃ©n":13852,"Ġrat":13853,"ĠÑĢÐ¸":13854,"Ġlower":13855,"ĠÅŀ":13856,"Ġfuture":13857,"nin":13858,"Ġgemeins":13859,"ä¸ĥ":13860,"éĦ":13861,"ÑģÐºÐ¸Ð¼Ð¸":13862,"ĠTs":13863,"ĠbyÅĤa":13864,"ogrÃ¡":13865,"ĠhÃ¬nh":13866,"ãĥ´ãĤ¡":13867,"cipl":13868,"ìĹ°":13869,"ĠfÃ¶ljande":13870,"ĠLor":13871,"elah":13872,"Ġtouch":13873,"Ġerhalten":13874,"rin":13875,"Ġcart":13876,"Ġregul":13877,"Ġdieses":13878,"ĠBron":13879,"æĬĹ":13880,"rÃ³d":13881,"elly":13882,"áĢ¯áĢ¶":13883,"Ġexperiment":13884,"cyj":13885,"uas":13886,"ç»Ħ":13887,"Ġconcept":13888,"×¨×ļ":13889,"Ġdeta":13890,"ÙĨØ¯Ùĩ":13891,"Ġ41":13892,"Ø§ÙĨØ´":13893,"Ġself":13894,"verk":13895,"ãģªãģĬ":13896,"uct":13897,"ĠGeschichte":13898,"Ãĸ":13899,"äº§":13900,"ĠÑĦÐ¾Ð½":13901,"jÃ¤hr":13902,"rob":13903,"à®ªà®¤":13904,"rec":13905,"ĠutÃ¡n":13906,"Ġnorthern":13907,"×Ĵ×¨":13908,"Ġoutside":13909,"Ġ46":13910,"omy":13911,"Ø¬ÙĦ":13912,"ÑīÐµÐµ":13913,"åĽ½å®¶":13914,"çŃĸ":13915,"idel":13916,"Kar":13917,"Ã¶ss":13918,"schafts":13919,"Ġsystems":13920,"ÑģÐµÐ´":13921,"ÑĥÑİÑĤ":13922,"olg":13923,"Ġfestival":13924,"rok":13925,"agt":13926,"Î¼ÏĮ":13927,"ĠBlan":13928,"Ð¾ÑģÑĤÐ¾Ðº":13929,"ĠTen":13930,"à¤ĩ":13931,"Ġconditions":13932,"ĠAtlant":13933,"ieh":13934,"ĠLine":13935,"Ġentonces":13936,"åĢĳ":13937,"ãĥ³ãĥĨ":13938,"Ġpoet":13939,"eteil":13940,"attro":13941,"ĠFund":13942,"sterdam":13943,"åĮħæĭ¬":13944,"Ġmovement":13945,"ĠpÃ¨re":13946,"Ġwicht":13947,"à¤ķà¤°":13948,"ĠBed":13949,"zÄħd":13950,"×ŀ×Ļ":13951,"Ġdiferentes":13952,"isan":13953,"Ġdiciembre":13954,"ĨĴ":13955,"ÑĤÑĭ":13956,"ĠØ¬ÙĪ":13957,"andra":13958,"Ú©Øª":13959,"%)":13960,"kring":13961,"ĠíĶĦ":13962,"ĠÐ¼Ð¾ÑĢ":13963,"eken":13964,"ÏĥÎµÎ¹ÏĤ":13965,"ĠÐ³ÐµÐ½ÐµÑĢÐ°":13966,"ĠØªØŃØª":13967,"æĴŃ":13968,"lyn":13969,"ĠCorporation":13970,"Ġneigh":13971,"Ġlebih":13972,"Ã¨le":13973,"rech":13974,"áĥĺáĥļáĥĺ":13975,"arz":13976,"ãģŁãģ¡":13977,"Ġrappresent":13978,"Ġhomb":13979,"ĠBrig":13980,"Û¸":13981,"umm":13982,"ĠÐ¸ÑģÐ¿Ð¾Ð»":13983,"CC":13984,"uksen":13985,"ĠØ¯Ø³Øª":13986,"å¹´ãģĭãĤī":13987,"Î¯Î¿":13988,"ÅĦczy":13989,"ĠMess":13990,"seau":13991,"ãģĶ":13992,"Ġindustry":13993,"Ø¨Ø§Øª":13994,"è¨±":13995,"Ġsera":13996,"Ġtelep":13997,"Ġverf":13998,"çĻºå£²":13999,"Ġrecib":14000,"ĠTest":14001,"ĠÐ¼Ð°Ñģ":14002,"Ġrikt":14003,"Ġdistrito":14004,"ĠlÃ¤ng":14005,"Î³ÏģÎ±":14006,"ãĥķãĤ§":14007,"ĠÐŀÑģ":14008,"ãĥ¼ãĥĬ":14009,"Ġorganization":14010,"Ġpermett":14011,"Ð¼Ð¸Ð½Ð¸ÑģÑĤÑĢÐ°ÑĤÐ¸Ð²":14012,"Ġparents":14013,"Ġbooks":14014,"akes":14015,"Ġallowed":14016,"Ġ×ŀ×¤":14017,"ĠÐŁÑĢÐµÐ·":14018,"Ġsyfta":14019,"dire":14020,"ĠâĦĸ":14021,"Ġzach":14022,"à¸ļà¸£":14023,"Ìĥ":14024,"Ġalgunos":14025,"pha":14026,"ãĥ³ãĥĩ":14027,"Ġ250":14028,"Ġfunc":14029,"Ø¨ÛĮ":14030,"å½±éŁ¿":14031,"é³":14032,"1994":14033,"Ð°ÑĢÑħ":14034,"ĠMÃ¼nchen":14035,"Ġchanged":14036,"ë¶Ħ":14037,"Ã©ment":14038,"Ġ1870":14039,"ëŀĺ":14040,"ĠBroad":14041,"ĠCle":14042,"Ġcompl":14043,"Ø¶Ø§":14044,"Ġpicc":14045,"ondissement":14046,"Ġmiejsce":14047,"Ġoccur":14048,"eign":14049,"Ð¾Ð»Ñı":14050,"ãĤĤãģĤãĤĭ":14051,"Ġsenior":14052,"elsen":14053,"Ġconcentr":14054,"ĠÙĩÙĨ":14055,"uktur":14056,"ĠgroÃŁen":14057,"schaften":14058,"Ġwinning":14059,"Ð¸Ð½Ð¾Ð²":14060,"enth":14061,"Ġprincipalmente":14062,"IV":14063,"ĠØ³ÙĨ":14064,"Ġ×ŀ×ĺ":14065,"EN":14066,"å¼Ł":14067,"Ġsquadra":14068,"eau":14069,"ØªØŃ":14070,"kr":14071,"ĠÏĥÏĦ":14072,"wahl":14073,"ÑĢÐ°Ð½Ð¸":14074,"Ġfron":14075,"iod":14076,"Ġ52":14077,"Ġporta":14078,"é¾į":14079,"ĠÑĥÑĩÐ°ÑģÑĤÐ¸Ðµ":14080,"ä¸ĸç´Ģ":14081,"Ġìĭł":14082,"Ġrealizz":14083,"§à¥":14084,"lywood":14085,"ebb":14086,"Ġpint":14087,"folge":14088,"ĠÑĥÑĤ":14089,"penas":14090,"ĠZealand":14091,"cipe":14092,"Ġpresso":14093,"Ġparall":14094,"ÑĤÑĥÑĢ":14095,"worth":14096,"Ġ1880":14097,"Ġmely":14098,"Ġcad":14099,"based":14100,"ĠÛ±Û³Û":14101,"íĨł":14102,"Ġregist":14103,"ĠÐ½Ð°ÑģÐµÐ»ÐµÐ½Ð¸Ñı":14104,"utlich":14105,"Ġ×Ķ×ĸ":14106,"Ġapproach":14107,"ç®¡çĲĨ":14108,"iá»ģn":14109,"ĠDia":14110,"Ġmycket":14111,"Ġmeille":14112,"Ð»Ð°Ð³":14113,"Ġdecor":14114,"ãĤ°ãĥ©":14115,"Ġhyd":14116,"Î»Î»Î¬":14117,"ÙĦÙĪÙħ":14118,"ĠGil":14119,"ĠÐºÑĢÑĥÐ¿":14120,"ĠdÃ¼":14121,"Ã¤ft":14122,"ĠÏĥÏĦÎ±":14123,"uko":14124,"ĠÐºÐ°Ð¼":14125,"ahlen":14126,"ç²¾":14127,"rezent":14128,"ĠBÃ¼rger":14129,"à¸²à¸ŀ":14130,"Ġsonra":14131,"Ġà¤ħà¤¨":14132,"Ġdoll":14133,"ĠØ¬Ùĩ":14134,"ĠØ¨Ø§Ø±":14135,"å»¶":14136,"å²¸":14137,"ĠFreder":14138,"è¡Ĩ":14139,"ë¶ĢíĦ°":14140,"Ġeinz":14141,"tiin":14142,"Ġitaliano":14143,"ĠÐ¼Ð¾Ð´":14144,"ãģ²":14145,"ĠÃºltimo":14146,"ĠÑĢÐ°Ð·Ð²Ð¸ÑĤ":14147,"ĠStockholm":14148,"ĠÐ³ÑĥÐ±":14149,"×Ķ×ľ":14150,"ĠEt":14151,"Ġgdzie":14152,"Om":14153,"Ġ1901":14154,"ãĥ³ãĥĲ":14155,"Str":14156,"ĠKind":14157,"Ġjord":14158,"icks":14159,"ĠSek":14160,"èĢģ":14161,"ä»¥ä¸Ĭ":14162,"Ġsouthern":14163,"à¸ģà¸©":14164,"ĠÐ¸Ð·Ð±":14165,"ĠÐµÐ¼Ñĥ":14166,"yf":14167,"eszt":14168,"ĠMais":14169,"ãģ«ãģĬãģĳãĤĭ":14170,"ĠPil":14171,"Ġklas":14172,"ĠÃ³":14173,"Ġreste":14174,"à´Ļà´³":14175,"Ð¿Ð¾Ð½":14176,"ĠØ¨Ø¹Ø¶":14177,"Ġtam":14178,"ØªÙĨ":14179,"éĬĢ":14180,"uther":14181,"ÑĪÐ¸Ð¼":14182,"ĠperÃŃ":14183,"Ġcomment":14184,"äººçī©":14185,"ĠannÃ©e":14186,"scar":14187,"etty":14188,"ÑĪÑĳÐ»":14189,"ĠKer":14190,"×¢×ķ×ª":14191,"umin":14192,"ĠMcC":14193,"ĠFu":14194,"Ġniem":14195,"Ġxuáº¥t":14196,"ÐµÐ½Ð½ÑĭÑħ":14197,"ultan":14198,"oki":14199,"×¨×Ĵ":14200,"ĠpelÃŃcula":14201,"orÃŃa":14202,"ÙĪÙģÙĬ":14203,"Ġlittle":14204,"ikat":14205,"Ġniveau":14206,"æĹ¥ãģ®":14207,"Ġmuk":14208,"ÏĢÎ±":14209,"Ġà¤ĸ":14210,"Ġwenn":14211,"ä½įç½®":14212,"fort":14213,"Ġtodas":14214,"Ġpode":14215,"ĠTheater":14216,"ĠCivil":14217,"atch":14218,"ĠfÃ¶rsta":14219,"ĠCard":14220,"Ø§Ø³Ùħ":14221,"Ġcompte":14222,"Ġlado":14223,"Ġvitt":14224,"Ø±ÙĥØ©":14225,"sam":14226,"íİ":14227,"Ġfix":14228,"szer":14229,"1992":14230,"ÎĹ":14231,"Ġrelationship":14232,"luv":14233,"ãģķãĤĮãģ¦ãģĦãģŁ":14234,"endung":14235,"ĠØ£Ø¨":14236,"arlier":14237,"Ġwieku":14238,"azzo":14239,"Ġindependent":14240,"ĠÑģÑĤÐ°Ð½":14241,"ãģĹãģŁãģĮ":14242,"ĠÐ¸ÑģÑģÐ»ÐµÐ´Ð¾Ð²":14243,"Ġhip":14244,"300":14245,"ĠIls":14246,"ilder":14247,"dez":14248,"ĠMem":14249,"ĠKop":14250,"kaÅĦ":14251,"æĺ¥":14252,"Ġsollte":14253,"Ġdebido":14254,"oge":14255,"Ð»Ð°ÑģÑĮ":14256,"teilung":14257,"ĠRac":14258,"×ľ×ĳ":14259,"Ø§ÙĪ":14260,"Ġgaz":14261,"ĠÙĥÙħØ§":14262,"elled":14263,"æĨ":14264,"uva":14265,"ĠKreis":14266,"×ĳ×Ĺ":14267,"è¾¾":14268,"Ġenerg":14269,"agi":14270,"Ġditu":14271,"ãĤµãĤ¤":14272,"ĠGames":14273,"Ø±Ø¨ÙĬØ©":14274,"çķ¥":14275,"Ð°ÑĨÐ¸Ð¸":14276,"Ġà´Ĵ":14277,"etter":14278,"Ġreve":14279,"ĠÄĳá»ĭnh":14280,"ĠToch":14281,"Ġdiesen":14282,"histoire":14283,"hos":14284,"IT":14285,"Ġveel":14286,"Ġsusp":14287,"ĠJacob":14288,"ĠConserv":14289,"owane":14290,"ê¹Į":14291,"Ġdurant":14292,"ĠGiovanni":14293,"Ġasc":14294,"Ð»Ð¸Ñı":14295,"ĠOf":14296,"ÑģÑĤÑĭ":14297,"ĠHow":14298,"Ġruss":14299,"ĠregiÃ³n":14300,"åĢĻ":14301,"owski":14302,"ĠGott":14303,"ollowing":14304,"Ġment":14305,"izabeth":14306,"Ġmá»":14307,"Av":14308,"ãģķãĤī":14309,"ĠMand":14310,"ĠBou":14311,"Ġtoo":14312,"Ġvá»ĭ":14313,"ĠGusta":14314,"ÏĥÎ¿":14315,"Ġà´ī":14316,"ĠQuá»ĳc":14317,"ë°©":14318,"Î¼Î±ÏĦÎ±":14319,"åĺ":14320,"ĠJahres":14321,"ĠdÃ©cada":14322,"Û¶":14323,"Ġadvan":14324,"gestellt":14325,"ĠLudwig":14326,"Ġruns":14327,"Ġram":14328,"roit":14329,"ĠÐ³Ð¾ÑĢ":14330,"Ø¹Ø¯Ø§Ø¯":14331,"ĠÎ¦":14332,"ĠJourn":14333,"ĠAlb":14334,"×ŀ×ķ×ª":14335,"Ġfen":14336,"Ġrequired":14337,"ç¹Ķ":14338,"ÑĢÐ¸Ð³":14339,"Ġaller":14340,"ç¯ī":14341,"Ġpul":14342,"ĠettÃ¤":14343,"Ġsvil":14344,"burgh":14345,"ĠÏĥÏĦÎ¹ÏĤ":14346,"ĠÐ¾ÑģÑĤÐ°Ð²":14347,"Ġsummer":14348,"ĠgroÃŁ":14349,"Met":14350,"Ġtransl":14351,"ĠIg":14352,"vere":14353,"masÄ±":14354,"ÎºÏĮ":14355,"æ³¨":14356,"ĠHart":14357,"Ġtravel":14358,"aling":14359,"áº½":14360,"Ġproduce":14361,"éīĦéģĵ":14362,"ÙħØ³":14363,"Ġproble":14364,"lÃ¤che":14365,"Ġdepois":14366,"iesen":14367,"Ġzes":14368,"lain":14369,"à¤ł":14370,"enig":14371,"Ġà¦ĸ":14372,"leb":14373,"ĠÐºÐ°ÑĩÐµÑģÑĤÐ²Ðµ":14374,"ĠInternet":14375,"embly":14376,"Ġ×ľ×§":14377,"ĠCur":14378,"Ð½ÐµÐ³Ð¾":14379,"Ġminister":14380,"Ġlook":14381,"anson":14382,"Ag":14383,"ogrÃ¡f":14384,"Ġpueden":14385,"Ø§ÙĦÙĬØ©":14386,"Ð°ÑĢÐ°ÐºÑĤ":14387,"ÎºÎ±Î½":14388,"Ġsouvent":14389,"idir":14390,"ĠÄĳá»ĵng":14391,"Ð»Ð¾ÑĤ":14392,"éĲ":14393,"ĠEisen":14394,"Ã®tre":14395,"ingga":14396,"ĠWay":14397,"Ġkec":14398,"Christ":14399,"iop":14400,"Ð½Ð°Ð´":14401,"Ġsov":14402,"Ġallerdings":14403,"rou":14404,"Ð²ÐµÐ»":14405,"oo":14406,"Ġrid":14407,"ä½įæĸ¼":14408,"Ġï¼ī":14409,"mittel":14410,"ç»Ł":14411,"ĠLater":14412,"Ø¯ÛĮ":14413,"ĠÙĪØ³":14414,"×ķ×¤×Ķ":14415,"aye":14416,"ĠÎ§":14417,"Ġquestion":14418,"Ġarmy":14419,"Ġern":14420,"Ġvall":14421,"ĠCongress":14422,"Ġmest":14423,"My":14424,"omes":14425,"hui":14426,"ãĤ¤ãĥĦ":14427,"Ġà§¨":14428,"Ġcultural":14429,"Ġolder":14430,"ĠÐ¿Ð¾ÑģÑĤÑĢÐ¾":14431,"ĠpÃ¤":14432,"ë¡Ŀ":14433,"ÑıÐ»":14434,"×ĵ×Ļ×Ŀ":14435,"ĠÑĥÐ»Ð¸":14436,"Ġsinh":14437,"Ġvin":14438,"Ġ×Ĺ×ĳ×¨":14439,"utan":14440,"ÅŁÄ±":14441,"ĠStein":14442,"åĲĮãģĺ":14443,"Ġstudi":14444,"ĠØ§ÙĦØ²":14445,"æ¸¡":14446,"ĠÐ¶ÐµÐ½Ñī":14447,"Ġnoviembre":14448,"Ġocup":14449,"oit":14450,"Û·":14451,"alb":14452,"Ġesper":14453,"×ŀ×Ĳ":14454,"estro":14455,"ĠÐ½Ð¾ÑıÐ±ÑĢÑı":14456,"Ġprest":14457,"ØªÙī":14458,"Ġbarr":14459,"Ġdzie":14460,"ĠÐ³Ð¾ÑģÑĥÐ´Ð°ÑĢÑģÑĤÐ²ÐµÐ½":14461,"Ġletzten":14462,"EFA":14463,"å£°":14464,"Ġmejor":14465,"ìĹħ":14466,"aval":14467,"ÑģÑĭ":14468,"ĠÙĪÙĤØ¯":14469,"ĠAlthough":14470,"Ã©bec":14471,"×¨×ķ":14472,"Ð°Ð»ÑĮÐ½Ð¾Ð¹":14473,"ĠÃ©tant":14474,"Ġtaking":14475,"Ġaos":14476,"ĠEg":14477,"illÃ¤":14478,"ĠademÃ¡s":14479,"ĠÏĢÎ±Ïģ":14480,"ierp":14481,"ĠëĮĢíķľ":14482,"è¤":14483,"å¾ĭ":14484,"ĠÐ½Ð°Ð¿":14485,"Ġconfer":14486,"Ġstudies":14487,"lungen":14488,"Ġrecher":14489,"1991":14490,"ĠAsh":14491,"Ġoltre":14492,"ĠgÅĤÃ³w":14493,"ç«¯":14494,"×¤×ĺ":14495,"µľ":14496,"Ġespecially":14497,"Ã³dzt":14498,"Ġzou":14499,"illet":14500,"Ð¦":14501,"Ġkey":14502,"×¦×ķ×ª":14503,"ĠvÃŃ":14504,"ĠviÃªn":14505,"uchs":14506,"Paul":14507,"Ã³Å¼":14508,"ĠtravÃ©s":14509,"Ġeu":14510,"ÑĤÐ¸ÑĢÐ¾Ð²":14511,"ĠÐ²Ð¾Ð·Ð¼Ð¾Ð¶":14512,"oring":14513,"ofd":14514,"ĠAli":14515,"çŁŃ":14516,"aries":14517,"ãĥģãĥ¼ãĥł":14518,"Ġstaff":14519,"ĠÎ±ÏħÏĦ":14520,"Ġà°¸à°®":14521,"Ġcinco":14522,"Ap":14523,"ĠWomen":14524,"ĠResearch":14525,"Ã¨ve":14526,"ĠKas":14527,"Ð³Ðµ":14528,"Ġfase":14529,"riode":14530,"ĠJugend":14531,"furt":14532,"jel":14533,"rane":14534,"ÑĦÑĦ":14535,"Ġ×Ľ×Ĳ":14536,"Ġluego":14537,"ĠÑĤÐ¸Ð¿":14538,"1993":14539,"×ĳ×ķ×¦":14540,"Ġtá»īnh":14541,"ichtung":14542,"Ġsechs":14543,"Ġ×ľ×¡":14544,"OR":14545,"Ġdeven":14546,"ĠUt":14547,"ĠAmt":14548,"Ġarriv":14549,"Ġtand":14550,"endes":14551,"Ġconcer":14552,"acja":14553,"Ð»Ð¸ÑģÑĮ":14554,"Ġtitolo":14555,"ĠDor":14556,"ĠFrauen":14557,"ĠtarafÄ±ndan":14558,"åħ³":14559,"ĠChap":14560,"mb":14561,"ĠtÃ¤tig":14562,"ready":14563,"Ġek":14564,"ĠÙĨÛĴ":14565,"Ġmechan":14566,"Ġfi":14567,"ivitÃł":14568,"ÅĦskiego":14569,"Ġwriting":14570,"Ã¡sz":14571,"Ġjon":14572,"Ġpromin":14573,"æī¹":14574,"ÑĢÐ¾ÑĤ":14575,"Ġerk":14576,"ĠGlob":14577,"Ġcatal":14578,"Ð¾Ð·ÑıÐ¹":14579,"íŀĪ":14580,"è£ľ":14581,"ĠFest":14582,"ĠcÃ²n":14583,"ĠBart":14584,"à®¤à®²":14585,"Ġscore":14586,"rez":14587,"ĠÅ¼y":14588,"Ġ|":14589,"Ġmanager":14590,"adal":14591,"ÑīÐ°Ð´":14592,"ÙħÛĮ":14593,"å¢Ĺ":14594,"uhan":14595,"Ġsubs":14596,"Ġclubs":14597,"ĠMoh":14598,"Ġspent":14599,"ĠJr":14600,"ontra":14601,"Ø³ÙĨ":14602,"éĽ£":14603,"äº¡":14604,"æı´":14605,"Ġlength":14606,"sÃ©g":14607,"Ġcontinue":14608,"Ġpercent":14609,"Ġsai":14610,"ÑĢÑĳÑħ":14611,"Ġobt":14612,"å´İ":14613,"Ġperc":14614,"ĠKÅ«h":14615,"é¨ĵ":14616,"èĩ´":14617,"PC":14618,"ĠgÃ¶r":14619,"Ġnote":14620,"Ġlargo":14621,"onic":14622,"Ã¡rt":14623,"çµ¦":14624,"gleich":14625,"Ġald":14626,"Ġlak":14627,"ĠQueen":14628,"Seg":14629,"å©ļ":14630,"Ġ600":14631,"sl":14632,"ìĪ":14633,"Ã©rit":14634,"ĠÐ²ÐµÐº":14635,"ifer":14636,"Ġsenza":14637,"×ķ×¨×ª":14638,"iona":14639,"Ġowned":14640,"ÄħÅ¼":14641,"aine":14642,"ĠSein":14643,"imen":14644,"ĠÑģÐ²Ð¾Ðµ":14645,"Ġsost":14646,"Ġgenus":14647,"ìĸĳ":14648,"toz":14649,"Ġmeans":14650,"schlieÃŁend":14651,"ĠSimon":14652,"Ġnumeros":14653,"Ġinternacional":14654,"ãĢįï¼Ī":14655,"à±Ĩà°Ĥ":14656,"ĠDomin":14657,"ä»ĭ":14658,"Ãºtbol":14659,"Ġcann":14660,"uliÃ¨re":14661,"å¤ı":14662,"å·±":14663,"ĠÐ¿Ð¾ÐºÐ°Ð·":14664,"ebrero":14665,"ĠPs":14666,"had":14667,"Ġmonument":14668,"Ġcoast":14669,"Ġbuildings":14670,"Î¹ÏĥÏĦ":14671,"ĠDip":14672,"æĪĲç«ĭ":14673,"Ġproduz":14674,"ED":14675,"ĠMarÃŃa":14676,"ãģ«åĩº":14677,"Ġklim":14678,"Ġapenas":14679,"Ġfus":14680,"Ġhigher":14681,"ĠgroÃŁe":14682,"íĸĪ":14683,"ĠlÃ¤":14684,"Ġlab":14685,"ĠÐ¡Ð°Ð½":14686,"ĠLondres":14687,"Ġsamen":14688,"Ø°ÙĦÙĥ":14689,"Ġsemi":14690,"Ġespecie":14691,"azi":14692,"Ġimpr":14693,"oem":14694,"ĠÐ¾ÑĤÐ´":14695,"ĠBuenos":14696,"ĠWol":14697,"Ġpertama":14698,"Ġpreviously":14699,"Ġacadem":14700,"ĠÐ²ÑĭÑĪ":14701,"nete":14702,"Pre":14703,"Ġerfolgte":14704,"ãĥ©ãĥ¼":14705,"fre":14706,"ä»İ":14707,"Ø¨Øª":14708,"ĠÎ¤Î¿":14709,"ĠÐ½Ð°ÑħÐ¾Ð´Ð¸ÑĤÑģÑı":14710,"Ġë°©":14711,"aha":14712,"Ġdez":14713,"ĠÐ²Ð¼ÐµÑģÑĤÐµ":14714,"Ġprimary":14715,"Ġere":14716,"Ġstycz":14717,"Ġverl":14718,"ensoort":14719,"ĠperÃ²":14720,"Ġended":14721,"iskt":14722,"Ġherman":14723,"ĠØ§ÙĦÙħØ³":14724,"Auf":14725,"Ġdefeated":14726,"Ġà®īà®³":14727,"Ġtutta":14728,"å¾ŀ":14729,"à®ķà®°":14730,"Ġdrie":14731,"ĠÑĤÐµÐ°ÑĤ":14732,"ET":14733,"adio":14734,"ĠÑĦÐµÐ²ÑĢÐ°Ð»Ñı":14735,"Ġrailway":14736,"ĠDoc":14737,"ĠCour":14738,"ĠgegrÃ¼ndet":14739,"ĠKultur":14740,"Ġallen":14741,"Ġà´ľ":14742,"ĠFrau":14743,"Ġtraditional":14744,"è¯Ń":14745,"Ġtang":14746,"Ġef":14747,"ĺĲ":14748,"Ġdoit":14749,"Ġexclus":14750,"Ġinaugur":14751,"à¤°à¤ķ":14752,"à¤¿à¤Ĥ":14753,"ĠÙĨÛĮØ²":14754,"Ġurban":14755,"ĠAkadem":14756,"She":14757,"ë°ĺ":14758,"ĠÐ¼Ð¸Ð½Ð¸":14759,"Ġenem":14760,"ĠÙĨÙģØ±":14761,"ĠHung":14762,"Ø²ÙĬ":14763,"Ġterug":14764,"Ġspons":14765,"2020":14766,"best":14767,"unit":14768,"ĠÐ¿ÑĢÐ¾ÑĨ":14769,"éĤ¦":14770,"Ġissues":14771,"Ġforte":14772,"onel":14773,"alin":14774,"ä»¥éĻį":14775,"Ġrak":14776,"long":14777,"was":14778,"çĻºè¡¨":14779,"Ġ51":14780,"Ġgeen":14781,"ĠØºÙĬØ±":14782,"Ġà®ĩà®¤":14783,"ĠÐ¸ÑĤ":14784,"Ġoperations":14785,"ĠpolÃŃtica":14786,"athan":14787,"Fl":14788,"Ġdecis":14789,"Ġkhu":14790,"Ġthus":14791,"Ð¾Ð·Ð¸":14792,"enze":14793,"ĠWasser":14794,"ĠFa":14795,"Ġogni":14796,"Ġchampionship":14797,"ĠPublic":14798,"Ġbegin":14799,"ĠØ§ÙĦÙħØ¯":14800,"ä¸Ķ":14801,"ãģ®ãģ¿":14802,"Ġhebben":14803,"ÏĩÎµÎ¹":14804,"Ġseorang":14805,"Ġinterview":14806,"ragon":14807,"Ġtowards":14808,"Esp":14809,"ĠWindows":14810,"ĠÐ¾Ð´Ð½Ð°ÐºÐ¾":14811,"osof":14812,"zio":14813,"ãĥªãĥ¼ãĤº":14814,"Ġcentrale":14815,"Ð¾ÑĤÐ²ÐµÑĤ":14816,"Ġpopula":14817,"à§§à§":14818,"ĠNorte":14819,"Ġ1898":14820,"itekt":14821,"ãĤ¦ãĤ£":14822,"PR":14823,"à¸Ńà¸ļ":14824,"Ġproven":14825,"Ã©st":14826,"à¤ģ":14827,"ĠRand":14828,"ĠBog":14829,"Ġ×ĳ×ľ":14830,"ĠAprÃ¨s":14831,"à®Łà®®":14832,"bero":14833,"ĠÎ¡":14834,"ĠBec":14835,"iai":14836,"Ġjaren":14837,"Ġopening":14838,"ĠWalter":14839,"ple":14840,"icios":14841,"Ġmagyar":14842,"ĠØ¨Ø´":14843,"ĠJersey":14844,"ugen":14845,"ĠEntre":14846,"Ð¼Ð¾Ð½":14847,"èĪŀ":14848,"å¹³æĸ¹åħ¬éĩĮ":14849,"Ġabb":14850,"Ġdiam":14851,"Ã¨tres":14852,"Ð¸ÑĩÐµÑģÐºÐ¾Ð¹":14853,"ĠBetrieb":14854,"isiÃ¨me":14855,"ĠEsta":14856,"Ġfatto":14857,"onders":14858,"ĠÙĬØ¹":14859,"Ð½Ð¸ÑĨÐ°":14860,"ãģĻãĤĭãģ¨":14861,"Ġ×ķ×©":14862,"Ð°Ð»ÑĮÐ½ÑĭÑħ":14863,"ÑİÑīÐ¸Ñħ":14864,"ĠSym":14865,"Ġgenerally":14866,"Ã¡val":14867,"ĠÑĢÐ°Ð½":14868,"Ã©gl":14869,"Ġ×Ļ×ķ×ª×¨":14870,"ĠØ¨ÛĮ":14871,"åº·":14872,"ÙĪÙĨØ¯":14873,"å¥¥":14874,"ĠMost":14875,"ĠGebÃ¤ude":14876,"inand":14877,"Ġotro":14878,"Hen":14879,"Ġdog":14880,"Ġretir":14881,"elop":14882,"ĠGovernment":14883,"Ġmoney":14884,"Ġreserv":14885,"Ġwechselte":14886,"Ġsab":14887,"éļİ":14888,"ĠKomm":14889,"Ġoccident":14890,"å°Ĥ":14891,"esk":14892,"elia":14893,"Ã©li":14894,"è®¡":14895,"uga":14896,"incl":14897,"stitut":14898,"Ġitalien":14899,"dig":14900,"%,":14901,"å¹³æĪĲ":14902,"ĠWild":14903,"ĠÙĪÙģÙĬ":14904,"urent":14905,"ĠBattle":14906,"Ġib":14907,"imonio":14908,"mania":14909,"ĠÅĳ":14910,"ĠcÃ¡ch":14911,"Ġmint":14912,"ĠÐºÑĬ":14913,"à¸Ļà¸§":14914,"olla":14915,"ĠLy":14916,"Ġbit":14917,"Ġberb":14918,"ĠOhio":14919,"ÙĪØ±Ø©":14920,"lers":14921,"Ġdemand":14922,"1970":14923,"waÅĤ":14924,"auspiel":14925,"ĪĴ":14926,"Ã¤hn":14927,"Bar":14928,"ĠJunior":14929,"rzeÅĽ":14930,"à¹Ģà¸§":14931,"ĠOntario":14932,"å°¾":14933,"ĠFerr":14934,"Ġsequ":14935,"ìĨį":14936,"ìĺģ":14937,"coup":14938,"ĠÃ¶ss":14939,"owaÅĤa":14940,"klÃ¤r":14941,"Ġcombat":14942,"ä¸ģ":14943,"ĠJeff":14944,"Ø§ÙĨØ³":14945,"Ġayant":14946,"Ġgirl":14947,"Ġkrit":14948,"à¦°à¦£":14949,"Ã¨ces":14950,"ĠÑģÑĢÐµÐ´Ð¸":14951,"aces":14952,"Ġjob":14953,"ivement":14954,"áº«n":14955,"éĻ½":14956,"ãĥ³ãĤ¸":14957,"ĠJoe":14958,"Ġ×Ĳ×ł":14959,"Ã¨se":14960,"çĻ»åł´":14961,"Î¯Îº":14962,"ilio":14963,"ĠÃ©quip":14964,"ĠFal":14965,"uez":14966,"ÙĨÙĩ":14967,"imos":14968,"ĠÃĸsterreich":14969,"ãĥĸãĥ«":14970,"Ġfigure":14971,"Ð³ÑĢÐ°Ð´":14972,"Ġfrag":14973,"emi":14974,"Ġaccording":14975,"ĠÐ¼ÐµÐ½":14976,"à¸£à¸ĩ":14977,"Ġà¦ıà¦ķà¦Ł":14978,"ĠÐ½Ð°ÑĢÐ¾Ð´":14979,"×ŀ×¢":14980,"Ġclasse":14981,"Ġkeep":14982,"ĠÐ¸Ð½ÑģÑĤÐ¸ÑĤ":14983,"Mart":14984,"LA":14985,"kÃ¤":14986,"ĠÑĤÐµÑĩ":14987,"ĠJohannes":14988,"reto":14989,"ĠRechts":14990,"ĠTrung":14991,"Ġ×¤×¢":14992,"ĠØªØµ":14993,"Ġ1896":14994,"ĠAy":14995,"ìŀĦ":14996,"ĠÐ¾ÑĤÐ½Ð¾ÑĪ":14997,"ĠcrÃŃt":14998,"ç¥¨":14999,"Ġcharge":15000,"ÑģÐ»Ð¸":15001,"éĤ£":15002,"ĠAtt":15003,"ĠFred":15004,"Ġgod":15005,"ĠNews":15006,"ustrie":15007,"ĠØªØ£":15008,"ĠØ£ÙħØ±ÙĬ":15009,"gefÃ¼hrt":15010,"ĠMount":15011,"Ġinitial":15012,"ĠHenri":15013,"ality":15014,"Ġpain":15015,"Ġomkring":15016,"Ġvorm":15017,"ĠSydney":15018,"ĠáĥĴáĥĲáĥĽ":15019,"ĠWei":15020,"Ã©nek":15021,"ĠMach":15022,"anas":15023,"Ø§ÛĮÙĨ":15024,"ÑĩÐ½Ð¾":15025,"Ġà®Ĵà®°":15026,"Ġpied":15027,"×Ļ×ļ":15028,"Ġoutros":15029,"ÑģÑĤÐµÑĢ":15030,"ĠFle":15031,"ÑĥÐ³":15032,"Ġbeau":15033,"Ġkos":15034,"adamente":15035,"Ã¼tt":15036,"æĿ¿":15037,"ĠConse":15038,"voor":15039,"Ġà°Ń":15040,"ĠÃĪ":15041,"ĠÐ¶ÑĥÑĢÐ½":15042,"ĠVu":15043,"Ġwestern":15044,"Ġry":15045,"my":15046,"ĠÐ²ÑħÐ¾Ð´":15047,"Ġwhom":15048,"ĠØŃØªÙī":15049,"Î¬Î»":15050,"xy":15051,"Ġcontact":15052,"Ġling":15053,"ĠrÃŃo":15054,"Ġentra":15055,"Ġuff":15056,"Ð¾Ð»Ð¸":15057,"ĠOver":15058,"Sal":15059,"Ð¼Ð¸ÑĢÐ¾Ð²":15060,"ĠMedia":15061,"Ġestos":15062,"ÐºÐ¾Ð½":15063,"à¦°à¦ķ":15064,"Ġpermit":15065,"ĠVar":15066,"åıĥ":15067,"Ð´Ð¸Ð¸":15068,"Ġrue":15069,"owano":15070,"ĠSocial":15071,"Ġerschien":15072,"ĠpÃ©riode":15073,"Ġvast":15074,"onc":15075,"ĠSto":15076,"eito":15077,"ĠÙĪÙĤ":15078,"Ġ1899":15079,"Ġzij":15080,"è¡ĮæĶ¿":15081,"åľĺ":15082,"Ġagli":15083,"enty":15084,"Ġtelt":15085,"Ġbattle":15086,"ĠPacific":15087,"ĠÐ³ÑĢÑĥÐ¿Ð¿Ñĭ":15088,"Ġfamilies":15089,"ãĤªãĥª":15090,"Ã©ly":15091,"ĠÙħÙĦ":15092,"Ġsometimes":15093,"ĠLag":15094,"Ì§":15095,"Ġoft":15096,"Ġ1897":15097,"æıı":15098,"eless":15099,"ä»¬":15100,"Ġstations":15101,"Ġwobei":15102,"ĠmiÄĻdzy":15103,"ĠsydÃ¶stra":15104,"Ġmadre":15105,"çº§":15106,"Ġesemp":15107,"TP":15108,"è©¦åĲĪ":15109,"Ġ×Ķ×Ļ×Ļ×ª×Ķ":15110,"umn":15111,"Ġargent":15112,"àµĪ":15113,"affen":15114,"Ġsamp":15115,"ĠNight":15116,"rijk":15117,"ĠÙħØ«ÙĦ":15118,"×Ļ×Ļ×Ķ":15119,"iÅĤ":15120,"orning":15121,"Ð°Ð»ÑĮÐ½Ð¾Ð³Ð¾":15122,"Ġà®ħà®®":15123,"ĠThat":15124,"ÙĪØ·":15125,"èĭ¥":15126,"ÑĥÐ´Ð°":15127,"Ġtable":15128,"Ġretour":15129,"inae":15130,"Ġfebrero":15131,"Ġanv":15132,"Ð°ÑĢÑĮ":15133,"à°ĸ":15134,"ĠUnternehmen":15135,"Ġriktning":15136,"Sel":15137,"Ð¾ÑĢÑĮ":15138,"Ġmove":15139,"Ġfamous":15140,"tagne":15141,"ĠConf":15142,"Ġcuá»Ļc":15143,"Ã¡lis":15144,"ĠUne":15145,"ĠBis":15146,"usetts":15147,"ĠÐ±ÐµÑĢÐµ":15148,"uerd":15149,"Ġkier":15150,"gers":15151,"Ġinvas":15152,"ÐµÑĦ":15153,"ground":15154,"achusetts":15155,"ĠTheatre":15156,"ĠkÃ¶vet":15157,"ãģĹãģ¾":15158,"ĠÙĪÙģ":15159,"Ø³ØªØ±":15160,"ÃŃg":15161,"ãĤ²ãĥ¼ãĥł":15162,"grad":15163,"heast":15164,"Ø§Ø¹Ø©":15165,"ĠÐ¿ÑĢÐ¾Ð¸Ñģ":15166,"1989":15167,"á»£p":15168,"ĠGall":15169,"erah":15170,"Ġfamili":15171,"ĠNeben":15172,"ãģªãģĮ":15173,"ĠViá»ĩt":15174,"Ġsail":15175,"Ġtá»ķ":15176,"ÑģÑĤÐ²ÐµÐ½Ð½Ð¾":15177,"rice":15178,"çĶŁæ´»":15179,"ì§Ģë§Į":15180,"ĠKaz":15181,"ÑģÐºÐ¾Ð¿":15182,"utenant":15183,"Ã¨mes":15184,"ĠÐ³Ð¾Ð´Ð¾Ð²":15185,"éĥ½å¸Ĥ":15186,"ĠÐ¿Ð¾Ð³":15187,"ĠÐ»Ð¸ÑĪ":15188,"Camp":15189,"ĠSpe":15190,"ĠwrzeÅĽ":15191,"deutsch":15192,"von":15193,"à¸Ļà¸Ķ":15194,"ĠVictor":15195,"ĠÙħØµ":15196,"atri":15197,"Ð°Ð»ÑĮÐ½Ð¾":15198,"ĠnÃ¶rd":15199,"ateg":15200,"ĠÐ¿Ð¾Ð´Ð´ÐµÑĢÐ¶":15201,"ĠCha":15202,"flug":15203,"ÃŃcul":15204,"Ð¾ÑģÐ»ÐµÐ´":15205,"Ġà¤īà¤¨":15206,"Ġearlier":15207,"erer":15208,"SC":15209,"Ġcounty":15210,"ì¤ĳ":15211,"Ġmitt":15212,"âĢĺ":15213,"èĩ£":15214,"¶Į":15215,"Ġphilosoph":15216,"ĠÐ·Ð°Ð¼":15217,"ĠpÃ³Åºniej":15218,"ĠRoll":15219,"à°¿,":15220,"Ġoblig":15221,"ugno":15222,"besondere":15223,"Ġlange":15224,"ãĥīãĤ¤ãĥĦ":15225,"Ġinici":15226,"ppen":15227,"Ġmajd":15228,"law":15229,"Ø¨Ø§ÙĨ":15230,"æİĴ":15231,"Ġtá»±":15232,"á»įi":15233,"ĠAlfred":15234,"ĠStaff":15235,"Ø§Ø¦ÙĬØ©":15236,"Aus":15237,"ĠManuel":15238,"ĠØ¹ÙĨØ¯":15239,"ecer":15240,"ĠZweiten":15241,"ç´į":15242,"ĠRussia":15243,"Ġnale":15244,"ĠSum":15245,"Ġbá»Łi":15246,"Ã¼nstler":15247,"äº¦":15248,"icul":15249,"Ġissue":15250,"ĠrÃ´le":15251,"ĠNorden":15252,"ĠkÃ©t":15253,"Ġtram":15254,"Ġtravers":15255,"irse":15256,"inner":15257,"Ġalb":15258,"nahmen":15259,"Ob":15260,"roph":15261,"Ġmanifest":15262,"rÃŃa":15263,"ä¾¡":15264,"Ġassum":15265,"ĠChr":15266,"ĠÐ²ÑģÐµÑħ":15267,"Ġhizo":15268,"ĠÐºÐ¾ÑĤÐ¾ÑĢÐ¾Ð³Ð¾":15269,"ãĢģãĢİ":15270,"iá»ĩp":15271,"ãĥ¼ãĥĩ":15272,"ĠVater":15273,"ĠOrd":15274,"ĠTwo":15275,"æıĽ":15276,"ĠnommÃ©":15277,"Ġactor":15278,"ĠXVI":15279,"iguel":15280,"éģĬ":15281,"itted":15282,"Ġmondo":15283,"Ġkwam":15284,"bek":15285,"åĽ³":15286,"alitÃ©":15287,"ĠÙĪØ±":15288,"áĥĿáĥĴ":15289,"ä¹¦":15290,"Ġquattro":15291,"dar":15292,"ĠEll":15293,"Ġlibro":15294,"Ġmembres":15295,"getto":15296,"Ġbáº£n":15297,"ĠRepÃºblica":15298,"istance":15299,"ĠÐ½Ð°Ð¹":15300,"æĺİæ²»":15301,"ĠBrand":15302,"Ġsubject":15303,"ĠìķĬ":15304,"Ġjelent":15305,"Ġmeist":15306,"evano":15307,"Ġtej":15308,"×¡×§":15309,"å¥³æĢ§":15310,"ĠÐ¾Ð¿ÐµÑĢÐ°":15311,"ĠØŃØ¯":15312,"ebo":15313,"nymi":15314,"Ð¾Ð±Ð¾Ð´":15315,"ĠFall":15316,"ç¥ĸ":15317,"à¦ı":15318,"omor":15319,"ĠGirl":15320,"tery":15321,"Ġimplement":15322,"ÑĥÑĢÐ°":15323,"ĠBlo":15324,"berger":15325,"ĠFolge":15326,"Ġsout":15327,"Ġblieb":15328,"Ġplays":15329,"ĠØ§ÙĦØ¹Ø§ÙĦÙħ":15330,"stoff":15331,"èģŀ":15332,"ĠAnfang":15333,"ĠErst":15334,"ĠBarcelona":15335,"ĠMik":15336,"Ġaliment":15337,"onds":15338,"Ġconvir":15339,"Ġ1860":15340,"Ġpac":15341,"urso":15342,"Ġproprio":15343,"taining":15344,"Ġcompanies":15345,"ĠKra":15346,"Ġstudied":15347,"Ġtemper":15348,"anyak":15349,"ĠØ³ÙĥØ§ÙĨ":15350,"Ġpractice":15351,"By":15352,"á»«":15353,"Ð³Ð¾ÑĤÐ¾Ð²":15354,"ĠTochter":15355,"uar":15356,"ĠMajor":15357,"å¯¦":15358,"ĠWÃ¤hrend":15359,"Ġvoit":15360,"Ġingles":15361,"Ø®Ø±Ùī":15362,"lij":15363,"ØªÙĪØ§ÙĨ":15364,"ĠìĹŃ":15365,"Ø¨Ø§":15366,"æ´Ľ":15367,"olia":15368,"æĿĲ":15369,"Ġtemperatur":15370,"Ġmarch":15371,"ĠÎ¼Î¹Î±":15372,"kh":15373,"ĠNorthern":15374,"ĠDun":15375,"ĠÐ¿ÑĢÐ¾ÑģÑĤ":15376,"Ġbrasile":15377,"Ġlud":15378,"ĠÐ°ÐºÑĤ":15379,"ĠGeg":15380,"Can":15381,"Ġdesen":15382,"èĢħãģ®":15383,"iá»ĥn":15384,"ĠHamburg":15385,"laub":15386,"uale":15387,"jak":15388,"ĠlÃ¤h":15389,"áĥ¨":15390,"Ġbasis":15391,"ìĥĿ":15392,"å¾ĵ":15393,"ãģĲ":15394,"Ġclear":15395,"Ã¤f":15396,"íħ":15397,"Ġbang":15398,"ÅĤow":15399,"gem":15400,"seh":15401,"Bill":15402,"ĠPiet":15403,"Î½ÏĦÎ±Î¹":15404,"itzen":15405,"ĠCampeonato":15406,"ĠTak":15407,"ãģŃ":15408,"allas":15409,"Ø§ÙĦØ©":15410,"ĠEinsatz":15411,"ĠInt":15412,"Ġmusste":15413,"ĠdÃ¶n":15414,"Ġczerw":15415,"Ġ1895":15416,"ĠMr":15417,"inge":15418,"ĠPad":15419,"åĨĻ":15420,"Ġgelegen":15421,"Ġà¤¯à¤¹":15422,"ĠÑĩÐ¸ÑģÐ»Ðµ":15423,"alie":15424,"Ġentire":15425,"ÐµÐ·Ð´":15426,"SP":15427,"à¸¥à¸ĩ":15428,"Ġparc":15429,"Ġaantal":15430,"izen":15431,"Ġneed":15432,"ettes":15433,"ĠBlue":15434,"Ġinstitu":15435,"ĠeuropÃ©":15436,"Ġáģ":15437,"herr":15438,"æŁ¥":15439,"rost":15440,"olas":15441,"Ã¶rder":15442,"à±Į":15443,"Ġ800":15444,"ĠfjÃ¤r":15445,"ĠConc":15446,"ĠÐ¶ÐµÐ»ÐµÐ·":15447,"Ġbroadcast":15448,"Ġmedic":15449,"ĠÐľÐ¸Ñħ":15450,"Ġcet":15451,
[...]
